{
  "version": "1.0",
  "truncation": null,
  "padding": null,
  "added_tokens": [
    {
      "id": 0,
      "content": "<|endoftext|>",
      "single_word": false,
      "lstrip": false,
      "rstrip": false,
      "normalized": false,
      "special": true
    }
  ],
  "normalizer": null,
  "pre_tokenizer": {
    "type": "ByteLevel",
    "add_prefix_space": false,
    "trim_offsets": true,
    "use_regex": true
  },
  "post_processor": {
    "type": "ByteLevel",
    "add_prefix_space": true,
    "trim_offsets": false,
    "use_regex": true
  },
  "decoder": {
    "type": "ByteLevel",
    "add_prefix_space": true,
    "trim_offsets": true,
    "use_regex": true
  },
  "model": {
    "type": "BPE",
    "dropout": null,
    "unk_token": null,
    "continuing_subword_prefix": null,
    "end_of_word_suffix": null,
    "fuse_unk": false,
    "byte_fallback": false,
    "ignore_merges": false,
    "vocab": {
      "<|endoftext|>": 0,
      "!": 1,
      "\"": 2,
      "#": 3,
      "$": 4,
      "%": 5,
      "&": 6,
      "'": 7,
      "(": 8,
      ")": 9,
      "*": 10,
      "+": 11,
      ",": 12,
      "-": 13,
      ".": 14,
      "/": 15,
      "0": 16,
      "1": 17,
      "2": 18,
      "3": 19,
      "4": 20,
      "5": 21,
      "6": 22,
      "7": 23,
      "8": 24,
      "9": 25,
      ":": 26,
      ";": 27,
      "<": 28,
      ">": 29,
      "?": 30,
      "A": 31,
      "B": 32,
      "C": 33,
      "D": 34,
      "E": 35,
      "F": 36,
      "G": 37,
      "H": 38,
      "I": 39,
      "J": 40,
      "K": 41,
      "L": 42,
      "M": 43,
      "N": 44,
      "O": 45,
      "P": 46,
      "Q": 47,
      "R": 48,
      "S": 49,
      "T": 50,
      "U": 51,
      "V": 52,
      "W": 53,
      "X": 54,
      "Y": 55,
      "Z": 56,
      "[": 57,
      "\\": 58,
      "]": 59,
      "_": 60,
      "`": 61,
      "a": 62,
      "b": 63,
      "c": 64,
      "d": 65,
      "e": 66,
      "f": 67,
      "g": 68,
      "h": 69,
      "i": 70,
      "j": 71,
      "k": 72,
      "l": 73,
      "m": 74,
      "n": 75,
      "o": 76,
      "p": 77,
      "q": 78,
      "r": 79,
      "s": 80,
      "t": 81,
      "u": 82,
      "v": 83,
      "w": 84,
      "x": 85,
      "y": 86,
      "z": 87,
      "|": 88,
      "~": 89,
      "¡": 90,
      "¢": 91,
      "¦": 92,
      "©": 93,
      "«": 94,
      "¬": 95,
      "¯": 96,
      "°": 97,
      "±": 98,
      "³": 99,
      "´": 100,
      "¶": 101,
      "¹": 102,
      "»": 103,
      "Â": 104,
      "Ã": 105,
      "Å": 106,
      "Ë": 107,
      "â": 108,
      "ĉ": 109,
      "Ċ": 110,
      "Ġ": 111,
      "Ģ": 112,
      "Ĥ": 113,
      "ĥ": 114,
      "Ħ": 115,
      "ĵ": 116,
      "ļ": 117,
      "ľ": 118,
      "Ŀ": 119,
      "ł": 120,
      "Ń": 121,
      "he": 122,
      "Ġt": 123,
      "Ġa": 124,
      "Ġs": 125,
      "nd": 126,
      "Ġw": 127,
      "Ġthe": 128,
      "ed": 129,
      "Ġand": 130,
      "Ġto": 131,
      "Ġb": 132,
      "in": 133,
      "Ġh": 134,
      "Ġwa": 135,
      "re": 136,
      "ou": 137,
      "Ġf": 138,
      "it": 139,
      "Ġl": 140,
      "Ġc": 141,
      "Ġd": 142,
      "er": 143,
      "Ġhe": 144,
      "Ġm": 145,
      "Ġp": 146,
      "Ġwas": 147,
      "ĠT": 148,
      "om": 149,
      "Ġo": 150,
      "ay": 151,
      "ar": 152,
      "is": 153,
      "ing": 154,
      "il": 155,
      "Ġg": 156,
      "id": 157,
      "at": 158,
      "en": 159,
      "Ġn": 160,
      "Ġsa": 161,
      "Ġha": 162,
      "ĠThe": 163,
      "ĠS": 164,
      "an": 165,
      "im": 166,
      "or": 167,
      "on": 168,
      "Ġit": 169,
      "Ġth": 170,
      "ll": 171,
      "le": 172,
      "ĠH": 173,
      "ot": 174,
      "Ġher": 175,
      "et": 176,
      "ir": 177,
      "ĠShe": 178,
      "es": 179,
      "ĠHe": 180,
      "end": 181,
      "Ġin": 182,
      "ver": 183,
      "ĠThey": 184,
      "ut": 185,
      "ow": 186,
      "ck": 187,
      "Ġu": 188,
      "Ġy": 189,
      "ld": 190,
      "oo": 191,
      "ily": 192,
      "Ġsaid": 193,
      "ig": 194,
      "Ġr": 195,
      "ex": 196,
      "Ġ\"": 197,
      "Ġbe": 198,
      "am": 199,
      "ĠI": 200,
      "Ġst": 201,
      "ke": 202,
      "ce": 203,
      "ve": 204,
      "ith": 205,
      "pp": 206,
      "Ġshe": 207,
      "Lily": 208,
      "Ġwith": 209,
      "On": 210,
      "Ġon": 211,
      "Ġyou": 212,
      "ked": 213,
      "Ġof": 214,
      "ri": 215,
      "Ġpl": 216,
      "nt": 217,
      "ft": 218,
      "Ġhis": 219,
      "ad": 220,
      "Ġso": 221,
      "very": 222,
      "Ġday": 223,
      "Ġthat": 224,
      "Ġup": 225,
      "ĠLily": 226,
      "Ġplay": 227,
      "el": 228,
      "Ġhad": 229,
      "Ġthey": 230,
      "st": 231,
      "ext": 232,
      "Ġwe": 233,
      "Ġmom": 234,
      "ĠB": 235,
      "Ġfor": 236,
      "Ġe": 237,
      "un": 238,
      "ould": 239,
      "'s": 240,
      "my": 241,
      "Ġli": 242,
      "The": 243,
      "oft": 244,
      "<|": 245,
      "|>": 246,
      "endoft": 247,
      "endoftext": 248,
      "ch": 249,
      "Ġhapp": 250,
      "Ġwant": 251,
      "ent": 252,
      "Ġsh": 253,
      "itt": 254,
      "her": 255,
      "out": 256,
      "Ġnot": 257,
      "Ġdo": 258,
      "ome": 259,
      "se": 260,
      "Ġvery": 261,
      "ly": 262,
      "all": 263,
      "ound": 264,
      "Ġwh": 265,
      "Ġk": 266,
      "ime": 267,
      "ittle": 268,
      "Ġtime": 269,
      "al": 270,
      "Ġlittle": 271,
      "ĠM": 272,
      "Ġthere": 273,
      "ht": 274,
      "Ġis": 275,
      "Ġhappy": 276,
      "Ġbig": 277,
      "ĠIt": 278,
      "ĠĊ": 279,
      "Ġre": 280,
      "Ġsm": 281,
      "Ġbut": 282,
      "Ġsaw": 283,
      "Ġan": 284,
      "ra": 285,
      "ry": 286,
      "riend": 287,
      ".\"": 288,
      "Ġfriend": 289,
      "Ġas": 290,
      "ack": 291,
      "Ġne": 292,
      "One": 293,
      "ide": 294,
      "ake": 295,
      "ug": 296,
      "'t": 297,
      "!\"": 298,
      "Ġloo": 299,
      "Ġwere": 300,
      "ved": 301,
      "Ġlo": 302,
      "ore": 303,
      "Once": 304,
      "Ġse": 305,
      "Ġtoo": 306,
      "Ġhim": 307,
      "Ġbo": 308,
      "Ġgo": 309,
      "Ġare": 310,
      "ec": 311,
      "ĠTim": 312,
      "Ġj": 313,
      "Ġwanted": 314,
      "ard": 315,
      "ill": 316,
      "irl": 317,
      "Ġthem": 318,
      "Ġupon": 319,
      "Ġgirl": 320,
      "Ġtheir": 321,
      "Ġout": 322,
      "Ġat": 323,
      "ind": 324,
      "ur": 325,
      "Ġdid": 326,
      "way": 327,
      "fu": 328,
      "Ġsp": 329,
      "ĠA": 330,
      "Ġcould": 331,
      "Ġsmil": 332,
      "hen": 333,
      "Ġhave": 334,
      "ain": 335,
      "hed": 336,
      "art": 337,
      "ter": 338,
      "ĠBen": 339,
      "rom": 340,
      "Ġcan": 341,
      "Ġwent": 342,
      "ic": 343,
      "Ġar": 344,
      "Ġex": 345,
      "lp": 346,
      "ood": 347,
      "ful": 348,
      "Ġfriends": 349,
      "?\"": 350,
      "hing": 351,
      "Ġnam": 352,
      "Ġkn": 353,
      "ĠJ": 354,
      "ight": 355,
      "Ġhelp": 356,
      "Ġsay": 357,
      "Ġall": 358,
      "one": 359,
      "um": 360,
      "ark": 361,
      "Ġback": 362,
      "You": 363,
      "Ġfun": 364,
      "ĠTom": 365,
      "Ġcl": 366,
      "are": 367,
      "Ġno": 368,
      "Ġle": 369,
      "op": 370,
      "Ġsc": 371,
      "Ġnamed": 372,
      "Ġal": 373,
      "elt": 374,
      "oug": 375,
      "Ġman": 376,
      "Ġloved": 377,
      "side": 378,
      "Ġsmiled": 379,
      "ĠOne": 380,
      "Ġtoy": 381,
      "Ġlike": 382,
      "ick": 383,
      "Ġfelt": 384,
      "Ġasked": 385,
      "Ġfe": 386,
      "Ġsome": 387,
      "Ġsee": 388,
      "Ġlooked": 389,
      "Ġme": 390,
      "ame": 391,
      "Ġaround": 392,
      "Ġro": 393,
      "ĠTimmy": 394,
      "omet": 395,
      "ĠW": 396,
      "ure": 397,
      "Ġbr": 398,
      "Ġbir": 399,
      "get": 400,
      "ice": 401,
      "Ġboy": 402,
      "Ġwould": 403,
      "ong": 404,
      "Ġstart": 405,
      "as": 406,
      "Ġbird": 407,
      "Ġsomet": 408,
      "ings": 409,
      "Ġfa": 410,
      "ade": 411,
      "Ġmake": 412,
      "Ġag": 413,
      "Ġwhat": 414,
      "Ġwor": 415,
      "dd": 416,
      "ĠYou": 417,
      ",\"": 418,
      "Ġsays": 419,
      "ĠBut": 420,
      "king": 421,
      "Ġran": 422,
      "Ġaway": 423,
      "own": 424,
      "gether": 425,
      "Ġtre": 426,
      "Ã¢": 427,
      "âĤ": 428,
      "âĤ¬": 429,
      "ag": 430,
      "ared": 431,
      "ie": 432,
      "oud": 433,
      "Ġmade": 434,
      "Ġstarted": 435,
      "Ġcar": 436,
      "Ġtogether": 437,
      "Ġsomething": 438,
      "Ġco": 439,
      "ther": 440,
      "Ġpark": 441,
      "Ġsad": 442,
      "Ġother": 443,
      "ited": 444,
      "Ġput": 445,
      "Ġnew": 446,
      "Ġfrom": 447,
      "ell": 448,
      "Ġhug": 449,
      "Ġpr": 450,
      "ble": 451,
      "Ġagain": 452,
      "ook": 453,
      "Ġexc": 454,
      "ach": 455,
      "ĠL": 456,
      "Ġgood": 457,
      "Ġhome": 458,
      "Ġla": 459,
      "Ġmu": 460,
      "ss": 461,
      "Ġwhen": 462,
      "if": 463,
      "Ġfl": 464,
      "ried": 465,
      "ep": 466,
      "Ġwho": 467,
      "est": 468,
      "Ġthen": 469,
      "Ġfound": 470,
      "Ġch": 471,
      "Ġdec": 472,
      "pped": 473,
      "hat": 474,
      "Ġget": 475,
      "Ġwal": 476,
      "Ġplaying": 477,
      "qu": 478,
      "Ġsw": 479,
      "ought": 480,
      "nn": 481,
      "Ġliked": 482,
      "uck": 483,
      "Ġthings": 484,
      "ĠE": 485,
      "ally": 486,
      "pl": 487,
      "ous": 488,
      "Ġgot": 489,
      "Ġbl": 490,
      "Ġexcited": 491,
      "ro": 492,
      "ided": 493,
      "ave": 494,
      "Ġcame": 495,
      "ara": 496,
      "Ġevery": 497,
      "Ġdecided": 498,
      "Ġyour": 499,
      "Ġdog": 500,
      "ĠMom": 501,
      "ax": 502,
      "Ġv": 503,
      "Ġscared": 504,
      "ĠD": 505,
      "Ġone": 506,
      "Ġdown": 507,
      "ust": 508,
      "Ġfind": 509,
      "Ġcare": 510,
      "They": 511,
      "nna": 512,
      "ouse": 513,
      "ap": 514,
      "Ġbec": 515,
      "ist": 516,
      "Ġthan": 517,
      "ny": 518,
      "Ġfeel": 519,
      "ue": 520,
      "Ġdad": 521,
      "Ġab": 522,
      "Ġwill": 523,
      "Ġmy": 524,
      "arn": 525,
      "Ġlook": 526,
      "udd": 527,
      "our": 528,
      "Ġgr": 529,
      "ers": 530,
      "Ġke": 531,
      "Ġgra": 532,
      "us": 533,
      "Ġdidn": 534,
      "ways": 535,
      "ess": 536,
      "Ġpo": 537,
      "Ġtoys": 538,
      "Ġtook": 539,
      "fe": 540,
      "nder": 541,
      "Ġabout": 542,
      "Ġball": 543,
      "Ġalways": 544,
      "Ġlot": 545,
      "Ġmommy": 546,
      "ĠSam": 547,
      "ant": 548,
      "Ġkne": 549,
      "bb": 550,
      "Ġtree": 551,
      "ise": 552,
      "ĠF": 553,
      "Ġoutside": 554,
      "Ġthought": 555,
      "ite": 556,
      "Ġmore": 557,
      "Ġta": 558,
      "ened": 559,
      "Ġlearn": 560,
      "ret": 561,
      "Ġho": 562,
      "ched": 563,
      "Ġknow": 564,
      "eci": 565,
      "Ġint": 566,
      "ged": 567,
      "Ġsor": 568,
      "Ġcat": 569,
      "Ġlaug": 570,
      "Ġtake": 571,
      "Ġold": 572,
      "ive": 573,
      "ia": 574,
      "ĠMax": 575,
      "Ġspeci": 576,
      "Ġspecial": 577,
      "Ġknew": 578,
      "Ġany": 579,
      "Ġpe": 580,
      "udden": 581,
      "fter": 582,
      "Ġhow": 583,
      "Ġsorry": 584,
      "Ġtr": 585,
      "ma": 586,
      "ink": 587,
      "But": 588,
      "Ġshow": 589,
      "ish": 590,
      "uddenly": 591,
      "Ġrun": 592,
      "au": 593,
      "Ġsl": 594,
      "Ġmuch": 595,
      "Ġtw": 596,
      "Ġhand": 597,
      "and": 598,
      "Ġor": 599,
      "Ġhouse": 600,
      "Ġop": 601,
      "Ġmo": 602,
      "Ġwater": 603,
      "Ġsk": 604,
      "ven": 605,
      "Ġtried": 606,
      "Ġinto": 607,
      "Ġsun": 608,
      "ank": 609,
      "Ġinside": 610,
      "Tom": 611,
      "Ġclo": 612,
      "ate": 613,
      "Ġtold": 614,
      "Ġgave": 615,
      "ump": 616,
      "ĠSara": 617,
      "ty": 618,
      "Ġproud": 619,
      "Ġeach": 620,
      "Ġqu": 621,
      "Ġen": 622,
      "ĠWe": 623,
      "Ġif": 624,
      "Ġover": 625,
      "Ġroom": 626,
      "Ġcouldn": 627,
      "Ġheard": 628,
      "ace": 629,
      "Ġnever": 630,
      "Ġeat": 631,
      "Ġthis": 632,
      "ĠAnna": 633,
      "Ġpret": 634,
      "other": 635,
      "dy": 636,
      "ĠEvery": 637,
      "ause": 638,
      "by": 639,
      "ak": 640,
      "Ġplayed": 641,
      "Ġpick": 642,
      "ion": 643,
      "Mom": 644,
      "etter": 645,
      "Ġhugged": 646,
      "Ġexpl": 647,
      "here": 648,
      "ge": 649,
      "Ġcom": 650,
      "Ġgre": 651,
      "Ġjust": 652,
      "Ġnice": 653,
      "Ġbox": 654,
      "Ġmany": 655,
      "Ġneed": 656,
      "Ġwat": 657,
      "oth": 658,
      "Ġstr": 659,
      "sed": 660,
      "Ġbecause": 661,
      "Ġoff": 662,
      "ile": 663,
      "'m": 664,
      "gry": 665,
      "Ġsmall": 666,
      "iz": 667,
      "Ġbu": 668,
      "ving": 669,
      "Ġlong": 670,
      "Ġjo": 671,
      "Ġsn": 672,
      "ine": 673,
      "Ġfo": 674,
      "imal": 675,
      "Ġanimal": 676,
      "Ġbear": 677,
      "Ġtry": 678,
      "ough": 679,
      "uc": 680,
      "ort": 681,
      "urt": 682,
      "Ġlearned": 683,
      "Ġunt": 684,
      "sel": 685,
      "ild": 686,
      "Ġlove": 687,
      "Ġuntil": 688,
      "ĠMia": 689,
      "Ġkind": 690,
      "Ġbetter": 691,
      "Ġflow": 692,
      "ĠJack": 693,
      "He": 694,
      "ĠAnd": 695,
      "Ġend": 696,
      "Ġim": 697,
      "urn": 698,
      "Ġdon": 699,
      "ves": 700,
      "Ġcle": 701,
      "Ġpu": 702,
      "Ġcall": 703,
      "Ġbest": 704,
      "em": 705,
      "ady": 706,
      "ars": 707,
      "ream": 708,
      "aut": 709,
      "Ġad": 710,
      "Yes": 711,
      "vent": 712,
      "Ġfast": 713,
      "Ġcareful": 714,
      "urp": 715,
      "arden": 716,
      "Ġgarden": 717,
      "ĠC": 718,
      "Ġfi": 719,
      "ĠJo": 720,
      "Ġbeaut": 721,
      "Th": 722,
      "ber": 723,
      "Ġsky": 724,
      "Ġthanked": 725,
      "Ġbra": 726,
      "Ġjump": 727,
      "Ġeven": 728,
      "ies": 729,
      "Ġloud": 730,
      "ase": 731,
      "pt": 732,
      "Ġby": 733,
      "ĠSo": 734,
      "Ġlaughed": 735,
      "ĠHer": 736,
      "Ġte": 737,
      "Ġche": 738,
      "iny": 739,
      "wn": 740,
      "self": 741,
      "Ġgl": 742,
      "lly": 743,
      "Ġlist": 744,
      "It": 745,
      "Ġcome": 746,
      "Ġbeauti": 747,
      "Ġhard": 748,
      "Ġstill": 749,
      "Ġhurt": 750,
      "lew": 751,
      "Ġbeautiful": 752,
      "Ġanimals": 753,
      "Ġlots": 754,
      "Ġfam": 755,
      "Ġway": 756,
      "Ġwo": 757,
      "Åĵ": 758,
      "Ġra": 759,
      "Ġunder": 760,
      "ĠThen": 761,
      "hes": 762,
      "Ġlet": 763,
      "Ġstay": 764,
      "be": 765,
      "ĠFrom": 766,
      "ect": 767,
      "Ġbad": 768,
      "ning": 769,
      "ct": 770,
      "Ġsafe": 771,
      "Ġcol": 772,
      "ool": 773,
      "Ġcu": 774,
      "ast": 775,
      "Ġboth": 776,
      "ĠHis": 777,
      "ople": 778,
      "ock": 779,
      "kay": 780,
      "Ġrem": 781,
      "Ġbook": 782,
      "Tim": 783,
      "Ġangry": 784,
      "Ġlived": 785,
      "ished": 786,
      "Ġits": 787,
      "Ġimp": 788,
      "ree": 789,
      "ress": 790,
      "Ġtwo": 791,
      "ĠÃ¢": 792,
      "Ġpeople": 793,
      "ane": 794,
      "Ġbrave": 795,
      "Ġfamily": 796,
      "Ġshould": 797,
      "No": 798,
      "Ġred": 799,
      "urpr": 800,
      "igh": 801,
      "Ġwalked": 802,
      "Ġsurpr": 803,
      "Ġflew": 804,
      "Ġfin": 805,
      "Ġstor": 806,
      "Ġshare": 807,
      "Ġdan": 808,
      "Ġsoon": 809,
      "ucy": 810,
      "When": 811,
      "Ġfly": 812,
      "ob": 813,
      "Ġpic": 814,
      "Ġdoll": 815,
      "fore": 816,
      "led": 817,
      "Ġkept": 818,
      "Ġcalled": 819,
      "ip": 820,
      "Ġfore": 821,
      "Ben": 822,
      "Let": 823,
      "Ġrock": 824,
      "Ġclean": 825,
      "Ġpretty": 826,
      "ised": 827,
      "Ġdoor": 828,
      "dded": 829,
      "Ġshiny": 830,
      "ĠP": 831,
      "ĠWhen": 832,
      "Ġgoing": 833,
      "Ġkeep": 834,
      "Ġdra": 835,
      "hn": 836,
      "Ġnoise": 837,
      "Ġnow": 838,
      "Ġreal": 839,
      "Ġwind": 840,
      "Ġopened": 841,
      "Ġadvent": 842,
      "Ġturn": 843,
      "ummy": 844,
      "Ġide": 845,
      "ary": 846,
      "Ġcry": 847,
      "so": 848,
      "Ġbefore": 849,
      "Ġcon": 850,
      "age": 851,
      "Ġground": 852,
      "Ġalso": 853,
      "Ġsto": 854,
      "les": 855,
      "âĤ¬â": 856,
      "illy": 857,
      "oon": 858,
      "Ġey": 859,
      "Ġcolor": 860,
      "Ġexplore": 861,
      "ied": 862,
      "Ġfar": 863,
      "Ġhas": 864,
      "Ġidea": 865,
      "ture": 866,
      "Ġfr": 867,
      "What": 868,
      "kes": 869,
      "imb": 870,
      "Ġwar": 871,
      "th": 872,
      "Ġun": 873,
      "thing": 874,
      "Ġnext": 875,
      "Ġpicked": 876,
      "Ġclimb": 877,
      "uch": 878,
      "Ġnodded": 879,
      "That": 880,
      "oy": 881,
      "aybe": 882,
      "Ġsmile": 883,
      "Ġthr": 884,
      "Ġfeeling": 885,
      "Ġtruck": 886,
      "Ġwhile": 887,
      "Ġbed": 888,
      "ĠDad": 889,
      "Ġwalking": 890,
      "Ħ¢": 891,
      "âĤ¬âĦ¢": 892,
      "eet": 893,
      "Ġwr": 894,
      "Ġadventure": 895,
      "Thank": 896,
      "ger": 897,
      "ĠLucy": 898,
      "Ġpicture": 899,
      "ac": 900,
      "ĠG": 901,
      "Ġbeing": 902,
      "Ġthink": 903,
      "Ġgive": 904,
      "Ġfood": 905,
      "Ġma": 906,
      "ff": 907,
      "iced": 908,
      "Ġtra": 909,
      "Ġdif": 910,
      "Ġbre": 911,
      "pot": 912,
      "Ġgi": 913,
      "joy": 914,
      "Ġbro": 915,
      "Ġtow": 916,
      "ious": 917,
      "Ġlisten": 918,
      "Ġclos": 919,
      "Ġeyes": 920,
      "Ġwait": 921,
      "ught": 922,
      "Ġown": 923,
      "Ġfish": 924,
      "Ġstopped": 925,
      "Ġafter": 926,
      "Ġlooking": 927,
      "ting": 928,
      "Ġflowers": 929,
      "ember": 930,
      "Ġdel": 931,
      "Ġwalk": 932,
      "Ġhands": 933,
      "Ġblue": 934,
      "ized": 935,
      "She": 936,
      "Ġslide": 937,
      "Ġshout": 938,
      "Ġrepl": 939,
      "Ġgreat": 940,
      "Ġever": 941,
      "Ġmean": 942,
      "Ġenjoy": 943,
      "Ġvo": 944,
      "Ġhead": 945,
      "irst": 946,
      "ila": 947,
      "Ġrain": 948,
      "ĠSuddenly": 949,
      "Suddenly": 950,
      "Ġnear": 951,
      "Ġnoticed": 952,
      "Ġdis": 953,
      "Ġforest": 954,
      "Ġus": 955,
      "Ġask": 956,
      "Ġimport": 957,
      "Ġquick": 958,
      "Ġremember": 959,
      "bbit": 960,
      "Ġsound": 961,
      "Ġapp": 962,
      "llow": 963,
      "Ġokay": 964,
      "Ġde": 965,
      "maz": 966,
      "Ġwork": 967,
      "Ġshowed": 968,
      "Ġwonder": 969,
      "Ġamaz": 970,
      "ted": 971,
      "Ġtal": 972,
      "lease": 973,
      "Ġstick": 974,
      "Ġwatch": 975,
      "Ġimportant": 976,
      "bbed": 977,
      "We": 978,
      "bye": 979,
      "Ġstrong": 980,
      "gan": 981,
      "Ġac": 982,
      "Anna": 983,
      "Ġeveryone": 984,
      "Ġbright": 985,
      "day": 986,
      "fere": 987,
      "Ġrabbit": 988,
      "Ġdiffere": 989,
      "Ġboat": 990,
      "Ġour": 991,
      "Ġreplied": 992,
      "Ġsqu": 993,
      "Ġwhere": 994,
      "Ġright": 995,
      "Ġfollow": 996,
      "ĠSpot": 997,
      "Ġuse": 998,
      "Ġdoes": 999,
      "co": 1000,
      "Ġwatched": 1001,
      "able": 1002,
      "Ġhop": 1003,
      "Ġyell": 1004,
      "Ġface": 1005,
      "ath": 1006,
      "Ġmor": 1007,
      "Ġquickly": 1008,
      "ĠSue": 1009,
      "Look": 1010,
      "ered": 1011,
      "Ġstore": 1012,
      "ĠN": 1013,
      "Ġdress": 1014,
      "Ġsure": 1015,
      "Ġbeen": 1016,
      "Ġbecame": 1017,
      "ange": 1018,
      "Ġplace": 1019,
      "Sara": 1020,
      "ng": 1021,
      "Ġdifferent": 1022,
      "Ġchild": 1023,
      "ĠMommy": 1024,
      "Ġcuri": 1025,
      "aught": 1026,
      "Ġwarm": 1027,
      "Ġye": 1028,
      "Ġgoodbye": 1029,
      "Ġam": 1030,
      "So": 1031,
      "Ġmag": 1032,
      "ĠBob": 1033,
      "Ġhigh": 1034,
      "Ġvoice": 1035,
      "ĠR": 1036,
      "Ġforg": 1037,
      "Ġblock": 1038,
      "Ġtell": 1039,
      "Ġcake": 1040,
      "more": 1041,
      "Ġanymore": 1042,
      "leep": 1043,
      "ndma": 1044,
      "Ġcloser": 1045,
      "Ġcook": 1046,
      "Ġcurious": 1047,
      "itc": 1048,
      "Ġfav": 1049,
      "Ġbel": 1050,
      "ount": 1051,
      "Ġnight": 1052,
      "Ġpull": 1053,
      "Ġopen": 1054,
      "ired": 1055,
      "imes": 1056,
      "ĠTh": 1057,
      "Ġlea": 1058,
      "ached": 1059,
      "Ġpain": 1060,
      "iss": 1061,
      "Ġfirst": 1062,
      "Ġz": 1063,
      "Her": 1064,
      "Ġbutter": 1065,
      "Ġhere": 1066,
      "Ġfell": 1067,
      "Ġbus": 1068,
      "Ġkid": 1069,
      "ull": 1070,
      "Ġgrabbed": 1071,
      "Ġru": 1072,
      "Ġsees": 1073,
      "Jo": 1074,
      "Can": 1075,
      "unny": 1076,
      "Ġsweet": 1077,
      "orn": 1078,
      "Ġonly": 1079,
      "Ġflo": 1080,
      "itchen": 1081,
      "Ġkitchen": 1082,
      "Ġthree": 1083,
      "Ġsand": 1084,
      "Ġhelped": 1085,
      "Ġbirds": 1086,
      "Ġstop": 1087,
      "Ġdr": 1088,
      "Ġcont": 1089,
      "Ġcra": 1090,
      "Ġbit": 1091,
      "Ġba": 1092,
      "Ġhappened": 1093,
      "Ġjumped": 1094,
      "Ġglad": 1095,
      "Ġfire": 1096,
      "Ġmon": 1097,
      "ppy": 1098,
      "Ġsing": 1099,
      "Ġbeh": 1100,
      "Ġgrass": 1101,
      "Ġtri": 1102,
      "Ġper": 1103,
      "Ġcr": 1104,
      "Ġbrother": 1105,
      "Ġrealized": 1106,
      "ĠDo": 1107,
      "After": 1108,
      "isy": 1109,
      "Ġstory": 1110,
      "Ġshouted": 1111,
      "air": 1112,
      "Ġreached": 1113,
      "Ġmess": 1114,
      "Ġsoft": 1115,
      "akes": 1116,
      "ass": 1117,
      "ĠLet": 1118,
      "Ġyummy": 1119,
      "Ġlady": 1120,
      "Ġgame": 1121,
      "ins": 1122,
      "Ġhaving": 1123,
      "nts": 1124,
      "Ġdraw": 1125,
      "Ġate": 1126,
      "Ġhat": 1127,
      "Ġprin": 1128,
      "ĠSarah": 1129,
      "Ġpretend": 1130,
      "zy": 1131,
      "ĠEveryone": 1132,
      "Ġpap": 1133,
      "Ġthrough": 1134,
      "Ġfavor": 1135,
      "Ġunderst": 1136,
      "ĠJane": 1137,
      "'re": 1138,
      "where": 1139,
      "Ġcre": 1140,
      "Ġless": 1141,
      "Ġrest": 1142,
      "Ġfavorite": 1143,
      "Ġready": 1144,
      "ater": 1145,
      "ĠAs": 1146,
      "Ġthing": 1147,
      "Ġlooks": 1148,
      "ken": 1149,
      "Ġmaking": 1150,
      "ather": 1151,
      "ĠCan": 1152,
      "Ġkids": 1153,
      "Ġmagic": 1154,
      "Ġreally": 1155,
      "Ġduck": 1156,
      "Ġpare": 1157,
      "Ġtired": 1158,
      "Ġfix": 1159,
      "Ġpond": 1160,
      "Ġcars": 1161,
      "Ġcut": 1162,
      "Ġworld": 1163,
      "Wow": 1164,
      "Ġdone": 1165,
      "ĠThat": 1166,
      "Ġbegan": 1167,
      "Ġmum": 1168,
      "Ġbunny": 1169,
      "Mommy": 1170,
      "Ġwaved": 1171,
      "bo": 1172,
      "Ġhimself": 1173,
      "Ġcatch": 1174,
      "Ġbutterf": 1175,
      "Ġcoming": 1176,
      "Ġtouch": 1177,
      "Ġfunny": 1178,
      "Ġcried": 1179,
      "Ġused": 1180,
      "fully": 1181,
      "Ġworry": 1182,
      "Ġpart": 1183,
      "Ġwhy": 1184,
      "Ġprom": 1185,
      "uff": 1186,
      "Ġname": 1187,
      "ign": 1188,
      "Ġblocks": 1189,
      "Ġanother": 1190,
      "Ġfill": 1191,
      "ĠJoe": 1192,
      "Ġste": 1193,
      "Ġflower": 1194,
      "Ġpus": 1195,
      "Ġhold": 1196,
      "Ġfro": 1197,
      "Ġhair": 1198,
      "Ġtast": 1199,
      "Ġtop": 1200,
      "Ġseen": 1201,
      "Ġcool": 1202,
      "ster": 1203,
      "oney": 1204,
      "Ġswim": 1205,
      "rel": 1206,
      "Ġwished": 1207,
      "sh": 1208,
      "eddy": 1209,
      "Ġthank": 1210,
      "iver": 1211,
      "Ġmouse": 1212,
      "Ġfloor": 1213,
      "Ġlight": 1214,
      "Ġgreen": 1215,
      "Ġbag": 1216,
      "ient": 1217,
      "Ġdelic": 1218,
      "Ġlikes": 1219,
      "Ġpaper": 1220,
      "Ġsmell": 1221,
      "Ġfarm": 1222,
      "hy": 1223,
      "Timmy": 1224,
      "Ġparents": 1225,
      "As": 1226,
      "Ġbehind": 1227,
      "ation": 1228,
      "olly": 1229,
      "Ġlesson": 1230,
      "Ġdri": 1231,
      "Don": 1232,
      "Ġsurprise": 1233,
      "Ġdoing": 1234,
      "Ġhopped": 1235,
      "Ġdro": 1236,
      "Ġbow": 1237,
      "Ġworked": 1238,
      "Ġsleep": 1239,
      "Ġhole": 1240,
      "ards": 1241,
      "ĠJohn": 1242,
      "Sam": 1243,
      "Ġwindow": 1244,
      "andy": 1245,
      "Ġyellow": 1246,
      "Ġread": 1247,
      "Ġtrees": 1248,
      "Ġdark": 1249,
      "Ġdin": 1250,
      "Ġfull": 1251,
      "Ġsho": 1252,
      "Ġlaugh": 1253,
      "Ġrunning": 1254,
      "aisy": 1255,
      "ued": 1256,
      "ike": 1257,
      "ely": 1258,
      "Ġcold": 1259,
      "ren": 1260,
      "Ġswing": 1261,
      "rew": 1262,
      "Ġsat": 1263,
      "Ġspot": 1264,
      "Ġwood": 1265,
      "ul": 1266,
      "\".": 1267,
      "Ġsurprised": 1268,
      "Ġslow": 1269,
      "Ġremembered": 1270,
      "aring": 1271,
      "Ġbutterfly": 1272,
      "Ġhappily": 1273,
      "Ġset": 1274,
      "Ġlost": 1275,
      "Ġ-": 1276,
      "Ġneeded": 1277,
      "ons": 1278,
      "Ġyears": 1279,
      "Ġice": 1280,
      "ĠIn": 1281,
      "Ġheld": 1282,
      "Ġbuy": 1283,
      "Hell": 1284,
      "Hello": 1285,
      "Ġmove": 1286,
      "Ġfrog": 1287,
      "Ġanything": 1288,
      "Ġwrong": 1289,
      "Ġcarefully": 1290,
      "uit": 1291,
      "Ġsnow": 1292,
      "John": 1293,
      "Ġhear": 1294,
      "Ġleft": 1295,
      "Ġtall": 1296,
      "Ġhun": 1297,
      "ens": 1298,
      "Ġperf": 1299,
      "Ġdir": 1300,
      "Ġdream": 1301,
      "Ġfair": 1302,
      "Ġfollowed": 1303,
      "Ġair": 1304,
      "Ġenjoyed": 1305,
      "ĠLila": 1306,
      "Ġel": 1307,
      "Ġfinished": 1308,
      "Ġcast": 1309,
      "Ġchildren": 1310,
      "cess": 1311,
      "Ġbug": 1312,
      "Ġbooks": 1313,
      "Ġhot": 1314,
      "Ġtable": 1315,
      "inally": 1316,
      "ined": 1317,
      "Ġherself": 1318,
      "Ġhill": 1319,
      "Ġhid": 1320,
      "reed": 1321,
      "ĠAfter": 1322,
      "Ġarri": 1323,
      "Ġfriendly": 1324,
      "Ġunderstand": 1325,
      "ds": 1326,
      "Ġarm": 1327,
      "Ġcontin": 1328,
      "Ġclose": 1329,
      "Ġplease": 1330,
      "Ġforgot": 1331,
      "ross": 1332,
      "Ġmight": 1333,
      "Ġcolors": 1334,
      "Ġelse": 1335,
      "ĠBenny": 1336,
      "Ġdelicious": 1337,
      "Ġbroken": 1338,
      "Ġbuild": 1339,
      "Ġwants": 1340,
      "asure": 1341,
      "Ġrel": 1342,
      "lf": 1343,
      "ash": 1344,
      "Ġgone": 1345,
      "sp": 1346,
      "Ġgent": 1347,
      "ield": 1348,
      "OK": 1349,
      "Ġbaby": 1350,
      "room": 1351,
      "atter": 1352,
      "Ġarrived": 1353,
      "Ġcreat": 1354,
      "Ġtight": 1355,
      "Ġable": 1356,
      "ĠNow": 1357,
      "Ġleaves": 1358,
      "Ġsong": 1359,
      "Ġwonderful": 1360,
      "Ġsomeone": 1361,
      "Then": 1362,
      "Ġyes": 1363,
      "Ġwall": 1364,
      "Ġsquir": 1365,
      "ner": 1366,
      "ĠSally": 1367,
      "Ġfilled": 1368,
      "av": 1369,
      "Ġcontinued": 1370,
      "ich": 1371,
      "ĠThere": 1372,
      "ask": 1373,
      "Ġlion": 1374,
      "Ġcount": 1375,
      "Ġbreak": 1376,
      "Ġsquirrel": 1377,
      "Ġagreed": 1378,
      "Ġju": 1379,
      "Ġpink": 1380,
      "ĠMaybe": 1381,
      "Ġscary": 1382,
      "Ġpoin": 1383,
      "Ġfall": 1384,
      "Ġenough": 1385,
      "From": 1386,
      "ĠDaisy": 1387,
      "ey": 1388,
      "Ġcastle": 1389,
      "icy": 1390,
      "ries": 1391,
      "ee": 1392,
      "man": 1393,
      "Ġgrandma": 1394,
      "ĠEm": 1395,
      "Ġvis": 1396,
      "Ġstayed": 1397,
      "Ġhungry": 1398,
      "Ġmakes": 1399,
      "Jack": 1400,
      "Ġmoment": 1401,
      "Ġmorning": 1402,
      "Ġsmiles": 1403,
      "'ll": 1404,
      "Ġfinally": 1405,
      "Ġwet": 1406,
      "Ġfight": 1407,
      "Ġcomp": 1408,
      "Ġcookies": 1409,
      "Ġgetting": 1410,
      "oup": 1411,
      "Ġturned": 1412,
      "Ġsometimes": 1413,
      "gon": 1414,
      "app": 1415,
      "row": 1416,
      "Ġpictures": 1417,
      "Ġpi": 1418,
      "Ġtalk": 1419,
      "Ġbeach": 1420,
      "rot": 1421,
      "Ġcream": 1422,
      "ama": 1423,
      "ĠTommy": 1424,
      "Ġclimbed": 1425,
      "ĠThis": 1426,
      "Ġothers": 1427,
      "Ġtrying": 1428,
      "Ġclot": 1429,
      "Ġballoon": 1430,
      "ĠK": 1431,
      "Ġlistened": 1432,
      "oom": 1433,
      "Ġdinner": 1434,
      "Ġamazing": 1435,
      "Ġtail": 1436,
      "Ġclothes": 1437,
      "ced": 1438,
      "Ġmus": 1439,
      "ĠWhat": 1440,
      "Ġfew": 1441,
      "ance": 1442,
      "apped": 1443,
      "Ġmar": 1444,
      "This": 1445,
      "Ġmet": 1446,
      "Ġpuppy": 1447,
      "At": 1448,
      "Ġmother": 1449,
      "ence": 1450,
      "Ġdaddy": 1451,
      "Ġperfect": 1452,
      "oring": 1453,
      "amp": 1454,
      "Ġasks": 1455,
      "Ġspl": 1456,
      "ĠBilly": 1457,
      "ĠGra": 1458,
      "Ġwhite": 1459,
      "ĠJen": 1460,
      "key": 1461,
      "red": 1462,
      "Ġfur": 1463,
      "Ġalone": 1464,
      "ctor": 1465,
      "uffy": 1466,
      "Ġpet": 1467,
      "His": 1468,
      "Ġsail": 1469,
      "Ġwasn": 1470,
      "ucky": 1471,
      "Ġsit": 1472,
      "Ġbrought": 1473,
      "Ġeverything": 1474,
      "Ġsear": 1475,
      "ister": 1476,
      "Ġpol": 1477,
      "der": 1478,
      "Ġjoy": 1479,
      "Oh": 1480,
      "Ġgrow": 1481,
      "ott": 1482,
      "Ġroll": 1483,
      "Ġstrange": 1484,
      "Ġpulled": 1485,
      "ated": 1486,
      "Ġwaited": 1487,
      "Ġpie": 1488,
      "elc": 1489,
      "wl": 1490,
      "Ġspark": 1491,
      "Ġdeep": 1492,
      "Ġride": 1493,
      "ĠTo": 1494,
      "Ġdanger": 1495,
      "Ġwoods": 1496,
      "Ġplan": 1497,
      "Ġwon": 1498,
      "Ġruns": 1499,
      "Ġleave": 1500,
      "Ġmusic": 1501,
      "me": 1502,
      "Ġthinks": 1503,
      "Ġamazed": 1504,
      "Ġvisit": 1505,
      "zz": 1506,
      "ower": 1507,
      "Ġhide": 1508,
      "ang": 1509,
      "Ġteddy": 1510,
      "Ġcloud": 1511,
      "eter": 1512,
      "Maybe": 1513,
      "Ġfox": 1514,
      "Ġpat": 1515,
      "os": 1516,
      "ever": 1517,
      "Ġpen": 1518,
      "Ġsilly": 1519,
      "ugg": 1520,
      "Ġliving": 1521,
      "Ġflying": 1522,
      "ix": 1523,
      "Max": 1524,
      "ope": 1525,
      "Ġshap": 1526,
      "Ġem": 1527,
      "Ġtowards": 1528,
      "gs": 1529,
      "Ġtreat": 1530,
      "Ġowner": 1531,
      "med": 1532,
      "ames": 1533,
      "ises": 1534,
      "Ġpa": 1535,
      "thy": 1536,
      "Ġpre": 1537,
      "Ġgu": 1538,
      "Ġside": 1539,
      "Okay": 1540,
      "Ġland": 1541,
      "Ġgrate": 1542,
      "Ġfield": 1543,
      "Ġlake": 1544,
      "Ġshared": 1545,
      "ained": 1546,
      "Ġqui": 1547,
      "Ġmoney": 1548,
      "Ġpaint": 1549,
      "cket": 1550,
      "igg": 1551,
      "Ġfaster": 1552,
      "Ġparty": 1553,
      "Ġpromised": 1554,
      "Ġgrateful": 1555,
      "ĠAmy": 1556,
      "Ġsister": 1557,
      "Ġbelie": 1558,
      "Ġdance": 1559,
      "Ġbott": 1560,
      "Ġrace": 1561,
      "avy": 1562,
      "Ġmoral": 1563,
      "Ġsmart": 1564,
      "eces": 1565,
      "Ġcup": 1566,
      "cle": 1567,
      "Ġtreasure": 1568,
      "Ġbroke": 1569,
      "up": 1570,
      "Ġpieces": 1571,
      "Ġcandy": 1572,
      "Ġjob": 1573,
      "Ġquiet": 1574,
      "Ġworried": 1575,
      "unch": 1576,
      "Ġblank": 1577,
      "Ġcolorful": 1578,
      "sw": 1579,
      "Ġtrain": 1580,
      "ze": 1581,
      "Ġbigger": 1582,
      "Ġbran": 1583,
      "Ġansw": 1584,
      "Ġslowly": 1585,
      "orm": 1586,
      "Ġwear": 1587,
      "outh": 1588,
      "Ġgift": 1589,
      "Ġdolls": 1590,
      "Ġwelc": 1591,
      "ually": 1592,
      "Ġblanket": 1593,
      "Ġreach": 1594,
      "ol": 1595,
      "Ġmouth": 1596,
      "ling": 1597,
      "Ġmust": 1598,
      "Ġsnack": 1599,
      "Ġsuch": 1600,
      "Ġcho": 1601,
      "fort": 1602,
      "Ġbike": 1603,
      "Ġeverywhere": 1604,
      "Ġele": 1605,
      "Ġscream": 1606,
      "ased": 1607,
      "Ġpro": 1608,
      "Ġblack": 1609,
      "less": 1610,
      "ph": 1611,
      "Ġriver": 1612,
      "ĠAll": 1613,
      "ire": 1614,
      "Ġnap": 1615,
      "Ġplant": 1616,
      "Ġbar": 1617,
      "Ġjoin": 1618,
      "ĠJim": 1619,
      "Ġmagical": 1620,
      "Sure": 1621,
      "Ġje": 1622,
      "Ġpot": 1623,
      "Ġsign": 1624,
      "Ġprincess": 1625,
      "Ġdangerous": 1626,
      "Ġhelping": 1627,
      "Ġwin": 1628,
      "cked": 1629,
      "Ġthrew": 1630,
      "set": 1631,
      "Ġdirty": 1632,
      "ming": 1633,
      "Ġcarrot": 1634,
      "Ġtwins": 1635,
      "Ġbowl": 1636,
      "Ġdragon": 1637,
      "Ġcrying": 1638,
      "Ġtower": 1639,
      "ipped": 1640,
      "Ġbite": 1641,
      "Ġhoped": 1642,
      "Ġdoctor": 1643,
      "ored": 1644,
      "Ġmost": 1645,
      "Ġteac": 1646,
      "ĠFl": 1647,
      "Ġspr": 1648,
      "ident": 1649,
      "Ġsame": 1650,
      "Ġfarmer": 1651,
      "Ġheavy": 1652,
      "vel": 1653,
      "Ġbee": 1654,
      "Ġmix": 1655,
      "Ġwords": 1656,
      "Ġmonster": 1657,
      "Ġacc": 1658,
      "Ġmonkey": 1659,
      "bble": 1660,
      "ear": 1661,
      "ere": 1662,
      "de": 1663,
      "Ġheal": 1664,
      "Ġacross": 1665,
      "Ġcoll": 1666,
      "Ġbath": 1667,
      "Why": 1668,
      "Ġdisapp": 1669,
      "Hi": 1670,
      "Ġbuck": 1671,
      "Ġhig": 1672,
      "Ġfruit": 1673,
      "Ġstepped": 1674,
      "ĠDaddy": 1675,
      "Ġstre": 1676,
      "Ġclosed": 1677,
      "Ġstuck": 1678,
      "eared": 1679,
      "Mia": 1680,
      "ĠJill": 1681,
      "Ġheart": 1682,
      "Ġtown": 1683,
      "Ġfeels": 1684,
      "chool": 1685,
      "Ġbelieve": 1686,
      "Ġwouldn": 1687,
      "ĠMr": 1688,
      "asket": 1689,
      "Ġbasket": 1690,
      "Ġteacher": 1691,
      "Ġcray": 1692,
      "Ġcour": 1693,
      "Ġbutt": 1694,
      "Ġatt": 1695,
      "Ġeating": 1696,
      "Ġhit": 1697,
      "Ġschool": 1698,
      "iting": 1699,
      "Ġchair": 1700,
      "ĠMolly": 1701,
      "Ġpushed": 1702,
      "Ġbrown": 1703,
      "Ġyard": 1704,
      "Ġgentle": 1705,
      "Ġpack": 1706,
      "Ġmin": 1707,
      "Ġcourse": 1708,
      "Ġneigh": 1709,
      "Ġwithout": 1710,
      "br": 1711,
      "Ġclapped": 1712,
      "issed": 1713,
      "ord": 1714,
      "umb": 1715,
      "Ġhigher": 1716,
      "Ġpers": 1717,
      "pping": 1718,
      "Ġsmo": 1719,
      "Ġsec": 1720,
      "Ġneighb": 1721,
      "Ġswings": 1722,
      "Ġaccident": 1723,
      "Ġfairy": 1724,
      "Lila": 1725,
      "ier": 1726,
      "Ġtoday": 1727,
      "orrow": 1728,
      "Ġgames": 1729,
      "Ġwelcome": 1730,
      "Ġdry": 1731,
      "Ġstand": 1732,
      "Ġnoises": 1733,
      "ors": 1734,
      "Ġdrove": 1735,
      "Ġpocket": 1736,
      "Ġthrow": 1737,
      "Ġsuddenly": 1738,
      "ventually": 1739,
      "Ġforget": 1740,
      "Ġlon": 1741,
      "Ġturns": 1742,
      "Ġhugs": 1743,
      "Ġpiece": 1744,
      "Ġcheered": 1745,
      "ract": 1746,
      "Ġfree": 1747,
      "Ġben": 1748,
      "Ġlonely": 1749,
      "Ġfence": 1750,
      "Ġhappen": 1751,
      "Ġwings": 1752,
      "cy": 1753,
      "ho": 1754,
      "ourn": 1755,
      "Ġneck": 1756,
      "Ġjourn": 1757,
      "Ġlonger": 1758,
      "Ġsang": 1759,
      "ible": 1760,
      "Ġexplained": 1761,
      "ead": 1762,
      "Ġsea": 1763,
      "Ġalong": 1764,
      "ek": 1765,
      "Ġsoup": 1766,
      "Ġcorn": 1767,
      "Finally": 1768,
      "Ġstories": 1769,
      "Ġlate": 1770,
      "Ġupset": 1771,
      "Ġwell": 1772,
      "itting": 1773,
      "Ġshoes": 1774,
      "Ġinst": 1775,
      "Ġsecret": 1776,
      "Ġadventures": 1777,
      "Ġmiss": 1778,
      "Ġmat": 1779,
      "Ġstars": 1780,
      "Ġtrou": 1781,
      "Ġcaught": 1782,
      "phant": 1783,
      "Ġwhe": 1784,
      "ches": 1785,
      "Ġsinging": 1786,
      "Ġph": 1787,
      "Ġrocks": 1788,
      "oun": 1789,
      "Ġbucket": 1790,
      "Ġlunch": 1791,
      "ape": 1792,
      "ces": 1793,
      "Ġswam": 1794,
      "Ġdropped": 1795,
      "Ġdist": 1796,
      "Ġwish": 1797,
      "Ġyoung": 1798,
      "Ġshook": 1799,
      "ocked": 1800,
      "Ġdrink": 1801,
      "Ġelephant": 1802,
      "Ġbring": 1803,
      "Ġmoved": 1804,
      "yard": 1805,
      "ment": 1806,
      "Ġplac": 1807,
      "Ġbelong": 1808,
      "Ġjuice": 1809,
      "Ġnaught": 1810,
      "ountain": 1811,
      "Ġstar": 1812,
      "Ġnaughty": 1813,
      "Ġbackyard": 1814,
      "llo": 1815,
      "ĠGrandma": 1816,
      "Ġmine": 1817,
      "fused": 1818,
      "Ġjar": 1819,
      "Ġstreet": 1820,
      "bow": 1821,
      "Ġtom": 1822,
      "Ġpast": 1823,
      "Ġkey": 1824,
      "ĠThank": 1825,
      "Ġtakes": 1826,
      "Ġtaking": 1827,
      "ĠMary": 1828,
      "Ġapple": 1829,
      "Do": 1830,
      "Ġshapes": 1831,
      "Ġpurp": 1832,
      "Ġorange": 1833,
      "ts": 1834,
      "Ġexploring": 1835,
      "ward": 1836,
      "Ġshop": 1837,
      "Ġowl": 1838,
      "Ġcou": 1839,
      "Ġve": 1840,
      "ush": 1841,
      "ub": 1842,
      "Ġnothing": 1843,
      "Ġexp": 1844,
      "Ġnearby": 1845,
      "Ġpig": 1846,
      "ĠEmma": 1847,
      "bby": 1848,
      "Ġwise": 1849,
      "Ġnose": 1850,
      "Ġwondered": 1851,
      "Ġresp": 1852,
      "Ġwoke": 1853,
      "ĠFluffy": 1854,
      "ung": 1855,
      "Ġcomes": 1856,
      "Ġes": 1857,
      "Ġseemed": 1858,
      "Ġcow": 1859,
      "col": 1860,
      "Ġbusy": 1861,
      "Ġaf": 1862,
      "Ġdes": 1863,
      "Ġsounds": 1864,
      "Ġmail": 1865,
      "Ġbench": 1866,
      "Ġtiny": 1867,
      "Ġrelie": 1868,
      "Ġsick": 1869,
      "Ġinv": 1870,
      "Ġstu": 1871,
      "Ġpurple": 1872,
      "Ġmark": 1873,
      "cing": 1874,
      "Ġrainbow": 1875,
      "aughter": 1876,
      "Ġarms": 1877,
      "Ġca": 1878,
      "Ġthough": 1879,
      "adow": 1880,
      "Ġmad": 1881,
      "Ġnest": 1882,
      "ions": 1883,
      "fish": 1884,
      "ose": 1885,
      "ining": 1886,
      "Ġmil": 1887,
      "Ġyear": 1888,
      "sy": 1889,
      "pper": 1890,
      "thday": 1891,
      "ese": 1892,
      "Ġ3": 1893,
      "Ġsitting": 1894,
      "cks": 1895,
      "Ġob": 1896,
      "Ġdriver": 1897,
      "Ġholding": 1898,
      "And": 1899,
      "Ġround": 1900,
      "Ġking": 1901,
      "Ġcarry": 1902,
      "raid": 1903,
      "read": 1904,
      "Ġafraid": 1905,
      "ity": 1906,
      "Ġbranch": 1907,
      "ittens": 1908,
      "Ġforever": 1909,
      "ĠInside": 1910,
      "Ġcir": 1911,
      "Ġwhist": 1912,
      "Ġhello": 1913,
      "ĠO": 1914,
      "Ġkite": 1915,
      "weet": 1916,
      "Ġspoon": 1917,
      "board": 1918,
      "Ġboun": 1919,
      "vered": 1920,
      "Ġcute": 1921,
      "Ġdaughter": 1922,
      "Ġpeace": 1923,
      "Ġshell": 1924,
      "Ġlift": 1925,
      "idge": 1926,
      "to": 1927,
      "Ġfit": 1928,
      "Ġcoat": 1929,
      "Ġswimming": 1930,
      "Ġhuge": 1931,
      "uched": 1932,
      "Ġtouched": 1933,
      "ĠCome": 1934,
      "Ġbread": 1935,
      "Ġpatient": 1936,
      "Of": 1937,
      "ours": 1938,
      "let": 1939,
      "Ġletter": 1940,
      "Ġbirthday": 1941,
      "Ġpromise": 1942,
      "Ġgrab": 1943,
      "Ġrelieved": 1944,
      "ĠFinally": 1945,
      "cer": 1946,
      "sting": 1947,
      "Ġgives": 1948,
      "Ġaccidentally": 1949,
      "Ġwra": 1950,
      "eth": 1951,
      "Ġputs": 1952,
      "Ġband": 1953,
      "Ġhope": 1954,
      "Ġmilk": 1955,
      "gg": 1956,
      "Ġbottle": 1957,
      "Ġcreature": 1958,
      "Hey": 1959,
      "Ġfing": 1960,
      "shine": 1961,
      "Ġdays": 1962,
      "Ġcheese": 1963,
      "Ġintere": 1964,
      "Ġlife": 1965,
      "Ġlaughing": 1966,
      "Ġgigg": 1967,
      "Ġcozy": 1968,
      "Ġcollect": 1969,
      "alm": 1970,
      "Ġlucky": 1971,
      "Ġonto": 1972,
      "Ġexciting": 1973,
      "Ġkick": 1974,
      "ĠSammy": 1975,
      "Ġret": 1976,
      "Ġmist": 1977,
      "Ġpower": 1978,
      "Ġspin": 1979,
      "Ġcave": 1980,
      "Ġcomfort": 1981,
      "Ġdisco": 1982,
      "Ġjourney": 1983,
      "Ġact": 1984,
      "Ġsunshine": 1985,
      "og": 1986,
      "Ġsunny": 1987,
      "gged": 1988,
      "Ġfan": 1989,
      "Ġear": 1990,
      "Ġbush": 1991,
      "Later": 1992,
      "Ġinstead": 1993,
      "Ġreturn": 1994,
      "ped": 1995,
      "ten": 1996,
      "arp": 1997,
      "Ġpudd": 1998,
      "Ġpointed": 1999,
      "Ġinc": 2000,
      "ness": 2001,
      "Ġsmiling": 2002,
      "Ġimag": 2003,
      "Ġeas": 2004,
      "ize": 2005,
      "ĠMama": 2006,
      "Ġsearched": 2007,
      "els": 2008,
      "Ġhoney": 2009,
      "itch": 2010,
      "Ġsharp": 2011,
      "Ġroad": 2012,
      "Ġanyone": 2013,
      "Ġhor": 2014,
      "ĠSoon": 2015,
      "Ġtalked": 2016,
      "Ġspo": 2017,
      "Ġbought": 2018,
      "oman": 2019,
      "ball": 2020,
      "Ġlater": 2021,
      "Ġsuc": 2022,
      "Ġwoman": 2023,
      "Ġsandw": 2024,
      "Ġplane": 2025,
      "Ġgather": 2026,
      "blem": 2027,
      "Tommy": 2028,
      "Ġproblem": 2029,
      "Ġsnowman": 2030,
      "Ġperson": 2031,
      "mer": 2032,
      "Ġwatching": 2033,
      "unt": 2034,
      "Ġcrayons": 2035,
      "Ġsmelled": 2036,
      "Ġhealthy": 2037,
      "Ġrope": 2038,
      "Ġtasty": 2039,
      "irt": 2040,
      "Ġtrouble": 2041,
      "Good": 2042,
      "Ġmeet": 2043,
      "Ġce": 2044,
      "Ġsu": 2045,
      "Ġducks": 2046,
      "round": 2047,
      "Ġpop": 2048,
      "Ġloves": 2049,
      "Ġkiss": 2050,
      "Bob": 2051,
      "itten": 2052,
      "Ġpile": 2053,
      "een": 2054,
      "Ġclouds": 2055,
      "Ġent": 2056,
      "Ġapples": 2057,
      "Ġshining": 2058,
      "Ġpar": 2059,
      "ove": 2060,
      "Ġstorm": 2061,
      "Ġspid": 2062,
      "Ġbutton": 2063,
      "Ġinteresting": 2064,
      "Ġmach": 2065,
      "Ġzoom": 2066,
      "amed": 2067,
      "Ġorgan": 2068,
      "Ġcard": 2069,
      "Ġadm": 2070,
      "Ġzoo": 2071,
      "ĠTweet": 2072,
      "Ġpres": 2073,
      "Ġwide": 2074,
      "Ġclever": 2075,
      "Ġres": 2076,
      "ont": 2077,
      "Ġfeather": 2078,
      "Ġmatter": 2079,
      "owed": 2080,
      "Ġpill": 2081,
      "ale": 2082,
      "eb": 2083,
      "ĠSomet": 2084,
      "ndp": 2085,
      "Ġbark": 2086,
      "Ġhon": 2087,
      "Ġpract": 2088,
      "ĠWith": 2089,
      "Ġprot": 2090,
      "aur": 2091,
      "lla": 2092,
      "Ġap": 2093,
      "Ġrespect": 2094,
      "Ġeag": 2095,
      "Ġfront": 2096,
      "Ġscreamed": 2097,
      "epend": 2098,
      "Ġgoes": 2099,
      "ail": 2100,
      "Ġmud": 2101,
      "Ġseat": 2102,
      "Ġprotect": 2103,
      "Ġneighbor": 2104,
      "Ġsaf": 2105,
      "Ġshr": 2106,
      "Ġquest": 2107,
      "Ġdanced": 2108,
      "Ġhorse": 2109,
      "isa": 2110,
      "Ġsur": 2111,
      "Ġtrip": 2112,
      "Ġanswer": 2113,
      "Ġpuzz": 2114,
      "Ġasleep": 2115,
      "Lucy": 2116,
      "Ġvill": 2117,
      "Ġpresent": 2118,
      "Ġmyster": 2119,
      "Ġspotted": 2120,
      "Ġtries": 2121,
      "Ġappeared": 2122,
      "St": 2123,
      "Ġsnake": 2124,
      "erly": 2125,
      "Come": 2126,
      "Ġteach": 2127,
      "Ġwhole": 2128,
      "Ġpath": 2129,
      "Ġgiant": 2130,
      "Ġwild": 2131,
      "Ġlovely": 2132,
      "Ġcheer": 2133,
      "ching": 2134,
      "Ġphone": 2135,
      "Ġslid": 2136,
      "Ġplaces": 2137,
      "Ġwhich": 2138,
      "ÅĵI": 2139,
      "Ġdi": 2140,
      "Ġwearing": 2141,
      "Ġteeth": 2142,
      "Ġdirt": 2143,
      "Ġforgive": 2144,
      "Ġrolled": 2145,
      "oose": 2146,
      "Ġconfused": 2147,
      "izz": 2148,
      "ĠGo": 2149,
      "ular": 2150,
      "Just": 2151,
      "Ġtasted": 2152,
      "Ġminut": 2153,
      "ones": 2154,
      "Ġgently": 2155,
      "Ġimpress": 2156,
      "Ġval": 2157,
      "Ġcouch": 2158,
      "Ġtun": 2159,
      "Ġfaces": 2160,
      "Ġthin": 2161,
      "Every": 2162,
      "Ġrude": 2163,
      "ĠMittens": 2164,
      "ert": 2165,
      "ĠHow": 2166,
      "ssed": 2167,
      "Ġpass": 2168,
      "Ġcalm": 2169,
      "Ġlive": 2170,
      "itty": 2171,
      "Ġmind": 2172,
      "ndpa": 2173,
      "Ġspent": 2174,
      "Ġsplas": 2175,
      "ĠJimmy": 2176,
      "Ġpretended": 2177,
      "Jim": 2178,
      "Ġmed": 2179,
      "Ġpan": 2180,
      "cean": 2181,
      "Ġocean": 2182,
      "Ġash": 2183,
      "Ġfeet": 2184,
      "In": 2185,
      "Ġsupp": 2186,
      "Ġsal": 2187,
      "Ġlad": 2188,
      "nic": 2189,
      "la": 2190,
      "Ġser": 2191,
      "Ġpour": 2192,
      "Ġpicnic": 2193,
      "Ġcoin": 2194,
      "Ġmachine": 2195,
      "Ġlay": 2196,
      "unk": 2197,
      "Molly": 2198,
      "Ġsack": 2199,
      "Ġcorner": 2200,
      "Ġring": 2201,
      "Ġwrite": 2202,
      "Ġdrive": 2203,
      "Ġworm": 2204,
      "Ġbugs": 2205,
      "Ġspider": 2206,
      "Ġoven": 2207,
      "Ġwave": 2208,
      "Ġchocol": 2209,
      "Ġemb": 2210,
      "Mum": 2211,
      "Ġpush": 2212,
      "Ġbuilding": 2213,
      "hile": 2214,
      "Ġsmooth": 2215,
      "Ġlast": 2216,
      "Ġign": 2217,
      "Ġtomorrow": 2218,
      "Ġcookie": 2219,
      "Ġhelpful": 2220,
      "umber": 2221,
      "arge": 2222,
      "Ġcann": 2223,
      "Ġcart": 2224,
      "Ġhiding": 2225,
      "Ġrec": 2226,
      "als": 2227,
      "Ġwip": 2228,
      "Ġfurry": 2229,
      "Ġladder": 2230,
      "Ġremind": 2231,
      "Ġcannot": 2232,
      "Ġmountain": 2233,
      "lex": 2234,
      "ator": 2235,
      "Ġtid": 2236,
      "Ġblew": 2237,
      "ĠEmily": 2238,
      "Ġbell": 2239,
      "Ġban": 2240,
      "ato": 2241,
      "Ġbubble": 2242,
      "Ġchick": 2243,
      "Ġpaw": 2244,
      "Ġspread": 2245,
      "Ġtalking": 2246,
      "ife": 2247,
      "Ġfighting": 2248,
      "Ġfold": 2249,
      "Ġfinish": 2250,
      "Ġtool": 2251,
      "ĠSometimes": 2252,
      "Ġdelight": 2253,
      "Ġembar": 2254,
      "Ġleaf": 2255,
      "Ġembarra": 2256,
      "Soon": 2257,
      "Ġsel": 2258,
      "Ġwore": 2259,
      "Ġpool": 2260,
      "Ġrob": 2261,
      "Ġfoot": 2262,
      "Ġpuddle": 2263,
      "Ġsongs": 2264,
      "Ġshy": 2265,
      "Ġknee": 2266,
      "ĠCh": 2267,
      "ighed": 2268,
      "Ġspray": 2269,
      "Ġeventually": 2270,
      "Ġrep": 2271,
      "Ġneckl": 2272,
      "Ġwaiting": 2273,
      "Ġmaybe": 2274,
      "Ġchocolate": 2275,
      "mo": 2276,
      "Ġnet": 2277,
      "Ġchased": 2278,
      "Ġbat": 2279,
      "Ġwhenever": 2280,
      "Ġfixed": 2281,
      "oph": 2282,
      "Ġstret": 2283,
      "ĠJust": 2284,
      "ĠJenny": 2285,
      "Ġbarked": 2286,
      "Ġlarge": 2287,
      "ult": 2288,
      "Ġselfish": 2289,
      "Ġstring": 2290,
      "Ġcoo": 2291,
      "Ġsol": 2292,
      "ĠPlease": 2293,
      "lebr": 2294,
      "ĠEverywhere": 2295,
      "Ġwash": 2296,
      "Ġpeaceful": 2297,
      "Ġwhistle": 2298,
      "Ġcelebr": 2299,
      "ĠSt": 2300,
      "Ġstir": 2301,
      "Ġcarrots": 2302,
      "Ġant": 2303,
      "Ġcross": 2304,
      "urse": 2305,
      "Ġspe": 2306,
      "Ġcreative": 2307,
      "Ġplate": 2308,
      "Ġtaste": 2309,
      "Ġhum": 2310,
      "Ġbanan": 2311,
      "Ġgen": 2312,
      "Ġrobot": 2313,
      "Ġtidy": 2314,
      "ĠLe": 2315,
      "My": 2316,
      "Ġmoon": 2317,
      "Ġknocked": 2318,
      "iger": 2319,
      "Ġtrust": 2320,
      "Ġcrab": 2321,
      "orry": 2322,
      "Ġhears": 2323,
      "Ġtells": 2324,
      "box": 2325,
      "Ġcloth": 2326,
      "Ġvillage": 2327,
      "Ġmissed": 2328,
      "Ġstone": 2329,
      "ungle": 2330,
      "Ġstra": 2331,
      "Ġcolour": 2332,
      "Ġembarrassed": 2333,
      "airs": 2334,
      "Ġjungle": 2335,
      "Ġstep": 2336,
      "Ġrocket": 2337,
      "Ġdecor": 2338,
      "ĠTheir": 2339,
      "ĠJake": 2340,
      "ĠSome": 2341,
      "Please": 2342,
      "Ġspicy": 2343,
      "Ġnecklace": 2344,
      "elly": 2345,
      "old": 2346,
      "Dad": 2347,
      "Ġtreats": 2348,
      "Ġshelf": 2349,
      "Ġscar": 2350,
      "getable": 2351,
      "Ġhel": 2352,
      "umpy": 2353,
      "arm": 2354,
      "Ġshirt": 2355,
      "Ġvegetable": 2356,
      "Ġforward": 2357,
      "Ġsplash": 2358,
      "dge": 2359,
      "Ġtea": 2360,
      "llie": 2361,
      "Ġsticks": 2362,
      "Ġlegs": 2363,
      "Ġemp": 2364,
      "Now": 2365,
      "Ġempty": 2366,
      "inted": 2367,
      "Ġsave": 2368,
      "hnn": 2369,
      "Ġjumping": 2370,
      "Ġnut": 2371,
      "Ġple": 2372,
      "ĠAl": 2373,
      "Ġgray": 2374,
      "Ġwhis": 2375,
      "Ġsharing": 2376,
      "Ġ'": 2377,
      "Ġgrew": 2378,
      "Ġber": 2379,
      "Ġsheep": 2380,
      "aking": 2381,
      "Ġtightly": 2382,
      "ĠAnn": 2383,
      "Ġlanded": 2384,
      "Mama": 2385,
      "most": 2386,
      "Ġgener": 2387,
      "Ġmeant": 2388,
      "Ġdeter": 2389,
      "Ġashamed": 2390,
      "Ġbal": 2391,
      "Ġnods": 2392,
      "Ġdisappo": 2393,
      "Ġpillow": 2394,
      "ĠLisa": 2395,
      "Ġdeterm": 2396,
      "Ġalmost": 2397,
      "ird": 2398,
      "ĠTV": 2399,
      "ying": 2400,
      "Ġhonest": 2401,
      "hnny": 2402,
      "Ġpizz": 2403,
      "ian": 2404,
      "Ġsour": 2405,
      "Ġgold": 2406,
      "ĠWhy": 2407,
      "ĠDon": 2408,
      "Ġjew": 2409,
      "Be": 2410,
      "dle": 2411,
      "Ġbreath": 2412,
      "Ġcarried": 2413,
      "Ġmeadow": 2414,
      "Ġunderstood": 2415,
      "ano": 2416,
      "ĠOn": 2417,
      "Ġyelled": 2418,
      "Ġstood": 2419,
      "Ġthese": 2420,
      "Ġvan": 2421,
      "erp": 2422,
      "Ġpolice": 2423,
      "Ġdrew": 2424,
      "den": 2425,
      "ground": 2426,
      "Ġseed": 2427,
      "Stop": 2428,
      "Ġpay": 2429,
      "Ġkitten": 2430,
      "Ġwhisp": 2431,
      "Ġsnacks": 2432,
      "Ġprince": 2433,
      "To": 2434,
      "ned": 2435,
      "Ġsuccess": 2436,
      "Ġfear": 2437,
      "Ġbored": 2438,
      "Ġsparkly": 2439,
      "gly": 2440,
      "Ġav": 2441,
      "Ġlem": 2442,
      "ital": 2443,
      "aul": 2444,
      "Ġgun": 2445,
      "Ġugly": 2446,
      "ony": 2447,
      "Ġgas": 2448,
      "Ġshore": 2449,
      "Ġvase": 2450,
      "Ġdisappointed": 2451,
      "Ġhosp": 2452,
      "hin": 2453,
      "Ġline": 2454,
      "ork": 2455,
      "ustr": 2456,
      "kin": 2457,
      "Ġhours": 2458,
      "ĠTeddy": 2459,
      "Ġhospital": 2460,
      "Ġgroup": 2461,
      "ĠRex": 2462,
      "Ġclass": 2463,
      "Ġpizza": 2464,
      "itter": 2465,
      "vous": 2466,
      "Ġseek": 2467,
      "Ġplants": 2468,
      "iff": 2469,
      "Ġblow": 2470,
      "Ġknowing": 2471,
      "Ġhidden": 2472,
      "Ġgenerous": 2473,
      "Ġreturned": 2474,
      "Ġcries": 2475,
      "oop": 2476,
      "Ġtent": 2477,
      "ĠZ": 2478,
      "Ġpuzzle": 2479,
      "ĠEven": 2480,
      "Sarah": 2481,
      "Ġpri": 2482,
      "Ġmessy": 2483,
      "Ġeasy": 2484,
      "Ġfeed": 2485,
      "Ġpoor": 2486,
      "Ġglass": 2487,
      "Ġfrustr": 2488,
      "Ġstanding": 2489,
      "Ġsleepy": 2490,
      "Ġpin": 2491,
      "Ġwaves": 2492,
      "Ġjelly": 2493,
      "Ġtest": 2494,
      "Ġsighed": 2495,
      "Ġfancy": 2496,
      "There": 2497,
      "Ġflag": 2498,
      "Ġsandwich": 2499,
      "Ġburn": 2500,
      "ĠMum": 2501,
      "ĠTogether": 2502,
      "Sorry": 2503,
      "Ġthankful": 2504,
      "Where": 2505,
      "Ġbedroom": 2506,
      "Ġpowerful": 2507,
      "Ġship": 2508,
      "Ġtick": 2509,
      "Ġtaught": 2510,
      "body": 2511,
      "Ġscarf": 2512,
      "Ġsold": 2513,
      "Ġkissed": 2514,
      "Ġner": 2515,
      "Ġcirc": 2516,
      "ĠBe": 2517,
      "lower": 2518,
      "Ġcrown": 2519,
      "Ġpir": 2520,
      "Ġtwirl": 2521,
      "era": 2522,
      "Ġboring": 2523,
      "'d": 2524,
      "Ġdeer": 2525,
      "Ġmot": 2526,
      "ote": 2527,
      "Ġnervous": 2528,
      "Ġreg": 2529,
      "Ġcaterp": 2530,
      "Ġcaterpill": 2531,
      "mb": 2532,
      "Ġmysterious": 2533,
      "Ġtears": 2534,
      "arl": 2535,
      "Ġfrustrated": 2536,
      "Ġpolite": 2537,
      "Ġspoil": 2538,
      "Are": 2539,
      "af": 2540,
      "work": 2541,
      "assed": 2542,
      "Ġpassed": 2543,
      "Ġscr": 2544,
      "Ġcloset": 2545,
      "Ġoften": 2546,
      "oof": 2547,
      "Ġhur": 2548,
      "Ġyourself": 2549,
      "Ġdrop": 2550,
      "Ġminutes": 2551,
      "Ġhang": 2552,
      "obby": 2553,
      "Ġdetermined": 2554,
      "Ġfig": 2555,
      "Ġleg": 2556,
      "pack": 2557,
      "Ġrad": 2558,
      "Ġclown": 2559,
      "Ġgets": 2560,
      "Ġexcite": 2561,
      "ensive": 2562,
      "selves": 2563,
      "issors": 2564,
      "ina": 2565,
      "Ġfil": 2566,
      "Ġgate": 2567,
      "Ġcap": 2568,
      "Ġexpensive": 2569,
      "Ġbridge": 2570,
      "Ġchew": 2571,
      "Ġdancing": 2572,
      "iddle": 2573,
      "Ġchest": 2574,
      "Ġgathered": 2575,
      "light": 2576,
      "Ġscissors": 2577,
      "Jane": 2578,
      "Ġpicks": 2579,
      "Ġflut": 2580,
      "Ġsaved": 2581,
      "ets": 2582,
      "Ġfinger": 2583,
      "usie": 2584,
      "illed": 2585,
      "Ġwagged": 2586,
      "ates": 2587,
      "ĠOK": 2588,
      "ual": 2589,
      "Ġesc": 2590,
      "Ġweek": 2591,
      "izzy": 2592,
      "Ġcaterpillar": 2593,
      "Ġwolf": 2594,
      "ĠLeo": 2595,
      "Ġboss": 2596,
      "Ġwander": 2597,
      "osaur": 2598,
      "Ġgrumpy": 2599,
      "Ġdrum": 2600,
      "Ġcomfortable": 2601,
      "Ġlock": 2602,
      "Ġpacked": 2603,
      "Ġqueen": 2604,
      "Ġanswered": 2605,
      "ond": 2606,
      "Ġhopping": 2607,
      "Ġworking": 2608,
      "ots": 2609,
      "Ġspend": 2610,
      "Ġdogs": 2611,
      "Ġmistake": 2612,
      "Ġexcitement": 2613,
      "Ġlit": 2614,
      "Their": 2615,
      "Ġmummy": 2616,
      "Ġdinosaur": 2617,
      "Ġstuff": 2618,
      "Ġtaken": 2619,
      "ĠPeter": 2620,
      "Ġcand": 2621,
      "ĠBl": 2622,
      "Ġknight": 2623,
      "Ġvegetables": 2624,
      "uce": 2625,
      "Ġmedic": 2626,
      "Ġwheel": 2627,
      "Ġwalks": 2628,
      "Ġdrawing": 2629,
      "Ġmiddle": 2630,
      "Ġpress": 2631,
      "Ġbone": 2632,
      "ggs": 2633,
      "Ġeggs": 2634,
      "ĠBr": 2635,
      "Ġtrue": 2636,
      "Ġlazy": 2637,
      "que": 2638,
      "Ġlose": 2639,
      "Ġgiggled": 2640,
      "Ġcrawl": 2641,
      "Ġones": 2642,
      "Ġruined": 2643,
      "Ġfruits": 2644,
      "Ġmir": 2645,
      "Ġwis": 2646,
      "Who": 2647,
      "Ġdest": 2648,
      "ugar": 2649,
      "Ġclap": 2650,
      "Ġmedicine": 2651,
      "Ġadd": 2652,
      "Ġnumber": 2653,
      "Ġbathroom": 2654,
      "Ġsmelly": 2655,
      "iness": 2656,
      "Ġasking": 2657,
      "ecially": 2658,
      "Ġexam": 2659,
      "Ġfake": 2660,
      "Ġsugar": 2661,
      "Ġfeathers": 2662,
      "Ġsight": 2663,
      "Ġstones": 2664,
      "Ġbrush": 2665,
      "Ġlicked": 2666,
      "Ġsweetie": 2667,
      "Ġtape": 2668,
      "pecially": 2669,
      "Ġgar": 2670,
      "Ġespecially": 2671,
      "ror": 2672,
      "aser": 2673,
      "Ġteam": 2674,
      "Ġweak": 2675,
      "Ġchange": 2676,
      "ushed": 2677,
      "Ġbody": 2678,
      "Ġdistance": 2679,
      "Ġnod": 2680,
      "Ġroar": 2681,
      "ella": 2682,
      "Ġdrank": 2683,
      "Ġpleased": 2684,
      "elp": 2685,
      "Ġlead": 2686,
      "Me": 2687,
      "Ġmatch": 2688,
      "Ġbake": 2689,
      "Ġpray": 2690,
      "Ġcri": 2691,
      "Ġcage": 2692,
      "Ġsplashed": 2693,
      "Ġfluffy": 2694,
      "Ġballs": 2695,
      "Ġmic": 2696,
      "ĠIf": 2697,
      "Ġyours": 2698,
      "ĠNo": 2699,
      "Ġmov": 2700,
      "ating": 2701,
      "Ġlying": 2702,
      "Ġcalling": 2703,
      "aged": 2704,
      "Ġfis": 2705,
      "Ġsailed": 2706,
      "Ġmoving": 2707,
      "uggest": 2708,
      "Ġlemon": 2709,
      "Ġglow": 2710,
      "Ġtie": 2711,
      "Ġsuggest": 2712,
      "Ġdisappeared": 2713,
      "Ġboard": 2714,
      "hip": 2715,
      "Ġsell": 2716,
      "Ġnoisy": 2717,
      "Ġglue": 2718,
      "ha": 2719,
      "ĠJohnny": 2720,
      "Ġwrote": 2721,
      "Ġsoap": 2722,
      "Ġclear": 2723,
      "ete": 2724,
      "Ġrelax": 2725,
      "Ġrid": 2726,
      "Ġok": 2727,
      "Ġeld": 2728,
      "Help": 2729,
      "Ġdecide": 2730,
      "Ġbecome": 2731,
      "Ġincred": 2732,
      "Ġmoms": 2733,
      "Ġmeasure": 2734,
      "Ġjuicy": 2735,
      "Ġmirror": 2736,
      "Ġcovered": 2737,
      "alous": 2738,
      "Ġplayground": 2739,
      "Jimmy": 2740,
      "Ġshows": 2741,
      "Ġjealous": 2742,
      "yal": 2743,
      "Ġhorn": 2744,
      "Ġquestions": 2745,
      "Ġfine": 2746,
      "Ġrare": 2747,
      "Ġcontent": 2748,
      "Ġboys": 2749,
      "ination": 2750,
      "Ġcraw": 2751,
      "imp": 2752,
      "Ġeager": 2753,
      "Ġcrawled": 2754,
      "Ġext": 2755,
      "Ġtowel": 2756,
      "ĠAt": 2757,
      "Ġcheck": 2758,
      "ipp": 2759,
      "Ġskipped": 2760,
      "Ġdig": 2761,
      "Ġfather": 2762,
      "Ġind": 2763,
      "Ġcleaned": 2764,
      "enny": 2765,
      "Ġord": 2766,
      "Ġfamous": 2767,
      "Ġeye": 2768,
      "Ġtwist": 2769,
      "Ġneeds": 2770,
      "Sally": 2771,
      "Ġshoot": 2772,
      "ĠBlue": 2773,
      "Ġgarage": 2774,
      "Ġjoke": 2775,
      "Ġincredible": 2776,
      "ĠEnd": 2777,
      "Ġtrucks": 2778,
      "eez": 2779,
      "Ġed": 2780,
      "umbled": 2781,
      "Ġsword": 2782,
      "Ġtiger": 2783,
      "Ġloyal": 2784,
      "Jill": 2785,
      "illi": 2786,
      "Ġhose": 2787,
      "Ġbubbles": 2788,
      "ory": 2789,
      "Ġmap": 2790,
      "Ġorganized": 2791,
      "Ġunus": 2792,
      "Ġhappening": 2793,
      "ti": 2794,
      "Ġrealised": 2795,
      "Ġbranches": 2796,
      "Ġlamp": 2797,
      "Ġword": 2798,
      "fic": 2799,
      "Ġborrow": 2800,
      "Ġtag": 2801,
      "Ġdiscovered": 2802,
      "Ġmotor": 2803,
      "Ġunusual": 2804,
      "Ġdish": 2805,
      "ipper": 2806,
      "Ġhurts": 2807,
      "Ġwand": 2808,
      "Ġextra": 2809,
      "cil": 2810,
      "Ġsil": 2811,
      "Ġfrown": 2812,
      "Ġknife": 2813,
      "Ġrich": 2814,
      "Ġpencil": 2815,
      "Ġelderly": 2816,
      "Ġthick": 2817,
      "Ġballoons": 2818,
      "lies": 2819,
      "Ġmod": 2820,
      "Ġwhale": 2821,
      "Ġcover": 2822,
      "Ġdiffic": 2823,
      "Ġlouder": 2824,
      "Ġfigure": 2825,
      "Ġonce": 2826,
      "Ġcost": 2827,
      "port": 2828,
      "asing": 2829,
      "ique": 2830,
      "Ġfour": 2831,
      "Ġguess": 2832,
      "Billy": 2833,
      "Ġbottom": 2834,
      "keep": 2835,
      "Spot": 2836,
      "Ġdifficult": 2837,
      "ĠKitty": 2838,
      "Ġaw": 2839,
      "Ġtoug": 2840,
      "Ġlaughs": 2841,
      "Ġflash": 2842,
      "Ġcolourful": 2843,
      "ĠSp": 2844,
      "Ġunique": 2845,
      "Ġang": 2846,
      "Ġcompet": 2847,
      "Ġarg": 2848,
      "Ġoffered": 2849,
      "Gra": 2850,
      "Ġchase": 2851,
      "ery": 2852,
      "Ġham": 2853,
      "Ġshake": 2854,
      "Ġboxes": 2855,
      "Ġbalance": 2856,
      "fast": 2857,
      "imed": 2858,
      "Ġadded": 2859,
      "ĠMark": 2860,
      "Ġspun": 2861,
      "cept": 2862,
      "Ġturt": 2863,
      "Ġwrapped": 2864,
      "Ġhero": 2865,
      "Ġbarn": 2866,
      "Ġadventur": 2867,
      "Ġjewel": 2868,
      "Ġstraw": 2869,
      "Ġberries": 2870,
      "ately": 2871,
      "Ġcoins": 2872,
      "Ġkindness": 2873,
      "ĠLittle": 2874,
      "Ġgiving": 2875,
      "Ġbreakfast": 2876,
      "Ġlog": 2877,
      "?\".": 2878,
      "Ġchicken": 2879,
      "ages": 2880,
      "Sue": 2881,
      "Ġbloom": 2882,
      "ature": 2883,
      "Ġbald": 2884,
      "Ġgoat": 2885,
      "ured": 2886,
      "Ġbanana": 2887,
      "rag": 2888,
      "Ġmighty": 2889,
      "Ġnorm": 2890,
      "Ġadventurous": 2891,
      "Ġswan": 2892,
      "Ġdolp": 2893,
      "ye": 2894,
      "Ġfool": 2895,
      "Ġmanaged": 2896,
      "Ġfalls": 2897,
      "land": 2898,
      "Ġpump": 2899,
      "Ġlifted": 2900,
      "ym": 2901,
      "Ġtough": 2902,
      "How": 2903,
      "Ġcher": 2904,
      "Ġpointing": 2905,
      "ject": 2906,
      "Ġhelps": 2907,
      "uggled": 2908,
      "Well": 2909,
      "Ġdizzy": 2910,
      "Ġcircle": 2911,
      "Here": 2912,
      "Ġpee": 2913,
      "Ġwagon": 2914,
      "alk": 2915,
      "olog": 2916,
      "Ġharder": 2917,
      "ouses": 2918,
      "Ġdreamed": 2919,
      "keeper": 2920,
      "Ġcompetit": 2921,
      "Ġweird": 2922,
      "Joe": 2923,
      "Ġsmoke": 2924,
      "Ġmelt": 2925,
      "Ġloudly": 2926,
      "Ġnormal": 2927,
      "oppy": 2928,
      "Ġbelonged": 2929,
      "Ġbossy": 2930,
      "Ġmarket": 2931,
      "Ġimpressed": 2932,
      "Ġfat": 2933,
      "Ġears": 2934,
      "Ġgrown": 2935,
      "Ġwrap": 2936,
      "ĠSusie": 2937,
      "Ġapolog": 2938,
      "Ġskin": 2939,
      "Ġshape": 2940,
      "Ġhats": 2941,
      "ilt": 2942,
      "Ġknows": 2943,
      "Ġicy": 2944,
      "Ġstubb": 2945,
      "Ġlearning": 2946,
      "und": 2947,
      "emo": 2948,
      "Ġagainst": 2949,
      "ĠMy": 2950,
      "Ġsearch": 2951,
      "Ġhunt": 2952,
      "Ġhouses": 2953,
      "Ġdepend": 2954,
      "Ġscare": 2955,
      "Ġenjoying": 2956,
      "pes": 2957,
      "anged": 2958,
      "Ġmeans": 2959,
      "Ġfavour": 2960,
      "ĠBrown": 2961,
      "Ġharm": 2962,
      "Ġslipped": 2963,
      "ĠRose": 2964,
      "Ġbrothers": 2965,
      "head": 2966,
      "Amy": 2967,
      "Ġrough": 2968,
      "Ġpainting": 2969,
      "Ġedge": 2970,
      "reen": 2971,
      "Ġchoose": 2972,
      "Ġbrilli": 2973,
      "Ġgrace": 2974,
      "Ġrecord": 2975,
      "Ġbuttons": 2976,
      "Ġref": 2977,
      "Ġfright": 2978,
      "Ġstubborn": 2979,
      "apping": 2980,
      "ready": 2981,
      "Ġfavourite": 2982,
      "Ġshells": 2983,
      "Ġfoolish": 2984,
      "Ġjack": 2985,
      "Ġsafely": 2986,
      "Ġbrilliant": 2987,
      "Ġbatter": 2988,
      "Al": 2989,
      "Ġcudd": 2990,
      "ĠToday": 2991,
      "Ġtoast": 2992,
      "Ġfridge": 2993,
      "Ġcircles": 2994,
      "omed": 2995,
      "Ġspace": 2996,
      "Ġstri": 2997,
      "iv": 2998,
      "Ġguit": 2999,
      "Ġter": 3000,
      "Ġcro": 3001,
      "Ġhappiness": 3002,
      "rage": 3003,
      "Ġalready": 3004,
      "Ġrat": 3005,
      "Ġbitter": 3006,
      "Ġturtle": 3007,
      "aw": 3008,
      "erry": 3009,
      "Ġyog": 3010,
      "Ġwalls": 3011,
      "Ġoffice": 3012,
      "Ġlibr": 3013,
      "Ġwake": 3014,
      "Ġlaw": 3015,
      "Ġsounded": 3016,
      "Ġisland": 3017,
      "Ġstrawber": 3018,
      "Ġmixed": 3019,
      "edient": 3020,
      "Ġegg": 3021,
      "Ġsaying": 3022,
      "Ġclay": 3023,
      "Ġdreams": 3024,
      "Ġcrack": 3025,
      "Ġcheerful": 3026,
      "Mummy": 3027,
      "erg": 3028,
      "arth": 3029,
      "Ġtrunk": 3030,
      "iable": 3031,
      "Ġbags": 3032,
      "Ġcam": 3033,
      "Ġunl": 3034,
      "Ġsmaller": 3035,
      "Ġvalu": 3036,
      "Ġmovie": 3037,
      "Ġroof": 3038,
      "Ġescape": 3039,
      "ache": 3040,
      "Ġnosy": 3041,
      "Ġfier": 3042,
      "Ġguitar": 3043,
      "Ġshark": 3044,
      "Ġnotice": 3045,
      "Ġexcla": 3046,
      "Ġpoured": 3047,
      "Ġaccept": 3048,
      "Ġparrot": 3049,
      "Ġstronger": 3050,
      "Ġcab": 3051,
      "Ġstream": 3052,
      "Ġmagn": 3053,
      "Ġtunn": 3054,
      "sc": 3055,
      "Ġcrayon": 3056,
      "Ġobedient": 3057,
      "Ġinvited": 3058,
      "arry": 3059,
      "Ġweal": 3060,
      "Ġnicely": 3061,
      "Ġexclaimed": 3062,
      "Ġuseful": 3063,
      "Ġdependable": 3064,
      "Ġlow": 3065,
      "Ġtools": 3066,
      "ĠMrs": 3067,
      "Ġsuggested": 3068,
      "Ġreliable": 3069,
      "Ġcabin": 3070,
      "ĠBobby": 3071,
      "Ġfierce": 3072,
      "Ġtimes": 3073,
      "Ġproudly": 3074,
      "Ġterri": 3075,
      "Ġthu": 3076,
      "Ġcounted": 3077,
      "Ġscrat": 3078,
      "Ġfingers": 3079,
      "Ġrose": 3080,
      "Ġcity": 3081,
      "ado": 3082,
      "Ġindepend": 3083,
      "Ġshowing": 3084,
      "ola": 3085,
      "Ġstudy": 3086,
      "Ġpil": 3087,
      "ĠBu": 3088,
      "Ġlean": 3089,
      "irp": 3090,
      "Ġbushes": 3091,
      "Ġdesign": 3092,
      "Ġabove": 3093,
      "Ġexplored": 3094,
      "Ġhoop": 3095,
      "wards": 3096,
      "Ġtummy": 3097,
      "Ġjoined": 3098,
      "Ġfrightened": 3099,
      "corn": 3100,
      "Ġstumbled": 3101,
      "Ġdead": 3102,
      "Ġgem": 3103,
      "ĠElla": 3104,
      "Ġkicked": 3105,
      "Ġfountain": 3106,
      "Ġbirdie": 3107,
      "Ġspinning": 3108,
      "na": 3109,
      "cient": 3110,
      "Ġspoiled": 3111,
      "Ġtwig": 3112,
      "Ġfrag": 3113,
      "Ġdough": 3114,
      "Ġlocked": 3115,
      "Ġlights": 3116,
      "Ġsuccessful": 3117,
      "Ġthemselves": 3118,
      "Ġstove": 3119,
      "Ġusing": 3120,
      "Ġcop": 3121,
      "Ġmem": 3122,
      "kn": 3123,
      "Ġwiped": 3124,
      "Ġjog": 3125,
      "Ġbrightly": 3126,
      "Ġexcitedly": 3127,
      "Ġzip": 3128,
      "Ġvaluable": 3129,
      "Ġrode": 3130,
      "Ġenorm": 3131,
      "Ġtele": 3132,
      "Ġindependent": 3133,
      "Ġenormous": 3134,
      "amond": 3135,
      "Ġancient": 3136,
      "az": 3137,
      "Ġyarn": 3138,
      "Ġswe": 3139,
      "ÅĵLet": 3140,
      "Ġfre": 3141,
      "Ġbeak": 3142,
      "ĠEllie": 3143,
      "Ġcleaning": 3144,
      "ĠYour": 3145,
      "Ġthoughtful": 3146,
      "Ġkinds": 3147,
      "Ġdelicate": 3148,
      "anut": 3149,
      "Ġjam": 3150,
      "Ġbuilt": 3151,
      "Ġresc": 3152,
      "ention": 3153,
      "Ġseem": 3154,
      "Ġeng": 3155,
      "Ġdiamond": 3156,
      "Ġreminded": 3157,
      "ither": 3158,
      "Ġsteal": 3159,
      "Ġow": 3160,
      "Ġpopcorn": 3161,
      "inal": 3162,
      "ĠNemo": 3163,
      "Ġshadow": 3164,
      "ipe": 3165,
      "Ġthirst": 3166,
      "ĠPete": 3167,
      "orge": 3168,
      "Ġholds": 3169,
      "Ġshone": 3170,
      "Ġsniff": 3171,
      "ĠDan": 3172,
      "Ġfragile": 3173,
      "Ġenvel": 3174,
      "Ġways": 3175,
      "mbre": 3176,
      "oot": 3177,
      "Ġadmired": 3178,
      "Ġumbre": 3179,
      "Ġstat": 3180,
      "Ġflute": 3181,
      "iginal": 3182,
      "Ġbean": 3183,
      "Ġtank": 3184,
      "Ġbounce": 3185,
      "Ġpractice": 3186,
      "uth": 3187,
      "upid": 3188,
      "known": 3189,
      "Ġbees": 3190,
      "ĠFin": 3191,
      "Ġmarble": 3192,
      "eeze": 3193,
      "Ġflashlight": 3194,
      "Ġchanged": 3195,
      "Ġgrandpa": 3196,
      "ĠDucky": 3197,
      "Ġcostum": 3198,
      "illa": 3199,
      "Ġwhispered": 3200,
      "Ġbump": 3201,
      "Ġrubb": 3202,
      "Ġfinding": 3203,
      "Ġbrace": 3204,
      "Ġpainted": 3205,
      "Ġhelm": 3206,
      "Ġpumpkin": 3207,
      "Ġhalf": 3208,
      "Ġlab": 3209,
      "umbers": 3210,
      "Ġsolve": 3211,
      "Ġcamera": 3212,
      "Ġpige": 3213,
      "ray": 3214,
      "cod": 3215,
      "Ġoriginal": 3216,
      "Ġserious": 3217,
      "Ġstamp": 3218,
      "Ġthirsty": 3219,
      "Ġsuit": 3220,
      "Ġunknown": 3221,
      "Ġtomato": 3222,
      "Ġstupid": 3223,
      "uring": 3224,
      "Ġpost": 3225,
      "Ġdove": 3226,
      "Ġplayful": 3227,
      "Ġstairs": 3228,
      "Ġraced": 3229,
      "Ġyet": 3230,
      "Ġbeet": 3231,
      "Ġsleeping": 3232,
      "Ġguard": 3233,
      "Ġopens": 3234,
      "Ġwealthy": 3235,
      "ĠU": 3236,
      "Ġclum": 3237,
      "Ġpicking": 3238,
      "Ġsalad": 3239,
      "Ġenc": 3240,
      "inary": 3241,
      "Ġcone": 3242,
      "Ġseeds": 3243,
      "Ġcomput": 3244,
      "gu": 3245,
      "Ġpebble": 3246,
      "Ġmis": 3247,
      "Ġchose": 3248,
      "Ġson": 3249,
      "Ġcrocod": 3250,
      "eorge": 3251,
      "ilty": 3252,
      "Ġallowed": 3253,
      "Ġpeanut": 3254,
      "Ġmole": 3255,
      "ĠFred": 3256,
      "Ġguilty": 3257,
      "Em": 3258,
      "Ġstops": 3259,
      "Ġangel": 3260,
      "Ġdolphin": 3261,
      "Ġforth": 3262,
      "Ġflex": 3263,
      "Ġcheap": 3264,
      "Ġnurse": 3265,
      "dom": 3266,
      "Ġwashed": 3267,
      "Ġdelighted": 3268,
      "Ġnature": 3269,
      "iew": 3270,
      "Ġdoesn": 3271,
      "Ġsearching": 3272,
      "Ġmetal": 3273,
      "Ġcere": 3274,
      "com": 3275,
      "Ġclock": 3276,
      "Ġmoder": 3277,
      "Ġsunf": 3278,
      "Ġcompass": 3279,
      "anger": 3280,
      "Ġjolly": 3281,
      "Ġmarch": 3282,
      "Ġboats": 3283,
      "Ġhammer": 3284,
      "vice": 3285,
      "ines": 3286,
      "Ġthose": 3287,
      "ugged": 3288,
      "Ġview": 3289,
      "Ġnumbers": 3290,
      "Ġleaving": 3291,
      "isk": 3292,
      "Ġtelling": 3293,
      "Ġclumsy": 3294,
      "See": 3295,
      "Ġrushed": 3296,
      "ĠBobo": 3297,
      "ĠAlice": 3298,
      "Ġfresh": 3299,
      "Ġhay": 3300,
      "Ġdull": 3301,
      "ience": 3302,
      "oomy": 3303,
      "Ġpant": 3304,
      "Ġarrow": 3305,
      "Ġprint": 3306,
      "Ġhairy": 3307,
      "ĠTweety": 3308,
      "ĠWhenever": 3309,
      "Ġdust": 3310,
      "Ġmissing": 3311,
      "het": 3312,
      "Ġregular": 3313,
      "gest": 3314,
      "Ġflexible": 3315,
      "Ġacorn": 3316,
      "ĠKim": 3317,
      "Ġshel": 3318,
      "Ġterrible": 3319,
      "Ġfriendship": 3320,
      "Ġprize": 3321,
      "Ġmodern": 3322,
      "!\".": 3323,
      "Ġspilled": 3324,
      "Ġengine": 3325,
      "Ġtem": 3326,
      "Ġtor": 3327,
      "Ġjug": 3328,
      "ations": 3329,
      "Ġtooth": 3330,
      "Ġsauce": 3331,
      "Ġending": 3332,
      "Ġbiggest": 3333,
      "Ġload": 3334,
      "Ġdriving": 3335,
      "Ġavo": 3336,
      "Ġaunt": 3337,
      "aghet": 3338,
      "Ġpotato": 3339,
      "aghetti": 3340,
      "Ġbarber": 3341,
      "Ġenvelope": 3342,
      "Ġsink": 3343,
      "Ġtowers": 3344,
      "Ġumbrella": 3345,
      "Ġsne": 3346,
      "Ġrub": 3347,
      "Ġpirate": 3348,
      "Ġdestro": 3349,
      "ict": 3350,
      "Ġhanded": 3351,
      "Ġpeeked": 3352,
      "fa": 3353,
      "Ġpopular": 3354,
      "Ġpatter": 3355,
      "Ġhandle": 3356,
      "time": 3357,
      "Ġloll": 3358,
      "Ġcareless": 3359,
      "Ġwire": 3360,
      "ĠSn": 3361,
      "Ġdreaming": 3362,
      "Ġcarrying": 3363,
      "Ġbeetle": 3364,
      "Ġscreen": 3365,
      "ipop": 3366,
      "Ġthunder": 3367,
      "Ġspaghetti": 3368,
      "Ġchar": 3369,
      "Go": 3370,
      "While": 3371,
      "Ġtied": 3372,
      "ĠMar": 3373,
      "Ġgraceful": 3374,
      "Ġing": 3375,
      "Ġwing": 3376,
      "Ġcomb": 3377,
      "Ġprep": 3378,
      "Ġcereal": 3379,
      "Ġstage": 3380,
      "ĠBella": 3381,
      "Ġlollipop": 3382,
      "Ġjacket": 3383,
      "Ġtunnel": 3384,
      "Ġstatue": 3385,
      "Ġmush": 3386,
      "Ġrubbed": 3387,
      "Ġcompassion": 3388,
      "Ġgoose": 3389,
      "Ġknock": 3390,
      "Ġpattern": 3391,
      "Ġdesk": 3392,
      "Ġreward": 3393,
      "Ġscatter": 3394,
      "Ġslides": 3395,
      "redient": 3396,
      "Ġingredient": 3397,
      "Ġshocked": 3398,
      "Ġer": 3399,
      "Ġcomputer": 3400,
      "Ġcur": 3401,
      "ision": 3402,
      "Ġnote": 3403,
      "Ġdeliver": 3404,
      "Ġscale": 3405,
      "Ġstack": 3406,
      "Ġmel": 3407,
      "robe": 3408,
      "Ġsquare": 3409,
      "Ġgrand": 3410,
      "Ġmeal": 3411,
      "arsh": 3412,
      "Ġbull": 3413,
      "Ġtrap": 3414,
      "Ġliz": 3415,
      "Ġtruth": 3416,
      "Ġcrazy": 3417,
      "Ġbracelet": 3418,
      "Ġcrocodile": 3419,
      "ĠMike": 3420,
      "eezed": 3421,
      "Ġpengu": 3422,
      "Ġpow": 3423,
      "Ġtravel": 3424,
      "Ġwitch": 3425,
      "Ġshiver": 3426,
      "Ġgasped": 3427,
      "Ġmask": 3428,
      "Ġimagined": 3429,
      "âĤ¬âĢ": 3430,
      "Ġimpressive": 3431,
      "Ġrug": 3432,
      "Ġtrash": 3433,
      "Ġperform": 3434,
      "Ġpersist": 3435,
      "ellig": 3436,
      "Ġcollar": 3437,
      "Ġearth": 3438,
      "ĠWhile": 3439,
      "Ġintellig": 3440,
      "ĠPe": 3441,
      "Ġearly": 3442,
      "Ġpup": 3443,
      "Ġjumps": 3444,
      "Ow": 3445,
      "Ġthinking": 3446,
      "Ġadvice": 3447,
      "host": 3448,
      "io": 3449,
      "uddy": 3450,
      "ement": 3451,
      "iches": 3452,
      "Ġwheels": 3453,
      "Ġstranger": 3454,
      "Ġcrane": 3455,
      "Ġspring": 3456,
      "uper": 3457,
      "Ġnames": 3458,
      "Ġenv": 3459,
      "Ġperm": 3460,
      "Ġwindows": 3461,
      "Ġenth": 3462,
      "comfort": 3463,
      "Ġfork": 3464,
      "ÅĵWhat": 3465,
      "Ġspoke": 3466,
      "ibb": 3467,
      "Ġghost": 3468,
      "illie": 3469,
      "ĠDave": 3470,
      "Ġbent": 3471,
      "ikes": 3472,
      "ĠLook": 3473,
      "Ġbeauty": 3474,
      "ophie": 3475,
      "Ġstickers": 3476,
      "Ġcreate": 3477,
      "Ġobject": 3478,
      "Ġlibrary": 3479,
      "Ġenthus": 3480,
      "Ġcelebrate": 3481,
      "Ġmushroom": 3482,
      "Ġingredients": 3483,
      "aches": 3484,
      "comfortable": 3485,
      "Ġwaff": 3486,
      "Ġmill": 3487,
      "Ġgrowing": 3488,
      "Ġorder": 3489,
      "Ġwarned": 3490,
      "Ġphot": 3491,
      "Ġmailbox": 3492,
      "Ġuncomfortable": 3493,
      "Ġdiscover": 3494,
      "Ġbutterflies": 3495,
      "Ġreading": 3496,
      "Ġpale": 3497,
      "Ġhipp": 3498,
      "Ġtorn": 3499,
      "awn": 3500,
      "Ġcamp": 3501,
      "Ġsorts": 3502,
      "Ġsparkled": 3503,
      "ĠHere": 3504,
      "ÅĵLetÃ¢": 3505,
      "Ġpigeon": 3506,
      "Ġquestion": 3507,
      "Ġsofa": 3508,
      "ebra": 3509,
      "Ġharmless": 3510,
      "Ġcomplet": 3511,
      "Ġletters": 3512,
      "Ġparade": 3513,
      "coa": 3514,
      "Ġcompetitive": 3515,
      "Ġflour": 3516,
      "ÅĵYes": 3517,
      "Ġanx": 3518,
      "tter": 3519,
      "Ġsudden": 3520,
      "ÅĵIt": 3521,
      "Ġuncle": 3522,
      "Ġpretending": 3523,
      "Ġpenny": 3524,
      "Ġgor": 3525,
      "Ġdestroy": 3526,
      "Ġsandwiches": 3527,
      "Ġnuts": 3528,
      "Ġahead": 3529,
      "Ġrece": 3530,
      "Ġblueber": 3531,
      "orant": 3532,
      "Ġcounting": 3533,
      "Ġpatch": 3534,
      "loo": 3535,
      "Ġbadly": 3536,
      "ips": 3537,
      "ince": 3538,
      "Ġpony": 3539,
      "Ġshut": 3540,
      "Ġlizard": 3541,
      "Ġanxious": 3542,
      "Ġzebra": 3543,
      "Ġbeep": 3544,
      "Ġplaced": 3545,
      "Ġsurf": 3546,
      "Ġcooking": 3547,
      "Ġpiano": 3548,
      "Ġneat": 3549,
      "Ġhumble": 3550,
      "Ġhook": 3551,
      "ices": 3552,
      "Ġencou": 3553,
      "Ġsadly": 3554,
      "Ġsnuggled": 3555,
      "Ġcocoa": 3556,
      "Ġuniver": 3557,
      "Ġhung": 3558,
      "Ġmay": 3559,
      "Ġignorant": 3560,
      "ĠGrandpa": 3561,
      "ric": 3562,
      "Ġtwirled": 3563,
      "Ġintelligent": 3564,
      "Ġstation": 3565,
      "Ġsunflower": 3566,
      "Ġbase": 3567,
      "Ġotter": 3568,
      "stri": 3569,
      "ses": 3570,
      "ĠcouldnÃ¢": 3571,
      "ĠMummy": 3572,
      "aid": 3573,
      "Ġvol": 3574,
      "oe": 3575,
      "Ġpersistent": 3576,
      "Ġdug": 3577,
      "Ġpepper": 3578,
      "Ġtriang": 3579,
      "Ġnail": 3580,
      "Ġcards": 3581,
      "Ġrefused": 3582,
      "Yay": 3583,
      "Ġtask": 3584,
      "Ġspeed": 3585,
      "Ġgum": 3586,
      "ief": 3587,
      "Ġrules": 3588,
      "cream": 3589,
      "Ġgloomy": 3590,
      "Ġcupboard": 3591,
      "Ġpants": 3592,
      "gust": 3593,
      "arian": 3594,
      "Ġchance": 3595,
      "Ġfearful": 3596,
      "Ġtur": 3597,
      "Ġchasing": 3598,
      "ud": 3599,
      "Ġcharming": 3600,
      "Ġleash": 3601,
      "Ġstarts": 3602,
      "Ġshaking": 3603,
      "Ġdisgust": 3604,
      "Ġsett": 3605,
      "Ġcreatures": 3606,
      "Ġdeaf": 3607,
      "Ġattract": 3608,
      "ĠGive": 3609,
      "ĠBear": 3610,
      "used": 3611,
      "Ġtrick": 3612,
      "Ġcarp": 3613,
      "Ġordinary": 3614,
      "Mary": 3615,
      "Ġtrack": 3616,
      "ĠFr": 3617,
      "Ġpasta": 3618,
      "cu": 3619,
      "Ġresist": 3620,
      "erable": 3621,
      "ĠWh": 3622,
      "Ġanywhere": 3623,
      "Ġtrump": 3624,
      "Ġolder": 3625,
      "Ġcartoon": 3626,
      "cano": 3627,
      "Ġsuper": 3628,
      "Ġcurt": 3629,
      "Ġgifted": 3630,
      "cut": 3631,
      "Ġhippo": 3632,
      "Ġcurtain": 3633,
      "Ġled": 3634,
      "Ġyawn": 3635,
      "Ġmiserable": 3636,
      "ceed": 3637,
      "Ġsquash": 3638,
      "Ġcourage": 3639,
      "Ġcricket": 3640,
      "ĠSm": 3641,
      "Ġbrighter": 3642,
      "Ġgorilla": 3643,
      "Give": 3644,
      "Ġimpat": 3645,
      "Re": 3646,
      "bled": 3647,
      "Ġsend": 3648,
      "Ġpurse": 3649,
      "Ġgir": 3650,
      "Ġalert": 3651,
      "Ġjet": 3652,
      "Ġpracticed": 3653,
      "Ġturkey": 3654,
      "Ġclub": 3655,
      "Ġhurry": 3656,
      "Ġhelmet": 3657,
      "Ġshouts": 3658,
      "Ġvalue": 3659,
      "Ġdecorate": 3660,
      "ĠPat": 3661,
      "Ġbandage": 3662,
      "ĠSh": 3663,
      "opus": 3664,
      "ctopus": 3665,
      "Ġsoldier": 3666,
      "Ġfu": 3667,
      "urb": 3668,
      "Ġcompl": 3669,
      "Ġostri": 3670,
      "Ġscoot": 3671,
      "ĠJoey": 3672,
      "Ġimpatient": 3673,
      "Ġtire": 3674,
      "Ġcase": 3675,
      "Ġdisturb": 3676,
      "iest": 3677,
      "htub": 3678,
      "Ġallig": 3679,
      "Ġvolcano": 3680,
      "Ġcompassionate": 3681,
      "Ġtrumpet": 3682,
      "Ġbathtub": 3683,
      "Ġshine": 3684,
      "Ġoctopus": 3685,
      "Ġbounced": 3686,
      "Ġsupport": 3687,
      "Ġitself": 3688,
      "aked": 3689,
      "ĠToby": 3690,
      "Ġspell": 3691,
      "Ġdrawer": 3692,
      "Ġcarpet": 3693,
      "Ġdisgusting": 3694,
      "Ġjeep": 3695,
      "ĠEventually": 3696,
      "Ġpressed": 3697,
      "ĠAre": 3698,
      "Ġsalt": 3699,
      "Ġbicy": 3700,
      "Ġmeas": 3701,
      "Ġgrabs": 3702,
      "Ġfilthy": 3703,
      "Ġmelon": 3704,
      "ĠLola": 3705,
      "noon": 3706,
      "Ġcomet": 3707,
      "Ġafternoon": 3708,
      "Ġbarking": 3709,
      "Ġmug": 3710,
      "Ġrestless": 3711,
      "aff": 3712,
      "Ġshoe": 3713,
      "Ġhunter": 3714,
      "Bye": 3715,
      "Ġenvious": 3716,
      "Ġbri": 3717,
      "Ġhelpless": 3718,
      "Ġtray": 3719,
      "Ġfirework": 3720,
      "Ġsucceed": 3721,
      "Ġpulls": 3722,
      "icop": 3723,
      "ĠWhere": 3724,
      "icopter": 3725,
      "Ġstretched": 3726,
      "Ġtemp": 3727,
      "Ġten": 3728,
      "ubby": 3729,
      "Ġnowhere": 3730,
      "ĠAlex": 3731,
      "Ġskip": 3732,
      "Ġadmire": 3733,
      "Ġattractive": 3734,
      "Ġcryst": 3735,
      "Ġlively": 3736,
      "Ġnobody": 3737,
      "Ġmagnet": 3738,
      "Ġhelicopter": 3739,
      "aroo": 3740,
      "Ġshield": 3741,
      "Ġexplain": 3742,
      "angaroo": 3743,
      "gging": 3744,
      "Ġhuman": 3745,
      "Ġrepe": 3746,
      "aurant": 3747,
      "Ġneedle": 3748,
      "Ġorganize": 3749,
      "gn": 3750,
      "Ġsomewhere": 3751,
      "If": 3752,
      "Ġfive": 3753,
      "Ġrestaurant": 3754,
      "Ġgiggle": 3755,
      "Ġcush": 3756,
      "aby": 3757,
      "Ġcats": 3758,
      "Ġcows": 3759,
      "Ġleop": 3760,
      "Ġvine": 3761,
      "Ġanyway": 3762,
      "Ġbarrel": 3763,
      "ser": 3764,
      "Ġkangaroo": 3765,
      "Ġbet": 3766,
      "Ġvide": 3767,
      "Ġmonkeys": 3768,
      "Ġattic": 3769,
      "Ġsplit": 3770,
      "Benny": 3771,
      "Ġsticker": 3772,
      "Ġcooked": 3773,
      "Ġlions": 3774,
      "ĠTweetie": 3775,
      "Ġreco": 3776,
      "Ġwishes": 3777,
      "Ġostrich": 3778,
      "ĠPolly": 3779,
      "ophone": 3780,
      "Ġdess": 3781,
      "enry": 3782,
      "Ġthief": 3783,
      "ÅĵThat": 3784,
      "Ġthread": 3785,
      "Ġchubby": 3786,
      "Ġpoem": 3787,
      "Ġants": 3788,
      "Ġsandbox": 3789,
      "Ġfurther": 3790,
      "Ġbackpack": 3791,
      "Ġseal": 3792,
      "Ġpun": 3793,
      "Ġgoal": 3794,
      "Ġdistant": 3795,
      "Ġrespectful": 3796,
      "ĠMandy": 3797,
      "ebook": 3798,
      "Ġtap": 3799,
      "inking": 3800,
      "Ġscrew": 3801,
      "ĠCl": 3802,
      "Ġradio": 3803,
      "Ġnotebook": 3804,
      "Ġvi": 3805,
      "Ġpaws": 3806,
      "ummer": 3807,
      "astic": 3808,
      "Ġribb": 3809,
      "stairs": 3810,
      "Ġholes": 3811,
      "Ġharsh": 3812,
      "Ġunpack": 3813,
      "Ġfinds": 3814,
      "Ġraven": 3815,
      "par": 3816,
      "Ġmuff": 3817,
      "Ġsent": 3818,
      "Ġsepar": 3819,
      "Ġpushes": 3820,
      "Everyone": 3821,
      "iskers": 3822,
      "Ġmath": 3823,
      "Ġfireman": 3824,
      "Ġmodest": 3825,
      "Ġstirred": 3826,
      "Ġswitch": 3827,
      "arlie": 3828,
      "Alice": 3829,
      "Ġalligator": 3830,
      "Ġsteps": 3831,
      "shed": 3832,
      "Ġstared": 3833,
      "Ġelev": 3834,
      "orable": 3835,
      "Ġfrowned": 3836,
      "ĠEverything": 3837,
      "Ġpackage": 3838,
      "night": 3839,
      "Ġsweater": 3840,
      "Ġleopard": 3841,
      "Ġhedge": 3842,
      "Ġavoc": 3843,
      "Ġpand": 3844,
      "Ġcardboard": 3845,
      "Ġbicycle": 3846,
      "hood": 3847,
      "stic": 3848,
      "Ġwheat": 3849,
      "Ġmicr": 3850,
      "ipping": 3851,
      "Ġlid": 3852,
      "Ġrice": 3853,
      "Ġcube": 3854,
      "Ġsize": 3855,
      "Ġsheet": 3856,
      "Ġelevator": 3857,
      "Ġsoar": 3858,
      "Ġfort": 3859,
      "Ġdrawings": 3860,
      "cycle": 3861,
      "Ġbikes": 3862,
      "Ġbehave": 3863,
      "Ġjokes": 3864,
      "Ġlightning": 3865,
      "Ġcandle": 3866,
      "ĠSmith": 3867,
      "Ġur": 3868,
      "Ġadorable": 3869,
      "Ġimpro": 3870,
      "iastic": 3871,
      "Ġsilver": 3872,
      "Ġenthusiastic": 3873,
      "Ġmeat": 3874,
      "Ġbreat": 3875,
      "ĠBrownie": 3876,
      "ci": 3877,
      "Ġhive": 3878,
      "iron": 3879,
      "Ġbears": 3880,
      "Ġsort": 3881,
      "Ġhaircut": 3882,
      "elery": 3883,
      "Ġexper": 3884,
      "Ġspeak": 3885,
      "gie": 3886,
      "Ġhappier": 3887,
      "heart": 3888,
      "Ġdessert": 3889,
      "Ġmicrophone": 3890,
      "ĠBuddy": 3891,
      "Ġsle": 3892,
      "Ġloop": 3893,
      "Ġchain": 3894,
      "irit": 3895,
      "Ġquite": 3896,
      "Ġrepair": 3897,
      "Ġhall": 3898,
      "Ġeither": 3899,
      "aila": 3900,
      "ccol": 3901,
      "Ġpal": 3902,
      "ĠBill": 3903,
      "uct": 3904,
      "ĠGeorge": 3905,
      "Daisy": 3906,
      "ccoli": 3907,
      "Ġenerg": 3908,
      "Ġstretch": 3909,
      "Ġrecogn": 3910,
      "Ġtroubled": 3911,
      "reci": 3912,
      "Ġmarry": 3913,
      "Ġoy": 3914,
      "ĠLee": 3915,
      "Ġchalk": 3916,
      "ĠRed": 3917,
      "Ġprov": 3918,
      "aulif": 3919,
      "Ġtripped": 3920,
      "Ġswinging": 3921,
      "cast": 3922,
      "Ġfle": 3923,
      "Ġboots": 3924,
      "Ġpole": 3925,
      "Ġappreci": 3926,
      "Ġroared": 3927,
      "Ġlistening": 3928,
      "Ġriding": 3929,
      "Ġpaid": 3930,
      "Ġjellyfish": 3931,
      "Ġgro": 3932,
      "Ġstom": 3933,
      "Ġdishes": 3934,
      "ailable": 3935,
      "Ġgolf": 3936,
      "Ġpapers": 3937,
      "Ġpor": 3938,
      "Ġforgave": 3939,
      "Ġshovel": 3940,
      "Ġcact": 3941,
      "Ġoat": 3942,
      "year": 3943,
      "Ġlip": 3944,
      "Ġchecked": 3945,
      "Ġsandcast": 3946,
      "apa": 3947,
      "Ġrescue": 3948,
      "Ġclapping": 3949,
      "Ġscold": 3950,
      "Ġrod": 3951,
      "Ġshelter": 3952,
      "eer": 3953,
      "ĠdidnÃ¢": 3954,
      "Ġmama": 3955,
      "Ġinse": 3956,
      "Ġwallet": 3957,
      "Ġbin": 3958,
      "cond": 3959,
      "Ġsecond": 3960,
      "Ġbuzz": 3961,
      "Ġavailable": 3962,
      "Ġcelery": 3963,
      "Ġsock": 3964,
      "Ġquar": 3965,
      "Ġobser": 3966,
      "fee": 3967,
      "Ġink": 3968,
      "Ġshakes": 3969,
      "Ġpushing": 3970,
      "happy": 3971,
      "Ġtriangle": 3972,
      "Ha": 3973,
      "Ġeraser": 3974,
      "ffee": 3975,
      "Ġmessage": 3976,
      "Ġcaulif": 3977,
      "Ġpeek": 3978,
      "Ġgrapes": 3979,
      "Ġpalace": 3980,
      "Ġalive": 3981,
      "Ġtrains": 3982,
      "Ġshopkeeper": 3983,
      "Little": 3984,
      "Ġtrop": 3985,
      "Ġcolours": 3986,
      "Ġfalling": 3987,
      "Ġknot": 3988,
      "Ġfeelings": 3989,
      "Ġbroccoli": 3990,
      "Ġsailor": 3991,
      "Ġpoint": 3992,
      "ĠWhiskers": 3993,
      "ube": 3994,
      "Ġrag": 3995,
      "Ġraft": 3996,
      "Ġcountry": 3997,
      "Ġbreaks": 3998,
      "Ġcostume": 3999,
      "Ġcactus": 4000,
      "Ġspirit": 4001,
      "Ġlear": 4002,
      "Ġsmells": 4003,
      "Ġjudge": 4004,
      "Ġyach": 4005,
      "olin": 4006,
      "Ġlearnt": 4007,
      "Ġsummer": 4008,
      "Ġlaser": 4009,
      "Ġonion": 4010,
      "Ġsoftly": 4011,
      "Ġtuna": 4012,
      "ron": 4013,
      "render": 4014,
      "Ġshrimp": 4015,
      "Daddy": 4016,
      "Ġscooter": 4017,
      "Ġtrophy": 4018,
      "Ġluck": 4019,
      "Ġputting": 4020,
      "Ġclimbing": 4021,
      "Ġended": 4022,
      "Ġpolish": 4023,
      "Ġraining": 4024,
      "ĠSnow": 4025,
      "Ġcrystal": 4026,
      "Ġmen": 4027,
      "Ġmild": 4028,
      "Ġreind": 4029,
      "Ġart": 4030,
      "azz": 4031,
      "play": 4032,
      "bul": 4033,
      "Ġstarting": 4034,
      "reeze": 4035,
      "ucked": 4036,
      "Ġvisited": 4037,
      "ĠGrace": 4038,
      "Ġzoomed": 4039,
      "Ġrubber": 4040,
      "edy": 4041,
      "Ġtreasures": 4042,
      "Ġbasketball": 4043,
      "ooped": 4044,
      "Ġunhappy": 4045,
      "ĠOr": 4046,
      "Ġhoping": 4047,
      "Ġrolling": 4048,
      "Ġsprink": 4049,
      "ef": 4050,
      "Ġstrugg": 4051,
      "Ġappl": 4052,
      "Ġenergy": 4053,
      "ĠWould": 4054,
      "Ġgiven": 4055,
      "Ġcauliflower": 4056,
      "Jenny": 4057,
      "Ġtube": 4058,
      "Ġol": 4059,
      "Ġyacht": 4060,
      "sist": 4061,
      "Ġlaund": 4062,
      "Ġpilot": 4063,
      "Ġpipe": 4064,
      "aled": 4065,
      "Ġped": 4066,
      "Ġlaundry": 4067,
      "Ġunlock": 4068,
      "Ġpenguin": 4069,
      "Ġsaus": 4070,
      "icer": 4071,
      "Ġneighbour": 4072,
      "Ġcooler": 4073,
      "ĠBunny": 4074,
      "ĠJerry": 4075,
      "Ġhotel": 4076,
      "Grandma": 4077,
      "Ġframe": 4078,
      "Ġhadn": 4079,
      "Ġreindeer": 4080,
      "Ġflies": 4081,
      "ĠPaul": 4082,
      "Ġdive": 4083,
      "Ġdisplay": 4084,
      "Ġtricks": 4085,
      "Ġcups": 4086,
      "Ġbarks": 4087,
      "Ġkay": 4088,
      "Ġquit": 4089,
      "Ġbelt": 4090,
      "Ġshort": 4091,
      "aggie": 4092,
      "Ġthanks": 4093,
      "Ġbul": 4094,
      "Ġsweetheart": 4095,
      "Ġbur": 4096,
      "Ġcoffee": 4097,
      "ait": 4098,
      "ĠSandy": 4099,
      "ecause": 4100,
      "Ġpeach": 4101,
      "Ġdisag": 4102,
      "Ġairport": 4103,
      "Ġincl": 4104,
      "pe": 4105,
      "ĠBet": 4106,
      "kelet": 4107,
      "sely": 4108,
      "ĠAndy": 4109,
      "ĠSophie": 4110,
      "Ġoil": 4111,
      "Ġevening": 4112,
      "Ġdrops": 4113,
      "Ġjournal": 4114,
      "Ġfilm": 4115,
      "Ġsym": 4116,
      "Ġshade": 4117,
      "Ġthrows": 4118,
      "Ġlawy": 4119,
      "Ġtax": 4120,
      "Ġcord": 4121,
      "ides": 4122,
      "Ġstuffed": 4123,
      "Ġcushion": 4124,
      "ney": 4125,
      "Ġfolder": 4126,
      "Ġbulb": 4127,
      "Ġlives": 4128,
      "Ġpad": 4129,
      "ĠTr": 4130,
      "Ġskill": 4131,
      "Ġiron": 4132,
      "seum": 4133,
      "Ġmarched": 4134,
      "hino": 4135,
      "Ġclosely": 4136,
      "Ġbananas": 4137,
      "Ġphoto": 4138,
      "zzy": 4139,
      "Ġvend": 4140,
      "Ġambul": 4141,
      "Ġleaned": 4142,
      "nger": 4143,
      "Ġtub": 4144,
      "Ġpanda": 4145,
      "Ġsurrender": 4146,
      "Ġfootball": 4147,
      "Ġfisher": 4148,
      "Ġstrawberry": 4149,
      "ense": 4150,
      "Ġinsist": 4151,
      "Ġmuseum": 4152,
      "Ġplanet": 4153,
      "Ġwool": 4154,
      "Ġpair": 4155,
      "Ġfauc": 4156,
      "Ġcounter": 4157,
      "Ġporch": 4158,
      "ges": 4159,
      "keleton": 4160,
      "Ġlend": 4161,
      "bol": 4162,
      "ito": 4163,
      "Ġdiary": 4164,
      "Ġpainter": 4165,
      "affe": 4166,
      "Ġsymbol": 4167,
      "Ġtheater": 4168,
      "Ġcherries": 4169,
      "Ġambulance": 4170,
      "Ġtaxi": 4171,
      "Ġax": 4172,
      "Ġrhino": 4173,
      "Ġswung": 4174,
      "Ġcomplete": 4175,
      "Ġwaving": 4176,
      "ites": 4177,
      "Ġfrogs": 4178,
      "eath": 4179,
      "Ġheads": 4180,
      "Ġsteak": 4181,
      "Ġfields": 4182,
      "Ġapologized": 4183,
      "Ġfaucet": 4184,
      "izes": 4185,
      "Ġviolin": 4186,
      "Ġlie": 4187,
      "ccer": 4188,
      "quito": 4189,
      "mand": 4190,
      "ĠRo": 4191,
      "Ġforgotten": 4192,
      "Ġinsect": 4193,
      "Ġplastic": 4194,
      "Ġreef": 4195,
      "nam": 4196,
      "Ġhut": 4197,
      "Ġmule": 4198,
      "Ġcheek": 4199,
      "..": 4200,
      "Ġpage": 4201,
      "ckey": 4202,
      "Ġhockey": 4203,
      "Ġpowder": 4204,
      "âĤ¬âĢľ": 4205,
      "Ġsoccer": 4206,
      "ÅĵYou": 4207,
      "Ġmagaz": 4208,
      "Ġimagine": 4209,
      "Ġlime": 4210,
      "Ġcable": 4211,
      "Ġimagination": 4212,
      "erop": 4213,
      "Ġshouldn": 4214,
      "eropl": 4215,
      "Ġaeropl": 4216,
      "Ġvet": 4217,
      "Ġmos": 4218,
      "Ġbaking": 4219,
      "ween": 4220,
      "Ġtrail": 4221,
      "Ġwinter": 4222,
      "Ġsunset": 4223,
      "Ġskeleton": 4224,
      "ĠPapa": 4225,
      "Ġwife": 4226,
      "Ġcreated": 4227,
      "Ġbetween": 4228,
      "angu": 4229,
      "Ġbelongs": 4230,
      "Ġgiraffe": 4231,
      "Ġquarrel": 4232,
      "Ġvendor": 4233,
      "Ġlangu": 4234,
      "Ġpirates": 4235,
      "Ġmosquito": 4236,
      "any": 4237,
      "Ġsoil": 4238,
      "Ġplayer": 4239,
      "Ġsir": 4240,
      "Ġchirp": 4241,
      "ected": 4242,
      "Ġgrocer": 4243,
      "stead": 4244,
      "Ġkitty": 4245,
      "Ġaxe": 4246,
      "ĠRos": 4247,
      "Ġrever": 4248,
      "iling": 4249,
      "ctory": 4250,
      "ues": 4251,
      "ories": 4252,
      "aces": 4253,
      "Ġpoints": 4254,
      "urch": 4255,
      "Ġbreeze": 4256,
      "Ġwipe": 4257,
      "Ġmotorcycle": 4258,
      "Ġtemple": 4259,
      "Ġherb": 4260,
      "Ġeagerly": 4261,
      "Ġyogurt": 4262,
      "Ġsneak": 4263,
      "Ġslept": 4264,
      "anic": 4265,
      "ĠMillie": 4266,
      "Ġfactory": 4267,
      "Ġminute": 4268,
      "ippery": 4269,
      "Ġshouting": 4270,
      "nament": 4271,
      "Ġslippery": 4272,
      "Ġattention": 4273,
      "Ġstud": 4274,
      "Ġmeeting": 4275,
      "Ġkayak": 4276,
      "Ġlawyer": 4277,
      "chair": 4278,
      "Ġblowing": 4279,
      "Ġfisherman": 4280,
      "chanic": 4281,
      "Ġperfectly": 4282,
      "Ġmixer": 4283,
      "Ġcane": 4284,
      "Ġnovel": 4285,
      "Ġornament": 4286,
      "Ġseeing": 4287,
      "Ġpoke": 4288,
      "Ġargue": 4289,
      "Ġglowing": 4290,
      "imi": 4291,
      "Ġmechanic": 4292,
      "Ġpit": 4293,
      "Ġfishing": 4294,
      "Ġsprayed": 4295,
      "Ġchickens": 4296,
      "Ġseas": 4297,
      "Ġoffer": 4298,
      "spap": 4299,
      "imney": 4300,
      "Ġvest": 4301,
      "Ġmaze": 4302,
      "Ġheaded": 4303,
      "Ġnewspap": 4304,
      "men": 4305,
      "Ġweather": 4306,
      "Ġtwink": 4307,
      "Ġarmchair": 4308,
      "Ġavocado": 4309,
      "Ġnapkin": 4310,
      "Ch": 4311,
      "Ġskull": 4312,
      "ĠdonÃ¢": 4313,
      "Ġblankets": 4314,
      "Ġcelebrated": 4315,
      "Ġrot": 4316,
      "Ġsung": 4317,
      "ĠMaria": 4318,
      "Ġchimney": 4319,
      "ison": 4320,
      "place": 4321,
      "Ġglove": 4322,
      "Ġhopes": 4323,
      "Ġitch": 4324,
      "Ġzipper": 4325,
      "lass": 4326,
      "Ġgreedy": 4327,
      "iture": 4328,
      "Ġflame": 4329,
      "urniture": 4330,
      "Ġbaseball": 4331,
      "Ġsquirrels": 4332,
      "Your": 4333,
      "inarian": 4334,
      "eterinarian": 4335,
      "Ġfurniture": 4336,
      "ĠWill": 4337,
      "aud": 4338,
      "Ġgolden": 4339,
      "ĠBun": 4340,
      "Ġmystery": 4341,
      "Inside": 4342,
      "Ġvideo": 4343,
      "Ġflea": 4344,
      "Ġtoil": 4345,
      "Ġshower": 4346,
      "Ġmoves": 4347,
      "Ġveterinarian": 4348,
      "Ġknob": 4349,
      "ceros": 4350,
      "Ġwelcomed": 4351,
      "Ġdoors": 4352,
      "Ġoyster": 4353,
      "Eventually": 4354,
      "Ġsniffed": 4355,
      "Ġpetals": 4356,
      "Ġwags": 4357,
      "Ġparent": 4358,
      "Ġkingdom": 4359,
      "Ġfollows": 4360,
      "Ġtoilet": 4361,
      "Ġhar": 4362,
      "erc": 4363,
      "Ġble": 4364,
      "Ġhappens": 4365,
      "Ġcalls": 4366,
      "Ġmemories": 4367,
      "Ġbury": 4368,
      "Ġdiscu": 4369,
      "Ġfreez": 4370,
      "Ġmop": 4371,
      "Ġjunk": 4372,
      "Ġtear": 4373,
      "reek": 4374,
      "Ġhanging": 4375,
      "was": 4376,
      "Ġlawn": 4377,
      "Ġwriting": 4378,
      "Ġrhinoceros": 4379,
      "Ġcreek": 4380,
      "Ġlotion": 4381,
      "Ġapplaud": 4382,
      "mm": 4383,
      "ĠGod": 4384,
      "Ġvroom": 4385,
      "Ġsticky": 4386,
      "unately": 4387,
      "Ġsurround": 4388,
      "washer": 4389,
      "elcome": 4390,
      "Together": 4391,
      "Ġreve": 4392,
      "Ġsque": 4393,
      "Ġfireplace": 4394,
      "Ġquack": 4395,
      "Ġthrowing": 4396,
      "ler": 4397,
      "Ġminer": 4398,
      "Ġdishwasher": 4399,
      "hero": 4400,
      "Ġexerc": 4401,
      "Ġcoal": 4402,
      "Ġtrave": 4403,
      "Ġsuperhero": 4404,
      "Ġaeroplane": 4405,
      "lasses": 4406,
      "Ġweigh": 4407,
      "Ġprun": 4408,
      "Ġpopped": 4409,
      "Ġmedal": 4410,
      "Ġpassport": 4411,
      "Ġpine": 4412,
      "Ġshoulder": 4413,
      "Ġburned": 4414,
      "Ġsunglasses": 4415,
      "tain": 4416,
      "Ġstaff": 4417,
      "Ġchurch": 4418,
      "Ġignored": 4419,
      "Next": 4420,
      "tress": 4421,
      "ĠLilly": 4422,
      "Ġshrugged": 4423,
      "low": 4424,
      "Ġdear": 4425,
      "Ġmattress": 4426,
      "Ġveil": 4427,
      "Ġclassroom": 4428,
      "Ġbother": 4429,
      "aws": 4430,
      "Ġig": 4431,
      "ĠUn": 4432,
      "Ġigloo": 4433,
      "rosc": 4434,
      "Ġgrin": 4435,
      "orses": 4436,
      "Ġregret": 4437,
      "iday": 4438,
      "Ġcob": 4439,
      "Ġflapped": 4440,
      "Ġcollected": 4441,
      "ĠHarry": 4442,
      "Ġagre": 4443,
      "Ġworth": 4444,
      "Ġdancer": 4445,
      "ĠRu": 4446,
      "Emma": 4447,
      "Ġsailing": 4448,
      "Ġcrib": 4449,
      "roscope": 4450,
      "right": 4451,
      "Ġtug": 4452,
      "Ġsince": 4453,
      "Ġhorses": 4454,
      "Ġinvest": 4455,
      "Ġbattery": 4456,
      "ring": 4457,
      "asis": 4458,
      "ĠInstead": 4459,
      "ores": 4460,
      "Ġcrow": 4461,
      "Today": 4462,
      "una": 4463,
      "ssible": 4464,
      "Ġmistakes": 4465,
      "Ġmicroscope": 4466,
      "Because": 4467,
      "Ġswamp": 4468,
      "Ġlanguage": 4469,
      "Ġfought": 4470,
      "Ġbouncing": 4471,
      "Ġpresents": 4472,
      "Ġseparate": 4473,
      "Ġoak": 4474,
      "Ġfloat": 4475,
      "Ġskirt": 4476,
      "Ġagree": 4477,
      "Ġinvestig": 4478,
      "ety": 4479,
      "Ġquietly": 4480,
      "Ġstreng": 4481,
      "Ġpastry": 4482,
      "rod": 4483,
      "web": 4484,
      "inked": 4485,
      "Ġoasis": 4486,
      "ĠIÃ¢": 4487,
      "case": 4488,
      "Ġinf": 4489,
      "ĠCharlie": 4490,
      "Ġdressed": 4491,
      "Ġeaten": 4492,
      "Wait": 4493,
      "Ġcared": 4494,
      "ĠBaby": 4495,
      "Ġintrod": 4496,
      "Ġstable": 4497,
      "Ġmakeup": 4498,
      "Ġbeef": 4499,
      "Ġcandles": 4500,
      "Ġstrength": 4501,
      "vision": 4502,
      "Ġhol": 4503,
      "Ġblackboard": 4504,
      "Ġalarm": 4505,
      "Ġcaring": 4506,
      "Ġprevent": 4507,
      "Ġmagazine": 4508,
      "Ġnewspaper": 4509,
      "Ġholiday": 4510,
      "rs": 4511,
      "Ġapart": 4512,
      "Ġcrawling": 4513,
      "Ġsizes": 4514,
      "ĠNext": 4515,
      "ĠAnnie": 4516,
      "Ġcobweb": 4517,
      "te": 4518,
      "medi": 4519,
      "Thanks": 4520,
      "ĠRosie": 4521,
      "Ġcell": 4522,
      "Ġstraight": 4523,
      "Ġmarried": 4524,
      "mediately": 4525,
      "ĠTed": 4526,
      "ggy": 4527,
      "Ġcomplain": 4528,
      "Ġscolded": 4529,
      "ĠTony": 4530,
      "Sammy": 4531,
      "Ġchoice": 4532,
      "Ġcoats": 4533,
      "Ġrooms": 4534,
      "Ġsnap": 4535,
      "Ġsqueezed": 4536,
      "Ġtrusted": 4537,
      "ĠSee": 4538,
      "Ġinvestigate": 4539,
      "Ġfog": 4540,
      "anges": 4541,
      "Ġpist": 4542,
      "Ġpur": 4543,
      "Ġaccepted": 4544,
      "omes": 4545,
      "Ġgym": 4546,
      "Ġthumb": 4547,
      "Ġtelevision": 4548,
      "ĠHelp": 4549,
      "Ġweep": 4550,
      "Ġberry": 4551,
      "Ġpistol": 4552,
      "Ġpra": 4553,
      "Ġradish": 4554,
      "chie": 4555,
      "Ġkisses": 4556,
      "Ġsteam": 4557,
      "Qu": 4558,
      "ction": 4559,
      "uckily": 4560,
      "Ġsqueeze": 4561,
      "Ġattach": 4562,
      "Ġshrink": 4563,
      "Ġwhisper": 4564,
      "Ann": 4565,
      "ab": 4566,
      "Ġreaches": 4567,
      "Ġnews": 4568,
      "Ġticket": 4569,
      "ĠitÃ¢": 4570,
      "Ġyield": 4571,
      "Ġpuddles": 4572,
      "Ġsplashing": 4573,
      "Ġappro": 4574,
      "Ġperfu": 4575,
      "Ġceiling": 4576,
      "Ġrelaxed": 4577,
      "ĠJess": 4578,
      "Ġmusician": 4579,
      "Ġamazement": 4580,
      "Ġentered": 4581,
      "Did": 4582,
      "Is": 4583,
      "Ġrake": 4584,
      "Ġsigh": 4585,
      "Ġunif": 4586,
      "Ġjewelry": 4587,
      "Ġblood": 4588,
      "Ġblinked": 4589,
      "Ġletting": 4590,
      "Ġlicks": 4591,
      "Ġwandered": 4592,
      "Ġteleph": 4593,
      "Ġbirdc": 4594,
      "Ġcastles": 4595,
      "Ġwigg": 4596,
      "sters": 4597,
      "Ġperfume": 4598,
      "ives": 4599,
      "ĠHenry": 4600,
      "Ġdelay": 4601,
      "ups": 4602,
      "Ġchairs": 4603,
      "Ġharb": 4604,
      "Ġuniform": 4605,
      "Ġbirdcage": 4606,
      "mend": 4607,
      "Ġstro": 4608,
      "Ġeasily": 4609,
      "ÅĵItÃ¢": 4610,
      "ising": 4611,
      "Ġyucky": 4612,
      "Ġopera": 4613,
      "Ġdemand": 4614,
      "Ġhelper": 4615,
      "Ġsuff": 4616,
      "Ġfiref": 4617,
      "Ġtelephone": 4618,
      "Ġyoga": 4619,
      "house": 4620,
      "Ġhurting": 4621,
      "Ġserve": 4622,
      "ĠWho": 4623,
      "omeday": 4624,
      "ommend": 4625,
      "Ġblueberries": 4626,
      "hic": 4627,
      "Ġrise": 4628,
      "Ġraz": 4629,
      "Ġbookcase": 4630,
      "Ġgrowled": 4631,
      "chor": 4632,
      "ĠKate": 4633,
      "Ġrecommend": 4634,
      "Ġpinch": 4635,
      "Ġfreezer": 4636,
      "Ġrequ": 4637,
      "Ġspear": 4638,
      "Ġclaws": 4639,
      "Ġkeeping": 4640,
      "Ġvehic": 4641,
      "sit": 4642,
      "atie": 4643,
      "ĠMiss": 4644,
      "Ġcliff": 4645,
      "Ġsandcastle": 4646,
      "Ġgrill": 4647,
      "Ġchess": 4648,
      "Ġcrash": 4649,
      "Ġbathe": 4650,
      "achel": 4651,
      "Ġwaffle": 4652,
      "Ġsub": 4653,
      "Ġpuzzles": 4654,
      "Ġmatches": 4655,
      "Ġplates": 4656,
      "Ġdisappear": 4657,
      "cakes": 4658,
      "Ġtucked": 4659,
      "Ġcrossed": 4660,
      "Ġmustache": 4661,
      "Ġtong": 4662,
      "Ġfile": 4663,
      "Ġward": 4664,
      "ĠMimi": 4665,
      "Ġsurprises": 4666,
      "Ġrail": 4667,
      "Ġconf": 4668,
      "Ġhearts": 4669,
      "Ġribbon": 4670,
      "Ġharbor": 4671,
      "ival": 4672,
      "Ġimprove": 4673,
      "Ġdried": 4674,
      "Ġtrade": 4675,
      "Ġplanes": 4676,
      "Ġwardrobe": 4677,
      "ĠDanny": 4678,
      "ived": 4679,
      "Ġtut": 4680,
      "Ġmint": 4681,
      "Ġwine": 4682,
      "alley": 4683,
      "Ġbelow": 4684,
      "Ġrequest": 4685,
      "Ġcabinet": 4686,
      "ĠSnowy": 4687,
      "Ġbill": 4688,
      "ionary": 4689,
      "Ġanchor": 4690,
      "Ġvac": 4691,
      "Ġsomeday": 4692,
      "raged": 4693,
      "Ġwarmth": 4694,
      "Ġtoes": 4695,
      "Ġcaptain": 4696,
      "ictionary": 4697,
      "Ġrazor": 4698,
      "Ġrefre": 4699,
      "Ġapron": 4700,
      "Mandy": 4701,
      "Ġpoked": 4702,
      "Ġincre": 4703,
      "Ġbleed": 4704,
      "Ġdictionary": 4705,
      "amber": 4706,
      "Ġvalley": 4707,
      "fortunately": 4708,
      "Ġscattered": 4709,
      "lier": 4710,
      "Ġwaste": 4711,
      "anny": 4712,
      "Ġpear": 4713,
      "Ġfuel": 4714,
      "Jen": 4715,
      "Ġboot": 4716,
      "Ġspade": 4717,
      "Ġkneel": 4718,
      "Ġskills": 4719,
      "ĠSu": 4720,
      "Ġmass": 4721,
      "ucture": 4722,
      "Ġsupply": 4723,
      "ĠTrue": 4724,
      "Ġknown": 4725,
      "Ġstructure": 4726,
      "Ġsafety": 4727,
      "ah": 4728,
      "Ġblouse": 4729,
      "eve": 4730,
      "Ġlaught": 4731,
      "Ġdifferen": 4732,
      "Ġspending": 4733,
      "Ġlemonade": 4734,
      "Ġmuffin": 4735,
      "Ġlumber": 4736,
      "Ġspots": 4737,
      "Ġfollowing": 4738,
      "Ġdresses": 4739,
      "Ġexperience": 4740,
      "Ġsi": 4741,
      "Ġinstr": 4742,
      "Ġcuddled": 4743,
      "Ġisn": 4744,
      "âĤ¬.": 4745,
      "Ġmoments": 4746,
      "Ġbalan": 4747,
      "Will": 4748,
      "Ġaut": 4749,
      "Ġsaving": 4750,
      "Ġlaughter": 4751,
      "lend": 4752,
      "Ġcub": 4753,
      "ĠAb": 4754,
      "Ġfallen": 4755,
      "'.": 4756,
      "Ġsnapped": 4757,
      "Ġideas": 4758,
      "Ġunderstanding": 4759,
      "Yuck": 4760,
      "Ġmyself": 4761,
      "Ġfastest": 4762,
      "Ġprop": 4763,
      "Ġstrawberries": 4764,
      "Ġairpl": 4765,
      "ampoo": 4766,
      "Ġcalend": 4767,
      "oral": 4768,
      "Ġworms": 4769,
      "Ġtornado": 4770,
      "Ġfest": 4771,
      "Ġraise": 4772,
      "Ġrow": 4773,
      "Ġmissile": 4774,
      "Ġjewels": 4775,
      "Ġcalendar": 4776,
      "Ġsneeze": 4777,
      "Ġremove": 4778,
      "Ġflutter": 4779,
      "Ġbeans": 4780,
      "Ġlugg": 4781,
      "icing": 4782,
      "Ġburied": 4783,
      "Ġluggage": 4784,
      "aped": 4785,
      "Ġtaller": 4786,
      "Ġyawned": 4787,
      "Ġweap": 4788,
      "Lisa": 4789,
      "ĠFo": 4790,
      "Ġimmediately": 4791,
      "riger": 4792,
      "Ġbravely": 4793,
      "Ġsparkling": 4794,
      "Ġringing": 4795,
      "Ġenter": 4796,
      "Ġrefriger": 4797,
      "Ġbegged": 4798,
      "Ġreverse": 4799,
      "Ġrefrigerator": 4800,
      "Ġshampoo": 4801,
      "Ġrabbits": 4802,
      "Ġearlier": 4803,
      "Ġbumped": 4804,
      "Ġroot": 4805,
      "ĠRe": 4806,
      "Ġbookshe": 4807,
      "Ġhits": 4808,
      "Ġdestroyed": 4809,
      "Welcome": 4810,
      "Ġlic": 4811,
      "Ġignore": 4812,
      "Ġinfant": 4813,
      "Ġport": 4814,
      "Ġsettled": 4815,
      "ero": 4816,
      "Ġhardly": 4817,
      "Ġdire": 4818,
      "Ġappreciate": 4819,
      "vet": 4820,
      "Ġhomes": 4821,
      "Ġwashing": 4822,
      "Ġgear": 4823,
      "Ġbeamed": 4824,
      "ĠJul": 4825,
      "rm": 4826,
      "Ġpages": 4827,
      "Ġrhy": 4828,
      "Ġsocks": 4829,
      "htray": 4830,
      "Ġashtray": 4831,
      "ĠEach": 4832,
      "Ġdestination": 4833,
      "ĠClara": 4834,
      "ĠHave": 4835,
      "asp": 4836,
      "Ġchores": 4837,
      "Ġchamber": 4838,
      "Ġclimbs": 4839,
      "Ġprepare": 4840,
      "Ġtore": 4841,
      "Ġhanger": 4842,
      "anna": 4843,
      "Ġsigns": 4844,
      "'ve": 4845,
      "Ġcherry": 4846,
      "Ġbreathe": 4847,
      "Ġremain": 4848,
      "Ġtherm": 4849,
      "Ġtutor": 4850,
      "With": 4851,
      "Ġpalm": 4852,
      "ĠIts": 4853,
      "Ġreplace": 4854,
      "Ġsparkle": 4855,
      "ĠBuzz": 4856,
      "ari": 4857,
      "ission": 4858,
      "Ġinvite": 4859,
      "Ġplays": 4860,
      "Ġdecorations": 4861,
      "Ġvanished": 4862,
      "Ġuniverse": 4863,
      "Ġtide": 4864,
      "reat": 4865,
      "Ġsolved": 4866,
      "Ġpermission": 4867,
      "Ġpraised": 4868,
      "Ġpride": 4869,
      "inky": 4870,
      "ĠPeople": 4871,
      "Ġvacation": 4872,
      "Ġtongue": 4873,
      "Ġbookshelf": 4874,
      "Ġpoison": 4875,
      "bbie": 4876,
      "Ġhills": 4877,
      "Ġadmir": 4878,
      "Ġdeeper": 4879,
      "Ġscooped": 4880,
      "Ġsits": 4881,
      "Ġscore": 4882,
      "Ġsparkles": 4883,
      "Ġexamine": 4884,
      "Ġstomach": 4885,
      "Ġthermomet": 4886,
      "nies": 4887,
      "Ġfestival": 4888,
      "Ġteaching": 4889,
      "Ġinsisted": 4890,
      "omob": 4891,
      "Ġfloated": 4892,
      "Ġquiz": 4893,
      "Ġcrunch": 4894,
      "Ġscratch": 4895,
      "Ġalright": 4896,
      "bbles": 4897,
      "Ġautomob": 4898,
      "osed": 4899,
      "Ġsimp": 4900,
      "ĠJames": 4901,
      "sing": 4902,
      "ĠGood": 4903,
      "Ġmailman": 4904,
      "Ġreceived": 4905,
      "Ġdifference": 4906,
      "ops": 4907,
      "Ġbelieved": 4908,
      "Ġchirping": 4909,
      "Ġthermometer": 4910,
      "Ġdaisy": 4911,
      "Ġbang": 4912,
      "Ġdigg": 4913,
      "Ġoranges": 4914,
      "Ġfloating": 4915,
      "Ġpatiently": 4916,
      "Ġpanic": 4917,
      "ents": 4918,
      "Ġstruggling": 4919,
      "Peter": 4920,
      "Ġachie": 4921,
      "Ġpulling": 4922,
      "Ġdigging": 4923,
      "Ġhers": 4924,
      "Ġdrain": 4925,
      "ĠFreddy": 4926,
      "Ġpunish": 4927,
      "Ġlicense": 4928,
      "Ġmodel": 4929,
      "Mark": 4930,
      "Ġranch": 4931,
      "thm": 4932,
      "Ġprovide": 4933,
      "Ġdare": 4934,
      "Ġsty": 4935,
      "Ġupstairs": 4936,
      "Ġrepeat": 4937,
      "Ok": 4938,
      "izard": 4939,
      "Ġgifts": 4940,
      "ĠBefore": 4941,
      "Ġencouraged": 4942,
      "Ġmeasured": 4943,
      "Ġbuzzing": 4944,
      "Ġrestore": 4945,
      "ĠSpike": 4946,
      "igail": 4947,
      "antly": 4948,
      "Ġshooting": 4949,
      "Ġjail": 4950,
      "Ġglo": 4951,
      "Ġcollection": 4952,
      "Ġneighborhood": 4953,
      "Ġinvit": 4954,
      "iers": 4955,
      "Ġbrain": 4956,
      "Ġguy": 4957,
      "Ġbathrobe": 4958,
      "Ġrhythm": 4959,
      "atch": 4960,
      "ĠMay": 4961,
      "Ġbites": 4962,
      "Ġnone": 4963,
      "Ġequ": 4964,
      "Ġrespons": 4965,
      "bey": 4966,
      "osity": 4967,
      "sity": 4968,
      "ĠOllie": 4969,
      "Ġinclud": 4970,
      "Ġsew": 4971,
      "Ġgrape": 4972,
      "Ġcollecting": 4973,
      "Ġlabel": 4974,
      "Ġsausage": 4975,
      "Ġshot": 4976,
      "Ġworse": 4977,
      "Ġpatterns": 4978,
      "Ġapproached": 4979,
      "Ġsubway": 4980,
      "rise": 4981,
      "Ġmention": 4982,
      "ĠMaggie": 4983,
      "Ġdiscuss": 4984,
      "Mmm": 4985,
      "Not": 4986,
      "Ġmall": 4987,
      "allen": 4988,
      "Ġelephants": 4989,
      "Ġweeks": 4990,
      "Ġwhip": 4991,
      "Ġtease": 4992,
      "Ġmassage": 4993,
      "Ġjazz": 4994,
      "Ġspaces": 4995,
      "Ġsprinkles": 4996,
      "ging": 4997,
      "xy": 4998,
      "ĠV": 4999,
      "Ġsore": 5000,
      "Ġmelted": 5001,
      "These": 5002,
      "ĠIs": 5003,
      "Ġchallen": 5004,
      "Ġsetting": 5005,
      "Ġsupposed": 5006,
      "Ġsip": 5007,
      "Ġshed": 5008,
      "act": 5009,
      "Ġbuckle": 5010,
      "All": 5011,
      "Ġsunrise": 5012,
      "Ġunite": 5013,
      "Ġbillboard": 5014,
      "Ġgirls": 5015,
      "Ġtwisted": 5016,
      "Ġbricks": 5017,
      "ium": 5018,
      "Ġspit": 5019,
      "Ġleak": 5020,
      "Ġoper": 5021,
      "Ġexercise": 5022,
      "Ġitem": 5023,
      "Ġmeowed": 5024,
      "Ġflav": 5025,
      "Ġairplane": 5026,
      "ĠRachel": 5027,
      "Ġvehicle": 5028,
      "Ġwizard": 5029,
      "allow": 5030,
      "Ġparts": 5031,
      "Ġwatches": 5032,
      "Ġdiscovery": 5033,
      "Ġjogging": 5034,
      "ĠKing": 5035,
      "Ġsoldiers": 5036,
      "fied": 5037,
      "Ġfut": 5038,
      "Ġhesit": 5039,
      "ĠCo": 5040,
      "Ġbak": 5041,
      "Fl": 5042,
      "Ġpoppy": 5043,
      "Ġfuture": 5044,
      "Ġpillows": 5045,
      "ĠBetsy": 5046,
      "Ġhate": 5047,
      "Ġglowed": 5048,
      "ĠPoppy": 5049,
      "Ġautomobile": 5050,
      "Ġgrey": 5051,
      "ude": 5052,
      "Ġuniversity": 5053,
      "Ġmarbles": 5054,
      "Sh": 5055,
      "Ġgust": 5056,
      "Ġsport": 5057,
      "aspoon": 5058,
      "ĠEveryday": 5059,
      "Ġmister": 5060,
      "Ġteaspoon": 5061,
      "Ġpigs": 5062,
      "Ġwhistled": 5063,
      "Ġgrocery": 5064,
      "Ġrush": 5065,
      "Ġbrings": 5066,
      "ĠNut": 5067,
      "Ġfixing": 5068,
      "Jake": 5069,
      "gy": 5070,
      "Ġgain": 5071,
      "Ġawe": 5072,
      "Ġevent": 5073,
      "ĠLater": 5074,
      "Ġactually": 5075,
      "Ġheat": 5076,
      "Ġmanage": 5077,
      "Ġurge": 5078,
      "Ġlets": 5079,
      "Ġwarning": 5080,
      "Ġscratched": 5081,
      "Ġsuffer": 5082,
      "Ġbeg": 5083,
      "Ġslice": 5084,
      "Ġremained": 5085,
      "Ġthrilled": 5086,
      "Ġburning": 5087,
      "cles": 5088,
      "asc": 5089,
      "ases": 5090,
      "Ġseats": 5091,
      "Ġgrinned": 5092,
      "bers": 5093,
      "ÅĵNo": 5094,
      "Ġgrowl": 5095,
      "Ġpaused": 5096,
      "Ġsurrounded": 5097,
      "Ouch": 5098,
      "umble": 5099,
      "Ġproblems": 5100,
      "Ġsings": 5101,
      "Ġstad": 5102,
      "Ġlick": 5103,
      "Ġstadium": 5104,
      "Would": 5105,
      "Ġchir": 5106,
      "Ġworks": 5107,
      "Ġzipped": 5108,
      "uing": 5109,
      "Ġtoe": 5110,
      "ĠPenny": 5111,
      "Ġchirped": 5112,
      "ishing": 5113,
      "Ġspill": 5114,
      "ĠZoe": 5115,
      "ĠSharing": 5116,
      "Ġnation": 5117,
      "Ġweapon": 5118,
      "Ġdrinking": 5119,
      "Ġdrinks": 5120,
      "ĠChirp": 5121,
      "Ġtwigs": 5122,
      "eed": 5123,
      "Ġcakes": 5124,
      "Ġrust": 5125,
      "emember": 5126,
      "Ġwhistling": 5127,
      "ĠRuby": 5128,
      "Ġscur": 5129,
      "Ġpossible": 5130,
      "Ġracing": 5131,
      "Ġordered": 5132,
      "Ġeff": 5133,
      "ĠSomeone": 5134,
      "Ġbeat": 5135,
      "Ġbrus": 5136,
      "Ġstrang": 5137,
      "Ġtracks": 5138,
      "Before": 5139,
      "Ġhurric": 5140,
      "Ġobserve": 5141,
      "Ġlect": 5142,
      "Ġpaints": 5143,
      "Ġreceive": 5144,
      "Ġtour": 5145,
      "Ġduring": 5146,
      "Ġsneezed": 5147,
      "Ġmarching": 5148,
      "Ġprayed": 5149,
      "do": 5150,
      "Emily": 5151,
      "Ġwaffles": 5152,
      "Ġlaid": 5153,
      "Ġdecision": 5154,
      "Ġwatered": 5155,
      "Ġhated": 5156,
      "ĠTina": 5157,
      "ĠJoy": 5158,
      "cious": 5159,
      "Ġours": 5160,
      "Ġsliding": 5161,
      "Ġmemory": 5162,
      "Ġx": 5163,
      "!\",": 5164,
      "Ġwherever": 5165,
      "Ġpotatoes": 5166,
      "Ġcontain": 5167,
      "Ġscreams": 5168,
      "Ġlecture": 5169,
      "ĠFro": 5170,
      "Ġraised": 5171,
      "Ġwaits": 5172,
      "Ready": 5173,
      "Ġcrunchy": 5174,
      "Ġspaceship": 5175,
      "Ġpetted": 5176,
      "Ġspoons": 5177,
      "Ġcartoons": 5178,
      "Ġinvitation": 5179,
      "Ġhurricane": 5180,
      "!'": 5181,
      "Ġearthqu": 5182,
      "Ġcrashed": 5183,
      "Ġolive": 5184,
      "Ġsatis": 5185,
      "Ġlily": 5186,
      "Ġwarn": 5187,
      "Ex": 5188,
      "ĠLiz": 5189,
      "fy": 5190,
      "walk": 5191,
      "Ġfasc": 5192,
      "ities": 5193,
      "Ġflood": 5194,
      "Ġskipping": 5195,
      "Ġpeanuts": 5196,
      "Ġstrangers": 5197,
      "Ġtomatoes": 5198,
      "Ġfed": 5199,
      "Ġswims": 5200,
      "Ġcurled": 5201,
      "Ġoperation": 5202,
      "oved": 5203,
      "Ġmitten": 5204,
      "Ġfireworks": 5205,
      "Ġsunlight": 5206,
      "Ġpupp": 5207,
      "Ġrecognized": 5208,
      "Ġsix": 5209,
      "ÅĵThatÃ¢": 5210,
      "Ġmineral": 5211,
      "cc": 5212,
      "Ġvel": 5213,
      "Ġremem": 5214,
      "Ġbeds": 5215,
      "Ġstrip": 5216,
      "Ġmeasuring": 5217,
      "hest": 5218,
      "Ġcircus": 5219,
      "Ġchewed": 5220,
      "Le": 5221,
      "unday": 5222,
      "Ġdisagreed": 5223,
      "Ġvelvet": 5224,
      "Ġremembers": 5225,
      "Johnny": 5226,
      "Ġsafari": 5227,
      "Ġplanted": 5228,
      "Yum": 5229,
      "Ġkindly": 5230,
      "ipment": 5231,
      "Ġtalent": 5232,
      "Ġcontinue": 5233,
      "Ġlands": 5234,
      "Ġmouths": 5235,
      "ĠSunday": 5236,
      "Ġbuildings": 5237,
      "Ġsidewalk": 5238,
      "Ġeasier": 5239,
      "Ġprice": 5240,
      "Ġadmiring": 5241,
      "Ġequipment": 5242,
      "mother": 5243,
      "ĠSad": 5244,
      "Ġcomfy": 5245,
      "Ġwond": 5246,
      "Ġmonsters": 5247,
      "Ġbrick": 5248,
      "Ġbes": 5249,
      "Ġsecrets": 5250,
      "ÅĵIÃ¢": 5251,
      "bbled": 5252,
      "Ġattached": 5253,
      "Ġfascin": 5254,
      "Ġmeow": 5255,
      "Ġglitter": 5256,
      "Ġappear": 5257,
      "Ġmountains": 5258,
      "Ġblueberry": 5259,
      "Ġhappiest": 5260,
      "Ġtremb": 5261,
      "Ġflap": 5262,
      "Ġfet": 5263,
      "ĠCat": 5264,
      "Ġescaped": 5265,
      "ddy": 5266,
      "Ġfolded": 5267,
      "Ġrefreshed": 5268,
      "Ġbones": 5269,
      "Really": 5270,
      "Ġclearing": 5271,
      "Ġeffort": 5272,
      "amie": 5273,
      "seek": 5274,
      "ĠMe": 5275,
      "ĠLetÃ¢": 5276,
      "Ġselling": 5277,
      "\",": 5278,
      "Ġwre": 5279,
      "Ġcompany": 5280,
      "Ġbringing": 5281,
      "son": 5282,
      "Ġgaz": 5283,
      "ĠLuna": 5284,
      "Ġapologize": 5285,
      "Ġprepared": 5286,
      "Ġgloves": 5287,
      "Ġrevealed": 5288,
      "ĠNutty": 5289,
      "Ġearthquake": 5290,
      "Ġofficer": 5291,
      "Ġlips": 5292,
      "Ġbeside": 5293,
      "Ġwid": 5294,
      "Ġobey": 5295,
      "Ġnavy": 5296,
      "Ġonwards": 5297,
      "Ġweren": 5298,
      "Ġturning": 5299,
      "Ġtrapped": 5300,
      "ĠSteve": 5301,
      "Ġbleeding": 5302,
      "Ġcopper": 5303,
      "Ġanytime": 5304,
      "Ġsimple": 5305,
      "Ġweight": 5306,
      "Ġdoggy": 5307,
      "Ġmenu": 5308,
      "Ġmuddy": 5309,
      "Ġguessed": 5310,
      "Ġleather": 5311,
      "ĠKatie": 5312,
      "Ġstripes": 5313,
      "enty": 5314,
      "Ġprecious": 5315,
      "Ġreminder": 5316,
      "Moral": 5317,
      "Ġladyb": 5318,
      "Ġpets": 5319,
      "Ro": 5320,
      "Ġwanting": 5321,
      "Ġdinosaurs": 5322,
      "Ġwaist": 5323,
      "ĠNot": 5324,
      "Ġslip": 5325,
      "loe": 5326,
      "zag": 5327,
      "Ġgotten": 5328,
      "Ġsucceeded": 5329,
      "Ġhist": 5330,
      "Ġallow": 5331,
      "Ġbye": 5332,
      "Ġcatching": 5333,
      "Ġsteel": 5334,
      "Ġhistory": 5335,
      "aded": 5336,
      "ĠMat": 5337,
      "Ġkeeper": 5338,
      "Ġsettle": 5339,
      "Somet": 5340,
      "Ġpeered": 5341,
      "Ġfirefight": 5342,
      "Ġbrand": 5343,
      "Ġcuddle": 5344,
      "Ġfash": 5345,
      "Ġoats": 5346,
      "ÅĵWe": 5347,
      "joyed": 5348,
      "Ġserved": 5349,
      "Ġeveryday": 5350,
      "Ġoverjoyed": 5351,
      "Ġvillag": 5352,
      "Ġscoop": 5353,
      "Ġfreeze": 5354,
      "Luckily": 5355,
      "idges": 5356,
      "Ġwisdom": 5357,
      "Ġpies": 5358,
      "avid": 5359,
      "Ġgained": 5360,
      "ÅĵThank": 5361,
      "Ġrested": 5362,
      "Ġpermit": 5363,
      "Ġstyle": 5364,
      "Ġrained": 5365,
      "Ġperched": 5366,
      "ĠAbigail": 5367,
      "Ġsoared": 5368,
      "Ġeats": 5369,
      "Ġpedal": 5370,
      "Ġcutting": 5371,
      "ĠChirpy": 5372,
      "Ġwonders": 5373,
      "Ġimage": 5374,
      "Ġtastes": 5375,
      "Ġshopping": 5376,
      "amb": 5377,
      "Ġprinter": 5378,
      "Ġbowed": 5379,
      "Ġcomforted": 5380,
      "Ġeagle": 5381,
      "igzag": 5382,
      "ĠMilly": 5383,
      "Ġwooden": 5384,
      "Ġshadows": 5385,
      "Ġpupil": 5386,
      "Susie": 5387,
      "Ġbridges": 5388,
      "Ġrang": 5389,
      "Ġwhatever": 5390,
      "Ġvoices": 5391,
      "Ġsnowball": 5392,
      "Ġanswers": 5393,
      "Ġfamil": 5394,
      "Ġacorns": 5395,
      "mble": 5396,
      "Ġstealing": 5397,
      "Ġfashion": 5398,
      "Ġdecides": 5399,
      "Ġvisiting": 5400,
      "First": 5401,
      "anta": 5402,
      "Ġdrag": 5403,
      "Ġhurried": 5404,
      "Ġcostumes": 5405,
      "Ġstitch": 5406,
      "Ġbrushed": 5407,
      "Ġagreement": 5408,
      "oming": 5409,
      "Ġdownstairs": 5410,
      "Ġwrites": 5411,
      "Ġnails": 5412,
      "Ġbreaking": 5413,
      "Ġemerg": 5414,
      "ien": 5415,
      "nie": 5416,
      "Ġcrept": 5417,
      "Ġexact": 5418,
      "Ġstruggled": 5419,
      "Ġcreation": 5420,
      "Ġresponsible": 5421,
      "Ġvillagers": 5422,
      "Ġripped": 5423,
      "ĠChr": 5424,
      "Ġtwirling": 5425,
      "Ġsadness": 5426,
      "Ġcuriosity": 5427,
      "Ġbeneath": 5428,
      "ĠSomething": 5429,
      "Ġdisturbed": 5430,
      "ding": 5431,
      "icorn": 5432,
      "Ġunderground": 5433,
      "Ġunicorn": 5434,
      "Ġemergen": 5435,
      "Ġpitch": 5436,
      "neath": 5437,
      "Ġtip": 5438,
      "Ġbun": 5439,
      "Ġweighed": 5440,
      "Ġtremble": 5441,
      "izing": 5442,
      "Ġaccidents": 5443,
      "Tweet": 5444,
      "Ġmice": 5445,
      "Ġpancakes": 5446,
      "gen": 5447,
      "Ġchef": 5448,
      "ĠRemy": 5449,
      "Ġfiremen": 5450,
      "Ġcomple": 5451,
      "Ġpracticing": 5452,
      "ays": 5453,
      "iggy": 5454,
      "len": 5455,
      "isten": 5456,
      "ĠThese": 5457,
      "Ġneighbors": 5458,
      "terday": 5459,
      "ĠJe": 5460,
      "Ġexamined": 5461,
      "Ġvict": 5462,
      "Ġdoctors": 5463,
      "Ġgrandmother": 5464,
      "annah": 5465,
      "xygen": 5466,
      "Ġbare": 5467,
      "Ġdied": 5468,
      "ĠFloppy": 5469,
      "Ġdecorated": 5470,
      "Ġlemons": 5471,
      "Ġargued": 5472,
      "ĠQu": 5473,
      "ira": 5474,
      "Ġknelt": 5475,
      "Ġspiders": 5476,
      "Ġclaps": 5477,
      "Ġbegin": 5478,
      "Ġowned": 5479,
      "Ġnetwork": 5480,
      "Ġrides": 5481,
      "Ġpadd": 5482,
      "ĠSunny": 5483,
      "Ġsting": 5484,
      "Ġsoak": 5485,
      "Ġrecognize": 5486,
      "Ġladybug": 5487,
      "Ġrealize": 5488,
      "Happy": 5489,
      "rr": 5490,
      "ĠLike": 5491,
      "Ġpeel": 5492,
      "Ġyelling": 5493,
      "Ġbeha": 5494,
      "Ġactiv": 5495,
      "ĠSpark": 5496,
      "Ġbend": 5497,
      "ishes": 5498,
      "Ġarea": 5499,
      "ĠKe": 5500,
      "Goodbye": 5501,
      "Ġinch": 5502,
      "Ġkeeps": 5503,
      "Ġzero": 5504,
      "ales": 5505,
      "Ġrele": 5506,
      "Ġpinched": 5507,
      "Ġsnail": 5508,
      "Ġsitu": 5509,
      "Ġmission": 5510,
      "Ġkeys": 5511,
      "Ġencourage": 5512,
      "Ġprune": 5513,
      "ashed": 5514,
      "Sometimes": 5515,
      "va": 5516,
      "ĠEl": 5517,
      "ffic": 5518,
      "Ġwinning": 5519,
      "ley": 5520,
      "Ġexit": 5521,
      "rol": 5522,
      "Ġwondering": 5523,
      "Ġruin": 5524,
      "Or": 5525,
      "mare": 5526,
      "Ġwagging": 5527,
      "Ġjogged": 5528,
      "Ġtraffic": 5529,
      "Ġaccom": 5530,
      "Fluffy": 5531,
      "Ġexactly": 5532,
      "Ġloose": 5533,
      "Ġzooming": 5534,
      "Ġstirring": 5535,
      "Ġolives": 5536,
      "Ġstudied": 5537,
      "Ġlines": 5538,
      "ĠHoppy": 5539,
      "Ġzigzag": 5540,
      "Ġpastel": 5541,
      "Ġtune": 5542,
      "Rex": 5543,
      "rin": 5544,
      "Ġcape": 5545,
      "riage": 5546,
      "laire": 5547,
      "Ġsneaked": 5548,
      "Ġtugged": 5549,
      "Ġrelease": 5550,
      "Ġtickets": 5551,
      "Ġsatisfied": 5552,
      "Ġwreck": 5553,
      "ib": 5554,
      "Ġoxygen": 5555,
      "Ġeight": 5556,
      "Ġsiren": 5557,
      "Ġbunnies": 5558,
      "looking": 5559,
      "gers": 5560,
      "Ġunderneath": 5561,
      "Ġunlocked": 5562,
      "uke": 5563,
      "Ġago": 5564,
      "ĠRa": 5565,
      "Ġnightmare": 5566,
      "Ġbuckets": 5567,
      "Ġchallenge": 5568,
      "Ye": 5569,
      "Ġoutdo": 5570,
      "ĠFirst": 5571,
      "Ġslapped": 5572,
      "Ġlandsc": 5573,
      "Ġhonk": 5574,
      "Ġinstruct": 5575,
      "Ġfascinated": 5576,
      "Ġcaut": 5577,
      "Ġnicer": 5578,
      "ulu": 5579,
      "Ġaccompl": 5580,
      "Un": 5581,
      "Ġweb": 5582,
      "ĠStop": 5583,
      "Ġshivering": 5584,
      "ĠBir": 5585,
      "Ġloving": 5586,
      "Ġpockets": 5587,
      "Ġstretching": 5588,
      "ĠTiny": 5589,
      "ĠHowever": 5590,
      "Ġpiles": 5591,
      "Ġpunished": 5592,
      "zen": 5593,
      "Ġdent": 5594,
      "Ġmittens": 5595,
      "ĠLucky": 5596,
      "Ġplanned": 5597,
      "Ġprotected": 5598,
      "Ġsolut": 5599,
      "Ġneighbourhood": 5600,
      "Ġcompetition": 5601,
      "Ġdraws": 5602,
      "ĠOl": 5603,
      "Ġgathering": 5604,
      "Ġproperly": 5605,
      "ĠBubbles": 5606,
      "ĠUncle": 5607,
      "Ġitems": 5608,
      "ĠTw": 5609,
      "usan": 5610,
      "Ġcontrol": 5611,
      "Ġsupplies": 5612,
      "Ġemergency": 5613,
      "Ġlied": 5614,
      "Ġshoulders": 5615,
      "indy": 5616,
      "Ġparked": 5617,
      "Ġtravell": 5618,
      "Ġsights": 5619,
      "Ġsoaring": 5620,
      "Ġmarkers": 5621,
      "Ġlandscape": 5622,
      "Dave": 5623,
      "ik": 5624,
      "kins": 5625,
      "ÅĵCan": 5626,
      "Ġperfor": 5627,
      "ĠJan": 5628,
      "Ġpearl": 5629,
      "ÅĵDon": 5630,
      "Ġruler": 5631,
      "Ġdeser": 5632,
      "Ġfetch": 5633,
      "ĠItÃ¢": 5634,
      "Ġfrosting": 5635,
      "Ġbouncy": 5636,
      "ĠSanta": 5637,
      "Ġann": 5638,
      "Ġstruck": 5639,
      "Ġtouching": 5640,
      "Ġinstructions": 5641,
      "ayla": 5642,
      "ica": 5643,
      "Andy": 5644,
      "Ġburrow": 5645,
      ".'": 5646,
      "Ġpeaches": 5647,
      "Ġprinted": 5648,
      "Ġloaded": 5649,
      "inda": 5650,
      "Ġsisters": 5651,
      "ĠAnne": 5652,
      "omas": 5653,
      "thank": 5654,
      "Ġfoods": 5655,
      "Ġmuscles": 5656,
      "Ġintroduc": 5657,
      "Ġbarely": 5658,
      "ÅĵLook": 5659,
      "Ġmarks": 5660,
      "bbing": 5661,
      "Ġopin": 5662,
      "Ġstole": 5663,
      "Ġcrumb": 5664,
      "Ġdrift": 5665,
      "Ġmixing": 5666,
      "Ġincrease": 5667,
      "Ġvictory": 5668,
      "Ġtonight": 5669,
      "Ġdam": 5670,
      "ĠBig": 5671,
      "agull": 5672,
      "Joey": 5673,
      "Ġfrozen": 5674,
      "Ġrainbows": 5675,
      "Ġapplauded": 5676,
      "Ġmast": 5677,
      "Ġbudge": 5678,
      "Ġsilence": 5679,
      "Mar": 5680,
      "bric": 5681,
      "ury": 5682,
      "Ġsides": 5683,
      "Ġeast": 5684,
      "Ġfabric": 5685,
      "Ġstrings": 5686,
      "Ġrocked": 5687,
      "shing": 5688,
      "ux": 5689,
      "Ġourselves": 5690,
      "Teddy": 5691,
      "ĠDid": 5692,
      "Ġteasing": 5693,
      "Ġrubbing": 5694,
      "Ġvent": 5695,
      "Ġgiggling": 5696,
      "âĤ¬âĢĿ": 5697,
      "Bella": 5698,
      "Ġsoaked": 5699,
      "Ġguns": 5700,
      "Ġbank": 5701,
      "Ġseagull": 5702,
      "Ġoutdoors": 5703,
      "ĠAn": 5704,
      "Ġpretti": 5705,
      "aky": 5706,
      "Ġplanets": 5707,
      "Ġprettiest": 5708,
      "Ġbottles": 5709,
      "Ġbrushes": 5710,
      "Ġcompleted": 5711,
      "Ġreleased": 5712,
      "edding": 5713,
      "Ġchases": 5714,
      "Ġsweeties": 5715,
      "Ġpouring": 5716,
      "uesday": 5717,
      "Ġscurried": 5718,
      "Ġdragons": 5719,
      "Ġbunch": 5720,
      "Ġvowed": 5721,
      "Ġpears": 5722,
      "Ġprints": 5723,
      "Ġseason": 5724,
      "oed": 5725,
      "Ġwest": 5726,
      "Ġstair": 5727,
      "Ġmovies": 5728,
      "Ġsurface": 5729,
      "ĠFrank": 5730,
      "Ġpurred": 5731,
      "Ġtim": 5732,
      "Ġpoking": 5733,
      "Ġbloomed": 5734,
      "Ġdemanded": 5735,
      "nes": 5736,
      "oh": 5737,
      "ĠBeth": 5738,
      "ĠletÃ¢": 5739,
      "Ġbaked": 5740,
      "bies": 5741,
      "Ġtickle": 5742,
      "Ġintroduce": 5743,
      "Mr": 5744,
      "Ġ1": 5745,
      "Ġmater": 5746,
      "Ġsteep": 5747,
      "Ġdiscovering": 5748,
      "Ġcamping": 5749,
      "ĠSuzy": 5750,
      "Ġmateri": 5751,
      "Ġbroom": 5752,
      "Ġdragged": 5753,
      "Ġwinner": 5754,
      "Ġmuffins": 5755,
      "uctantly": 5756,
      "Ġsighs": 5757,
      "ednes": 5758,
      "imy": 5759,
      "Ġcatches": 5760,
      "ĠJosh": 5761,
      "Ġbabies": 5762,
      "ednesday": 5763,
      "George": 5764,
      "Ġmachines": 5765,
      "Ġurged": 5766,
      "ĠOnce": 5767,
      "ĠTuesday": 5768,
      "Ġmentioned": 5769,
      "zie": 5770,
      "Ġlux": 5771,
      "Ġherbs": 5772,
      "Ġda": 5773,
      "icked": 5774,
      "ÅĵHello": 5775,
      "ÅĵThis": 5776,
      "Ġbeard": 5777,
      "Ġroaring": 5778,
      "Cl": 5779,
      "ĠCarl": 5780,
      "Ġsinger": 5781,
      "Ġscreaming": 5782,
      "Ġstamps": 5783,
      "Ġconfident": 5784,
      "ora": 5785,
      "ĠWednesday": 5786,
      "Ġcones": 5787,
      "Ġproject": 5788,
      "Ġinterest": 5789,
      "Ġguys": 5790,
      "Ġtext": 5791,
      "ena": 5792,
      "Ġdrives": 5793,
      "Ġhorns": 5794,
      "dam": 5795,
      "jam": 5796,
      "Ġpretends": 5797,
      "avi": 5798,
      "Ġpowers": 5799,
      "ĠBetty": 5800,
      "Ġtexture": 5801,
      "though": 5802,
      "Ġpassing": 5803,
      "ĠChloe": 5804,
      "Ah": 5805,
      "ern": 5806,
      "ĠAm": 5807,
      "ĠJones": 5808,
      "Mike": 5809,
      "ĠPip": 5810,
      "Ġcontest": 5811,
      "Ġribbons": 5812,
      "Ġcrowd": 5813,
      "Ġwound": 5814,
      "Ġgoals": 5815,
      "ason": 5816,
      "Ġranger": 5817,
      "Ġchips": 5818,
      "Ġstudying": 5819,
      "Ġbalancing": 5820,
      "Lola": 5821,
      "Ġmatched": 5822,
      "Ġexpect": 5823,
      "Ġresult": 5824,
      "Ġsausages": 5825,
      "Ġdisagree": 5826,
      "Ġcal": 5827,
      "Ġpout": 5828,
      "ilo": 5829,
      "ĠHa": 5830,
      "Ġsorted": 5831,
      "Ġmarriage": 5832,
      "Bobby": 5833,
      "Ġhighest": 5834,
      "Ġpebbles": 5835,
      "Ġcurly": 5836,
      "Ġkicking": 5837,
      "Ġsuitc": 5838,
      "Ġgazed": 5839,
      "Ġshock": 5840,
      "ĠDavid": 5841,
      "Ġforgi": 5842,
      "Ġcuts": 5843,
      "Ġreluctantly": 5844,
      "Ġpatience": 5845,
      "ĠCoco": 5846,
      "Ġshelves": 5847,
      "Ġshivered": 5848,
      "ĠRabbit": 5849,
      "Henry": 5850,
      "Ġge": 5851,
      "Ġhugging": 5852,
      "Ġchat": 5853,
      "Ġstrike": 5854,
      "Ġrepeated": 5855,
      "uzz": 5856,
      "Maggie": 5857,
      "fit": 5858,
      "uly": 5859,
      "Ġyouth": 5860,
      "Ġwaiter": 5861,
      "Ġcurtains": 5862,
      "ĠJulie": 5863,
      "Ġfault": 5864,
      "Ġacted": 5865,
      "Ella": 5866,
      "Ġsway": 5867,
      "Ġwedding": 5868,
      "Ġgrant": 5869,
      "Ġflags": 5870,
      "Paul": 5871,
      "Ġplenty": 5872,
      "die": 5873,
      "Ġti": 5874,
      "exp": 5875,
      "ĠJamie": 5876,
      "Ġfigured": 5877,
      "ĠHop": 5878,
      "Ġgoodnight": 5879,
      "Ġmatching": 5880,
      "Ġthreat": 5881,
      "Ġpaintings": 5882,
      "Ġtwinkling": 5883,
      "Ġfart": 5884,
      "ĠBye": 5885,
      "Ġoutfit": 5886,
      "Ġincluded": 5887,
      "Ġcautious": 5888,
      "Pete": 5889,
      "Remember": 5890,
      "Ġslimy": 5891,
      "Ġpoliceman": 5892,
      "Ġchewing": 5893,
      "eezing": 5894,
      "Ġdusty": 5895,
      "Ġregretted": 5896,
      "Kitty": 5897,
      "esome": 5898,
      "Ġtheirs": 5899,
      "Ġsweets": 5900,
      "Ġentire": 5901,
      "Ġsolution": 5902,
      "Ġintroduced": 5903,
      "Ġtowels": 5904,
      "irts": 5905,
      "Ġsorting": 5906,
      "ĠAlways": 5907,
      "Ġblooming": 5908,
      "Ġpenguins": 5909,
      "Ġsituation": 5910,
      "ĠTilly": 5911,
      "Ġthro": 5912,
      "usted": 5913,
      "ledge": 5914,
      "Grandpa": 5915,
      "Ġrecorded": 5916,
      "lowly": 5917,
      "expected": 5918,
      "Ġstare": 5919,
      "Ġguest": 5920,
      "Grace": 5921,
      "Ġinclude": 5922,
      "Ġthroat": 5923,
      "ivery": 5924,
      "you": 5925,
      "Ġflat": 5926,
      "ĠCar": 5927,
      "Ġrocking": 5928,
      "ults": 5929,
      "Ġachieve": 5930,
      "hins": 5931,
      "Ġunexpected": 5932,
      "Uh": 5933,
      "bl": 5934,
      "mas": 5935,
      "Ġheel": 5936,
      "Ġknowledge": 5937,
      "bert": 5938,
      "Afterwards": 5939,
      "ĠcanÃ¢": 5940,
      "ĠRob": 5941,
      "Ġprunes": 5942,
      "Ġdentist": 5943,
      "ĠSure": 5944,
      "igi": 5945,
      "Ġblink": 5946,
      "Ġsticking": 5947,
      "Ġcheering": 5948,
      "izzie": 5949,
      "Ġlibrarian": 5950,
      "Ġrescued": 5951,
      "Ġagrees": 5952,
      "ĠSusan": 5953,
      "Ġstaring": 5954,
      "Ġtruly": 5955,
      "Ġsnugg": 5956,
      "Ġspraying": 5957,
      "cuse": 5958,
      "Ġroots": 5959,
      "ĠLulu": 5960,
      "Ġawesome": 5961,
      "Leo": 5962,
      "Ġluxury": 5963,
      "jamas": 5964,
      "vin": 5965,
      "Ġcompletely": 5966,
      "ĠChrist": 5967,
      "Yeah": 5968,
      "ÅĵDonÃ¢": 5969,
      "iar": 5970,
      "hell": 5971,
      "Ġast": 5972,
      "itely": 5973,
      "Ġhomework": 5974,
      "Ġwritten": 5975,
      "Ġcaused": 5976,
      "Ġfoc": 5977,
      "Ġmotion": 5978,
      "...": 5979,
      "Sophie": 5980,
      "Ġlap": 5981,
      "Ġlearns": 5982,
      "Ġuses": 5983,
      "Ġgrowling": 5984,
      "Ġarguing": 5985,
      "Ġboom": 5986,
      "Ġimportance": 5987,
      "Ġcreating": 5988,
      "Ġzookeeper": 5989,
      "essie": 5990,
      "Ġbravery": 5991,
      "Ġwandering": 5992,
      "Excuse": 5993,
      "Ġtrembling": 5994,
      "hello": 5995,
      "Ġdared": 5996,
      "Ġshined": 5997,
      "Ġexha": 5998,
      "Ġscales": 5999,
      "Ġrolls": 6000,
      "Ġroads": 6001,
      "ĠZoom": 6002,
      "ĠChristmas": 6003,
      "go": 6004,
      "Ġslap": 6005,
      "Ġdelivery": 6006,
      "Ġworkers": 6007,
      "Ġcrackers": 6008,
      "njoy": 6009,
      "vers": 6010,
      "oys": 6011,
      "ĠGr": 6012,
      "Ġarrive": 6013,
      "Ġdirection": 6014,
      "immer": 6015,
      "ÅĵOh": 6016,
      "Ġreaching": 6017,
      "Ġsafer": 6018,
      "Ġreplac": 6019,
      "Mittens": 6020,
      "Ġbead": 6021,
      "Ġkneeled": 6022,
      "Ġbelly": 6023,
      "asm": 6024,
      "Ġsnakes": 6025,
      "Ġwires": 6026,
      "Mrs": 6027,
      "Ġscra": 6028,
      "Ġcomm": 6029,
      "Ġstruggle": 6030,
      "opes": 6031,
      "boat": 6032,
      "Ġexpected": 6033,
      "ĠSadly": 6034,
      "Ġexhausted": 6035,
      "une": 6036,
      "icky": 6037,
      "Ġhealed": 6038,
      "Ġorganizing": 6039,
      "Ġventured": 6040,
      "aa": 6041,
      "Ġwink": 6042,
      "ĠJu": 6043,
      "Ġmane": 6044,
      "lowers": 6045,
      "ĠMatt": 6046,
      "ĠYes": 6047,
      "Ġlamb": 6048,
      "Ġbecoming": 6049,
      "Ġgreet": 6050,
      "Ġcrumbs": 6051,
      "ences": 6052,
      "lee": 6053,
      "Ġflames": 6054,
      "Ġusual": 6055,
      "ĠLeave": 6056,
      "Ġcrabs": 6057,
      "Ġdolphins": 6058,
      "ĠJohnson": 6059,
      "Ġpajamas": 6060,
      "oline": 6061,
      "Ġinviting": 6062,
      "Ġworries": 6063,
      "angled": 6064,
      "Ġleader": 6065,
      "Ġpencils": 6066,
      "irm": 6067,
      "Ġunited": 6068,
      "Ġowners": 6069,
      "Ġstorekeeper": 6070,
      "iles": 6071,
      "ÅĵWhy": 6072,
      "Ġpacking": 6073,
      "Ġrelief": 6074,
      "Ġbaker": 6075,
      "Ġheav": 6076,
      "ĠMart": 6077,
      "Ġfirm": 6078,
      "ĠLou": 6079,
      "Ġpolishing": 6080,
      "Ġpots": 6081,
      "Ġtraveled": 6082,
      "Ġtimer": 6083,
      "Ġboo": 6084,
      "Ġcash": 6085,
      "Ġfairies": 6086,
      "ĠJessie": 6087,
      "Ġsuitcase": 6088,
      "ĠyouÃ¢": 6089,
      "Ġcloses": 6090,
      "Ġcough": 6091,
      "ĠPipp": 6092,
      "Ġworker": 6093,
      "Ġpartic": 6094,
      "Ġrockets": 6095,
      "ĠAbby": 6096,
      "Ġpatted": 6097,
      "Ġtrips": 6098,
      "Ġvanish": 6099,
      "Ġradishes": 6100,
      "However": 6101,
      "Ġpeeking": 6102,
      "Ġdirect": 6103,
      "ĠwasnÃ¢": 6104,
      "Ġvalued": 6105,
      "Ġprayer": 6106,
      "Ġseems": 6107,
      "Ġquacked": 6108,
      "int": 6109,
      "Ġfara": 6110,
      "Ġstartled": 6111,
      "Ġmisses": 6112,
      "Ġdesp": 6113,
      "Ġfaraway": 6114,
      "Ġcent": 6115,
      "iding": 6116,
      "Ġcountryside": 6117,
      "Ġmelting": 6118,
      "Ġphotos": 6119,
      "Ġitchy": 6120,
      "Ġusually": 6121,
      "Ġgroceries": 6122,
      "ĠUnfortunately": 6123,
      "Ġflavor": 6124,
      "James": 6125,
      "Ġcans": 6126,
      "Ġrestored": 6127,
      "Ġreveal": 6128,
      "Ġwiggled": 6129,
      "Ġinterested": 6130,
      "ords": 6131,
      "Ġstern": 6132,
      "Ġremoved": 6133,
      "Ġfuzzy": 6134,
      "Ġbalanced": 6135,
      "Ġseesaw": 6136,
      "Ġresting": 6137,
      "ĠOut": 6138,
      "Ġscru": 6139,
      "Ġknights": 6140,
      "Bad": 6141,
      "Ġstem": 6142,
      "Ġchuck": 6143,
      "ĠClaire": 6144,
      "Ġopening": 6145,
      "ĠJenna": 6146,
      "Ġteaches": 6147,
      "Fine": 6148,
      "Ġrisk": 6149,
      "Ġwrist": 6150,
      "ĠThomas": 6151,
      "Ġcracked": 6152,
      "Ġwinked": 6153,
      "ĠBeing": 6154,
      "ĠJeff": 6155,
      "Ġopinion": 6156,
      "Ġcous": 6157,
      "ids": 6158,
      "Ġleap": 6159,
      "Ġeverybody": 6160,
      "Ġdesert": 6161,
      "Ġsneaky": 6162,
      "Ġhissed": 6163,
      "ĠFor": 6164,
      "Ġrubs": 6165,
      "Ġobserved": 6166,
      "Ġtwinkle": 6167,
      "Annie": 6168,
      "Ġcause": 6169,
      "Ġcott": 6170,
      "Ġsled": 6171,
      "Ġunf": 6172,
      "Ġparticular": 6173,
      "Ġlined": 6174,
      "Ġden": 6175,
      "Ġseven": 6176,
      "Ġroses": 6177,
      "Ġprincesses": 6178,
      "Ġpastels": 6179,
      "Ġpoems": 6180,
      "Ġsigned": 6181,
      "Ġtickled": 6182,
      "Ġfaced": 6183,
      "ĠLinda": 6184,
      "Ġtractor": 6185,
      "Ġmagnets": 6186,
      "Ġactivities": 6187,
      "Run": 6188,
      "ĠBoth": 6189,
      "Ġwasted": 6190,
      "Ġswooped": 6191,
      "brush": 6192,
      "Ġseashell": 6193,
      "ĠFollow": 6194,
      "Ġsnowballs": 6195,
      "Fred": 6196,
      "Sp": 6197,
      "dies": 6198,
      "rance": 6199,
      "Ġrings": 6200,
      "ĠBy": 6201,
      "Ġreply": 6202,
      "ophia": 6203,
      "Ġsilent": 6204,
      "Alex": 6205,
      "Millie": 6206,
      "Ġstaying": 6207,
      "ĠPandy": 6208,
      "Ġsingle": 6209,
      "Ġadding": 6210,
      "Ġcubes": 6211,
      "Ġbeads": 6212,
      "aze": 6213,
      "umm": 6214,
      "ĠLuke": 6215,
      "Ġcoloured": 6216,
      "Ġsandcastles": 6217,
      "Ġreplaced": 6218,
      "Rose": 6219,
      "Ġhi": 6220,
      "Ġkites": 6221,
      "Ġswirl": 6222,
      "Ġstolen": 6223,
      "acob": 6224,
      "Ġtricked": 6225,
      "Ġmarker": 6226,
      "Ġprovided": 6227,
      "Ġfirefighters": 6228,
      "Fr": 6229,
      "ĠSorry": 6230,
      "Ġhowever": 6231,
      "Ġremote": 6232,
      "Charlie": 6233,
      "ĠFox": 6234,
      "Ġfarther": 6235,
      "Ġfreed": 6236,
      "isies": 6237,
      "ĠJon": 6238,
      "Ġnaps": 6239,
      "Ġlollipops": 6240,
      "Ġdaisies": 6241,
      "Ġlung": 6242,
      "Ġdipped": 6243,
      "Ġwears": 6244,
      "ĠPut": 6245,
      "Ġbowls": 6246,
      "ÅĵWhatÃ¢": 6247,
      "Ġpaddled": 6248,
      "Ġspike": 6249,
      "Ġcashier": 6250,
      "Ġcolored": 6251,
      "Ġpastries": 6252,
      "ĠQuack": 6253,
      "hee": 6254,
      "Ġnect": 6255,
      "ĠLizzy": 6256,
      "ĠEarth": 6257,
      "ĠEnjoy": 6258,
      "Ġbadge": 6259,
      "ĠDoggy": 6260,
      "Ġnectar": 6261,
      "Ġsobbed": 6262,
      "Ġcelebration": 6263,
      "ĠKeep": 6264,
      "Bl": 6265,
      "Ġlogs": 6266,
      "ĠJazz": 6267,
      "coat": 6268,
      "ĠY": 6269,
      "Ġslam": 6270,
      "ÅĵMommy": 6271,
      "Ġdarkness": 6272,
      "Ġprotecting": 6273,
      "Ġminerals": 6274,
      "Ġaff": 6275,
      "ana": 6276,
      "Ġliqu": 6277,
      "Ġtallest": 6278,
      "Ġmarked": 6279,
      "Ġawake": 6280,
      "ĠBuzzy": 6281,
      "Ġcopy": 6282,
      "Ġsquealed": 6283,
      "Ġstroll": 6284,
      "Ġty": 6285,
      "Ġbumpy": 6286,
      "Ġsnat": 6287,
      "Ġforehead": 6288,
      "Ġsmiley": 6289,
      "Ġfilling": 6290,
      "Ġsplashes": 6291,
      "Ġrobb": 6292,
      "ĠGigi": 6293,
      "ĠOw": 6294,
      "Ġwipes": 6295,
      "Ġhelmets": 6296,
      "Ġmasks": 6297,
      "abel": 6298,
      "Ġtalented": 6299,
      "ĠHappy": 6300,
      "Danny": 6301,
      "Ġyounger": 6302,
      "bbly": 6303,
      "Ġtwin": 6304,
      "Ġgems": 6305,
      "Ġcautiously": 6306,
      "tle": 6307,
      "Ġgaze": 6308,
      "aty": 6309,
      "Ġyourselves": 6310,
      "Ġstays": 6311,
      "Ġglasses": 6312,
      "yond": 6313,
      "Ġwow": 6314,
      "ĠSlowly": 6315,
      "Ġbeyond": 6316,
      "Ġexplorers": 6317,
      "Ġraincoat": 6318,
      "Ġreads": 6319,
      "Ġpolished": 6320,
      "Ġblows": 6321,
      "Ġcovers": 6322,
      "Ġdirections": 6323,
      "Some": 6324,
      "ĠĠĊ": 6325,
      "Ġcust": 6326,
      "ĠHannah": 6327,
      "sty": 6328,
      "ĠLuckily": 6329,
      "ĠFriend": 6330,
      "Ġhealth": 6331,
      "Ġtipt": 6332,
      "boo": 6333,
      "ĠWatch": 6334,
      "Ġlistens": 6335,
      "Ġattack": 6336,
      "Ġactions": 6337,
      "ĠMel": 6338,
      "ĠWater": 6339,
      "Ġsailboat": 6340,
      "Ġmiles": 6341,
      "Ġentrance": 6342,
      "Ġfluttered": 6343,
      "Ġaccomplish": 6344,
      "Ġbehavi": 6345,
      "Ġmushrooms": 6346,
      "Ġpedals": 6347,
      "Ġfamilies": 6348,
      "Ġchuckled": 6349,
      "Harry": 6350,
      "Ġdots": 6351,
      "Ġyesterday": 6352,
      "Ġsecure": 6353,
      "Ġclowns": 6354,
      "Ġrefle": 6355,
      "fl": 6356,
      "Ġsomebody": 6357,
      "Ġknees": 6358,
      "Ġspeaking": 6359,
      "Ġtricky": 6360,
      "cited": 6361,
      "cers": 6362,
      "Ġbars": 6363,
      "Ġjoking": 6364,
      "Ġbuying": 6365,
      "Ġseeker": 6366,
      "affes": 6367,
      "Ġinsects": 6368,
      "Ġcustom": 6369,
      "Sandy": 6370,
      "Ġopp": 6371,
      "Ġripe": 6372,
      "ppers": 6373,
      "ĠMad": 6374,
      "ĠAunt": 6375,
      "Ġconn": 6376,
      "Ġhider": 6377,
      "iki": 6378,
      "Sad": 6379,
      "ĠGet": 6380,
      "Ġfroze": 6381,
      "Ġbumps": 6382,
      "Ġknocks": 6383,
      "Ġcheeks": 6384,
      "ners": 6385,
      "Ġparties": 6386,
      "Ġgiraffes": 6387,
      "Ġbeginning": 6388,
      "Ëľ": 6389,
      "Ġmes": 6390,
      "ĠTess": 6391,
      "ĠMon": 6392,
      "âĤ¬Ëľ": 6393,
      "itches": 6394,
      "ĠSuzie": 6395,
      "Ġliquid": 6396,
      "Ġmesmer": 6397,
      "Ġthorn": 6398,
      "Ġscaring": 6399,
      "ĠMomo": 6400,
      "Ġscarves": 6401,
      "Ġpleasure": 6402,
      "Ġdetermination": 6403,
      "Ġcandies": 6404,
      "Unfortunately": 6405,
      "Ġbacked": 6406,
      "Ġhandful": 6407,
      "Ġfolding": 6408,
      "Ġdrums": 6409,
      "Ġvideos": 6410,
      "Ġleading": 6411,
      "Ġrecording": 6412,
      "Ġpaddle": 6413,
      "Days": 6414,
      "ouch": 6415,
      "ĠMany": 6416,
      "Ġdeal": 6417,
      "ĠDolly": 6418,
      "Ġmixture": 6419,
      "Ġpause": 6420,
      "aura": 6421,
      "ĠChe": 6422,
      "ĠKayla": 6423,
      "Ġarrows": 6424,
      "ĠNothing": 6425,
      "Ellie": 6426,
      "May": 6427,
      "Ġtangled": 6428,
      "Ġglee": 6429,
      "ĠBo": 6430,
      "ĠMilo": 6431,
      "ĠAdam": 6432,
      "Those": 6433,
      "Ġchoices": 6434,
      "Ġinstrum": 6435,
      "band": 6436,
      "Ġpiggy": 6437,
      "alph": 6438,
      "Ġlighter": 6439,
      "Ġtasks": 6440,
      "Ġweeping": 6441,
      "Ġsense": 6442,
      "Ġlower": 6443,
      "ĠSqu": 6444,
      "Ġyells": 6445,
      "Ġimproved": 6446,
      "Ġrecommended": 6447,
      "Ġcalmed": 6448,
      "Ġpouted": 6449,
      "igers": 6450,
      "urry": 6451,
      "Ġclick": 6452,
      "ĠFinn": 6453,
      "ths": 6454,
      "Ġcupcakes": 6455,
      "Ġsalty": 6456,
      "Ġrusty": 6457,
      "Ġinsp": 6458,
      "Ġfever": 6459,
      "Ġpaying": 6460,
      "Ġsnatched": 6461,
      "arling": 6462,
      "Ġdef": 6463,
      "Ġsteer": 6464,
      "Ġbakery": 6465,
      "vest": 6466,
      "Ġrumble": 6467,
      "Ġbedtime": 6468,
      "Ġruining": 6469,
      "ĠCindy": 6470,
      "Ġdiving": 6471,
      "Ġcelebrating": 6472,
      "Ġhesitated": 6473,
      "Ġwidened": 6474,
      "lay": 6475,
      "rig": 6476,
      "ĠMo": 6477,
      "indr": 6478,
      "Ġraindr": 6479,
      "Ġafterwards": 6480,
      "Ġsnowmen": 6481,
      "Ġkicks": 6482,
      "Ab": 6483,
      "rious": 6484,
      "?\",": 6485,
      "Ġsmarter": 6486,
      "Ġjackets": 6487,
      "Ġbehaved": 6488,
      "Ġwins": 6489,
      "Ġflapping": 6490,
      "aker": 6491,
      "Ġsnuck": 6492,
      "Ġstroked": 6493,
      "Ġlun": 6494,
      "iled": 6495,
      "ĠMira": 6496,
      "ĠLizzie": 6497,
      "Ġsquares": 6498,
      "Ru": 6499,
      "Ġdances": 6500,
      "Toby": 6501,
      "Ġobjects": 6502,
      "ĠJessica": 6503,
      "Kate": 6504,
      "no": 6505,
      "Ġshirts": 6506,
      "sequ": 6507,
      "Ġcowb": 6508,
      "ossible": 6509,
      "Ġimpossible": 6510,
      "Ġunpacked": 6511,
      "ĠRover": 6512,
      "ĠJulia": 6513,
      "ĠSparky": 6514,
      "Ġperforman": 6515,
      "Ġannoy": 6516,
      "Ġtigers": 6517,
      "ans": 6518,
      "ĠBird": 6519,
      "ishy": 6520,
      "Ġconsequ": 6521,
      "Ġstomped": 6522,
      "Polly": 6523,
      "bell": 6524,
      "cope": 6525,
      "Ġcreamy": 6526,
      "Ġacting": 6527,
      "Ġdelivered": 6528,
      "Ġhallway": 6529,
      "Ġachieved": 6530,
      "Ġaren": 6531,
      "Ġchoo": 6532,
      "Ġtramp": 6533,
      "Ġrule": 6534,
      "ronaut": 6535,
      "Ġartist": 6536,
      "rincess": 6537,
      "Ġdeserve": 6538,
      "Ġmaterials": 6539,
      "Ġastronaut": 6540,
      "atur": 6541,
      "igning": 6542,
      "Ġnoon": 6543,
      "Ġnoses": 6544,
      "Ġindeed": 6545,
      "Ġchefs": 6546,
      "itched": 6547,
      "Ġrip": 6548,
      "ĠwouldnÃ¢": 6549,
      "Ġpans": 6550,
      "Ġtemper": 6551,
      "Ġornaments": 6552,
      "ccoon": 6553,
      "Ġraindrops": 6554,
      "Bun": 6555,
      "tuce": 6556,
      "ĠMa": 6557,
      "aren": 6558,
      "Ġraccoon": 6559,
      "Ġlettuce": 6560,
      "Ġtodd": 6561,
      "ĠLarry": 6562,
      "Ġneedles": 6563,
      "ĠPinky": 6564,
      "Ġpointy": 6565,
      "ĠEmmy": 6566,
      "Ġwraps": 6567,
      "Ġscratches": 6568,
      "Ġbasement": 6569,
      "Ġcomplained": 6570,
      "Ġcomplaining": 6571,
      "Ġsibl": 6572,
      "Shh": 6573,
      "Ġsiblings": 6574,
      "ility": 6575,
      "llen": 6576,
      "Ġlosing": 6577,
      "ivity": 6578,
      "?'": 6579,
      "Ġsale": 6580,
      "oni": 6581,
      "Ġdarker": 6582,
      "Ġtempt": 6583,
      "Ġdrifted": 6584,
      "Ġscrubbed": 6585,
      "Ġtrampoline": 6586,
      "cl": 6587,
      "Ġrefu": 6588,
      "Ġmeals": 6589,
      "Bobo": 6590,
      "Ġpassen": 6591,
      "Ġscrews": 6592,
      "Ġburst": 6593,
      "Ġfluttering": 6594,
      "Ġtravelled": 6595,
      "Ġhus": 6596,
      "Ġdads": 6597,
      "Ġteased": 6598,
      "ndpare": 6599,
      "ĠWithout": 6600,
      "Ġchop": 6601,
      "ĠEverybody": 6602,
      "ĠNina": 6603,
      "ĠRobby": 6604,
      "Ġcreativity": 6605,
      "Ġexperien": 6606,
      "Ġdiscussed": 6607,
      "Ġswimsuit": 6608,
      "Ġpuppies": 6609,
      "ĠTwo": 6610,
      "rigued": 6611,
      "Ġconsequences": 6612,
      "Fin": 6613,
      "Ġneither": 6614,
      "Ġforgets": 6615,
      "ne": 6616,
      "Ġcoup": 6617,
      "Ġmerry": 6618,
      "ĠTara": 6619,
      "Ġstool": 6620,
      "umbling": 6621,
      "Ġwrapping": 6622,
      "Ġweekend": 6623,
      "Nina": 6624,
      "Ġhelpers": 6625,
      "Ġgrandpare": 6626,
      "ÅĵDo": 6627,
      "Great": 6628,
      "Pat": 6629,
      "Ġstung": 6630,
      "Ġgracefully": 6631,
      "Ġincluding": 6632,
      "Ġperformance": 6633,
      "Time": 6634,
      "eal": 6635,
      "ades": 6636,
      "Ġfears": 6637,
      "ÅĵWow": 6638,
      "Ġtunnels": 6639,
      "Ġtiptoed": 6640,
      "ded": 6641,
      "Ġwadd": 6642,
      "Ġmer": 6643,
      "Ġthird": 6644,
      "Ġstain": 6645,
      "Ġdollars": 6646,
      "ĠPo": 6647,
      "ĠBluey": 6648,
      "Ġcuddly": 6649,
      "Ġavoid": 6650,
      "Ġenthusi": 6651,
      "ĠGoodbye": 6652,
      "Ġtemperature": 6653,
      "oey": 6654,
      "armer": 6655,
      "Ġgross": 6656,
      "ept": 6657,
      "ĠwonÃ¢": 6658,
      "anging": 6659,
      "Ġsource": 6660,
      "Ġenthusiasm": 6661,
      "Katie": 6662,
      "Ġhearing": 6663,
      "ĠSophia": 6664,
      "itted": 6665,
      "Ġfact": 6666,
      "Ġseparated": 6667,
      "dri": 6668,
      "ĠQ": 6669,
      "Ġonions": 6670,
      "elia": 6671,
      "ĠPrincess": 6672,
      "Ġcoloring": 6673,
      "Ġhandsome": 6674,
      "Ġshrinking": 6675,
      "Ġneatly": 6676,
      "Ġgrowls": 6677,
      "ĠFrosty": 6678,
      "ĠOlive": 6679,
      "immering": 6680,
      "Pe": 6681,
      "the": 6682,
      "Ġlimes": 6683,
      "ĠMick": 6684,
      "Ġchip": 6685,
      "using": 6686,
      "ÅĵCome": 6687,
      "Ġzipping": 6688,
      "Maria": 6689,
      "Ġafford": 6690,
      "Ġhusband": 6691,
      "Ġcouple": 6692,
      "atul": 6693,
      "anes": 6694,
      "Ġrising": 6695,
      "step": 6696,
      "Ġech": 6697,
      "ueen": 6698,
      "Ġsnowfl": 6699,
      "Ġhides": 6700,
      "Ġrivers": 6701,
      "Meow": 6702,
      "Ġaccomplishment": 6703,
      "Wh": 6704,
      "sa": 6705,
      "ĠSque": 6706,
      "Ġslices": 6707,
      "Ġdollhouse": 6708,
      "uggles": 6709,
      "Ġcousin": 6710,
      "Milly": 6711,
      "ky": 6712,
      "ĠHoot": 6713,
      "ntil": 6714,
      "Ġswept": 6715,
      "Ġgrabbing": 6716,
      "Ġbully": 6717,
      "Ġwindy": 6718,
      "Ġbeloved": 6719,
      "Ġpromises": 6720,
      "Ġplans": 6721,
      "Ew": 6722,
      "Ġcor": 6723,
      "Ġgri": 6724,
      "Ġbeam": 6725,
      "ĠBinky": 6726,
      "choo": 6727,
      "Ġgrassy": 6728,
      "Ġpeacefully": 6729,
      "Ġhoriz": 6730,
      "For": 6731,
      "come": 6732,
      "ĠJay": 6733,
      "Ġblocking": 6734,
      "Ġbows": 6735,
      "hog": 6736,
      "Ġbatteries": 6737,
      "Ġrewarded": 6738,
      "mallow": 6739,
      "weed": 6740,
      "Ġnine": 6741,
      "Ġthrown": 6742,
      "ĠSnuggles": 6743,
      "arshmallow": 6744,
      "Ġsprinkled": 6745,
      "Roar": 6746,
      "Ġhorizon": 6747,
      "Dan": 6748,
      "Fo": 6749,
      "Have": 6750,
      "Ġplayers": 6751,
      "Ġwilling": 6752,
      "Ġstudents": 6753,
      "Ġdamage": 6754,
      "Whee": 6755,
      "Ġamong": 6756,
      "Ġdreamt": 6757,
      "Ġmuscle": 6758,
      "Ġnapkins": 6759,
      "Ġneighbours": 6760,
      "Ġmatters": 6761,
      "Ġleaning": 6762,
      "Oops": 6763,
      "Ġaud": 6764,
      "Ġdarling": 6765,
      "Ġbackwards": 6766,
      "ĠWally": 6767,
      "Ġpecked": 6768,
      "ĠThose": 6769,
      "Ġrecipe": 6770,
      "An": 6771,
      "Ġbodies": 6772,
      "iece": 6773,
      "Ġtails": 6774,
      "Ġseaweed": 6775,
      "Ġwishing": 6776,
      "Ġseconds": 6777,
      "Ġforgiven": 6778,
      "Ġhitting": 6779,
      "Ġwept": 6780,
      "Ġprinting": 6781,
      "Ġdecorating": 6782,
      "Ġhour": 6783,
      "Ġalien": 6784,
      "ushing": 6785,
      "Ġprett": 6786,
      "ÅĵHi": 6787,
      "Ġheading": 6788,
      "Ġplanning": 6789,
      "Blue": 6790,
      "Woof": 6791,
      "Ġdod": 6792,
      "Ġreass": 6793,
      "Ġgobbled": 6794,
      "Ġstarfish": 6795,
      "Ġfeeding": 6796,
      "Ġpraying": 6797,
      "Ġbuzzed": 6798,
      "ĠBirthday": 6799,
      "Ġconcer": 6800,
      "Ġtriangles": 6801,
      "ÅĵYouÃ¢": 6802,
      "Ġcenter": 6803,
      "Ducky": 6804,
      "Ġdancers": 6805,
      "Ġpops": 6806,
      "Ġrepa": 6807,
      "Ġgasp": 6808,
      "Ġforks": 6809,
      "Ġrustling": 6810,
      "Ġsnuggle": 6811,
      "Ġheavier": 6812,
      "Ġprettier": 6813,
      "ĠLaura": 6814,
      "Ġdrawn": 6815,
      "Ġsurroundings": 6816,
      "Ġrequested": 6817,
      "Ġwarnings": 6818,
      "Ġrepaired": 6819,
      "wk": 6820,
      "Ġdet": 6821,
      "Ġspong": 6822,
      "ĠListen": 6823,
      "ĠNick": 6824,
      "Ġstreets": 6825,
      "Ġdesigned": 6826,
      "Ġhedgehog": 6827,
      "Boo": 6828,
      "Ġdie": 6829,
      "ados": 6830,
      "Ġarr": 6831,
      "ĠJacob": 6832,
      "Ġtreehouse": 6833,
      "Ġtwice": 6834,
      "Ġslower": 6835,
      "Ġ10": 6836,
      "Lilly": 6837,
      "Miss": 6838,
      "Ġwoof": 6839,
      "Ġtouc": 6840,
      "Ġplain": 6841,
      "ĠLena": 6842,
      "Ġposter": 6843,
      "Ġmagician": 6844,
      "Ġwiping": 6845,
      "Ġvanilla": 6846,
      "ĠQueen": 6847,
      "itude": 6848,
      "Ġmarshmallow": 6849,
      "arrow": 6850,
      "Ġhawk": 6851,
      "fus": 6852,
      "Ġache": 6853,
      "ĠRemember": 6854,
      "Ġembarrass": 6855,
      "ĠRobert": 6856,
      "Ġslammed": 6857,
      "Ġlungs": 6858,
      "By": 6859,
      "fall": 6860,
      "urious": 6861,
      "eds": 6862,
      "irrel": 6863,
      "esp": 6864,
      "Ġropes": 6865,
      "ongr": 6866,
      "Ġintrigued": 6867,
      "Ġcreations": 6868,
      "Ġforgetting": 6869,
      "Ġthud": 6870,
      "Ġsuperheroes": 6871,
      "Ġhesitant": 6872,
      "Ġsy": 6873,
      "Ġadult": 6874,
      "Ġcounts": 6875,
      "ments": 6876,
      "Ġspoonful": 6877,
      "Ġavocados": 6878,
      "Ġnood": 6879,
      "Ġskunk": 6880,
      "ĠJacky": 6881,
      "Ġpotion": 6882,
      "Ġaudience": 6883,
      "ongratul": 6884,
      "--": 6885,
      "Tina": 6886,
      "Yummy": 6887,
      "ippy": 6888,
      "Ġwag": 6889,
      "Ġpens": 6890,
      "Ġscamp": 6891,
      "Ġflas": 6892,
      "Ġspreading": 6893,
      "Ġborrowed": 6894,
      "Ġresisted": 6895,
      "Ġblast": 6896,
      "Ġstands": 6897,
      "Ġbreathed": 6898,
      "Ġgeese": 6899,
      "Ġtoddler": 6900,
      "Tw": 6901,
      "jo": 6902,
      "ition": 6903,
      "Ġsofter": 6904,
      "ently": 6905,
      "Ġswords": 6906,
      "ĠCra": 6907,
      "Ġwarmer": 6908,
      "Ġfamiliar": 6909,
      "Ġsponge": 6910,
      "cake": 6911,
      "yan": 6912,
      "Ġsan": 6913,
      "Ġpeppers": 6914,
      "Ġjoyful": 6915,
      "Ġimagining": 6916,
      "Ġpresses": 6917,
      "Ġdelivering": 6918,
      "ĠMikey": 6919,
      "ĠFriends": 6920,
      "Ġscrewdri": 6921,
      "Ġscraped": 6922,
      "Ruby": 6923,
      "Ġtouches": 6924,
      "Baby": 6925,
      "Nemo": 6926,
      "Ġpours": 6927,
      "ido": 6928,
      "Ġage": 6929,
      "ĠPam": 6930,
      "Ġthroughout": 6931,
      "ĠOwl": 6932,
      "Surpr": 6933,
      "Ġmunch": 6934,
      "Ġnibb": 6935,
      "endy": 6936,
      "Ġchanging": 6937,
      "ounce": 6938,
      "Ġhonked": 6939,
      "Ġzebras": 6940,
      "Ġsqueak": 6941,
      "Ġfirefighter": 6942,
      "Ġmesmerized": 6943,
      "sure": 6944,
      "Ġroars": 6945,
      "ĠFarmer": 6946,
      "Ġglued": 6947,
      "Ġwrink": 6948,
      "Ġremembering": 6949,
      "Ġtalks": 6950,
      "Ġpolar": 6951,
      "Ġbaths": 6952,
      "ĠThanks": 6953,
      "Ġshops": 6954,
      "ably": 6955,
      "Ġsports": 6956,
      "Clara": 6957,
      "Ġfocused": 6958,
      "Ġscrewdriver": 6959,
      "ĠSun": 6960,
      "ĠAbbie": 6961,
      "opsy": 6962,
      "Ġcuriously": 6963,
      "Ġdropping": 6964,
      "Ġcorners": 6965,
      "Ġwhispers": 6966,
      "Ġsank": 6967,
      "Ġnur": 6968,
      "allowed": 6969,
      "Ġleast": 6970,
      "Ġswallowed": 6971,
      "aster": 6972,
      "Ġlifts": 6973,
      "ael": 6974,
      "Ġspices": 6975,
      "Ġblinking": 6976,
      "Ġpuff": 6977,
      "ĠAsh": 6978,
      "ichael": 6979,
      "Ġmints": 6980,
      "ounced": 6981,
      "Ġexpress": 6982,
      "Ġgranted": 6983,
      "ĠJudy": 6984,
      "Ġspikes": 6985,
      "Ġsquishy": 6986,
      "Ġsailors": 6987,
      "ĠTodd": 6988,
      "Ġhopeful": 6989,
      "Ġtoaster": 6990,
      "Like": 6991,
      "Ġneare": 6992,
      "ĠJune": 6993,
      "arac": 6994,
      "Ġpeck": 6995,
      "Ġcrew": 6996,
      "Ġnecklaces": 6997,
      "ĠOnly": 6998,
      "Ġpostman": 6999,
      "Ġreflection": 7000,
      "ĠTake": 7001,
      "ĠTuna": 7002,
      "Ġfeast": 7003,
      "Ġcond": 7004,
      "Ġposs": 7005,
      "Ġslips": 7006,
      "Ġsteady": 7007,
      "Ġpennies": 7008,
      "Ġrefreshing": 7009,
      "Kim": 7010,
      "ears": 7011,
      "sie": 7012,
      "imon": 7013,
      "ĠLi": 7014,
      "Ġwobbled": 7015,
      "Ġtested": 7016,
      "Ġsniffs": 7017,
      "ĠMaya": 7018,
      "Ġgrandparents": 7019,
      "Ġmarshmallows": 7020,
      "uzzy": 7021,
      "yes": 7022,
      "Ġwakes": 7023,
      "Ġoh": 7024,
      "Ġrout": 7025,
      "Ġchos": 7026,
      "Ġsneezing": 7027,
      "Ġshaped": 7028,
      "Ġdived": 7029,
      "ĠNobody": 7030,
      "Ġoysters": 7031,
      "Ġincreased": 7032,
      "Ġchosen": 7033,
      "Jul": 7034,
      "vil": 7035,
      "worm": 7036,
      "Ġreason": 7037,
      "Ġspins": 7038,
      "Ġflight": 7039,
      "ĠZip": 7040,
      "ĠUntil": 7041,
      "Quick": 7042,
      "Ġsewing": 7043,
      "Ġgreeted": 7044,
      "Our": 7045,
      "mates": 7046,
      "Ġtiss": 7047,
      "erate": 7048,
      "Ġrushing": 7049,
      "Ġaside": 7050,
      "otten": 7051,
      "Ġjoining": 7052,
      "Ġheroes": 7053,
      "ĠAbi": 7054,
      "Ġbehaving": 7055,
      "Ġ2": 7056,
      "anie": 7057,
      "unched": 7058,
      "Ġkittens": 7059,
      "attered": 7060,
      "ĠOur": 7061,
      "Ġpigeons": 7062,
      "stick": 7063,
      "ĠBee": 7064,
      "ertain": 7065,
      "ĠZoey": 7066,
      "Ġswans": 7067,
      "Ġwiggle": 7068,
      "fire": 7069,
      "Ġaimed": 7070,
      "Ġdip": 7071,
      "Ġocc": 7072,
      "Ġplayroom": 7073,
      "Ġtapped": 7074,
      "Ġdefe": 7075,
      "Ġdresser": 7076,
      "Ġbiting": 7077,
      "ĠStay": 7078,
      "years": 7079,
      "Ġpuppet": 7080,
      "Back": 7081,
      "Bill": 7082,
      "lves": 7083,
      "Ġrotten": 7084,
      "Ġonward": 7085,
      "Ġplucked": 7086,
      "Ġcraft": 7087,
      "Ġappreciation": 7088,
      "Tweety": 7089,
      "Sadly": 7090,
      "vant": 7091,
      "rect": 7092,
      "Ġmoo": 7093,
      "Ġcharac": 7094,
      "Ġtrot": 7095,
      "Ġadults": 7096,
      "Ġwrigg": 7097,
      "Ġsparks": 7098,
      "Ġencourag": 7099,
      "Ġsending": 7100,
      "Ġconfl": 7101,
      "Ġtrembled": 7102,
      "ĠMickey": 7103,
      "Ġscampered": 7104,
      "Ġcharacter": 7105,
      "Br": 7106,
      "Tr": 7107,
      "iment": 7108,
      "Ġscored": 7109,
      "ĠDr": 7110,
      "Ġexplo": 7111,
      "Ġoffic": 7112,
      "ĠPr": 7113,
      "eezes": 7114,
      "eel": 7115,
      "Ġspat": 7116,
      "Ġcoc": 7117,
      "ÅĵNow": 7118,
      "Ġwarri": 7119,
      "Ġhops": 7120,
      "meal": 7121,
      "Ġbells": 7122,
      "Ġflavors": 7123,
      "Ġmaster": 7124,
      "while": 7125,
      "Ġdaring": 7126,
      "ĠFire": 7127,
      "Ġconvers": 7128,
      "Ġstrongest": 7129,
      "Ġdrawers": 7130,
      "Ġpanicked": 7131,
      "Ġguests": 7132,
      "ĠMartha": 7133,
      "ĠPippin": 7134,
      "Ġwaddled": 7135,
      "Ġtossed": 7136,
      "Ġpins": 7137,
      "Ġnapping": 7138,
      "Ġmanag": 7139,
      "Ġrainy": 7140,
      "Ġamount": 7141,
      "Ġworrying": 7142,
      "ĠKiki": 7143,
      "Ġstacked": 7144,
      "Ġperforming": 7145,
      "Ġoatmeal": 7146,
      "rrr": 7147,
      "ĠSquirrel": 7148,
      "Mine": 7149,
      "Ġsadd": 7150,
      "cky": 7151,
      "Ġscen": 7152,
      "ĠLove": 7153,
      "Ġwobbly": 7154,
      "ÅĵMy": 7155,
      "Ġcausing": 7156,
      "Ġrespected": 7157,
      "Ġsunflowers": 7158,
      "Ġproper": 7159,
      "Ġfreedom": 7160,
      "Ġnoodles": 7161,
      "Ġmate": 7162,
      "Ġevil": 7163,
      "retty": 7164,
      "Ġangels": 7165,
      "Ġloading": 7166,
      "Ġseashells": 7167,
      "Su": 7168,
      "ĠTry": 7169,
      "Ġgest": 7170,
      "Ġbattle": 7171,
      "...\"": 7172,
      "ĠFrog": 7173,
      "ĠSadie": 7174,
      "Ġcorrect": 7175,
      "isc": 7176,
      "Ġstitches": 7177,
      "Ġgardener": 7178,
      "Ġlessons": 7179,
      "Ġprove": 7180,
      "Ġrespond": 7181,
      "ppies": 7182,
      "ĠBessie": 7183,
      "ĠWell": 7184,
      "Ġdoorway": 7185,
      "Ġunsure": 7186,
      "Ġtables": 7187,
      "Ġcloudy": 7188,
      "Ġshrug": 7189,
      "Ġcushions": 7190,
      "ĠBirdy": 7191,
      "Very": 7192,
      "Ġfaded": 7193,
      "onna": 7194,
      "Ġworn": 7195,
      "ĠLia": 7196,
      "Ġbravest": 7197,
      "Ġgrows": 7198,
      "ĠStella": 7199,
      "Ġleads": 7200,
      "ĠPatty": 7201,
      "ĠAmelia": 7202,
      "Ġwatering": 7203,
      "iley": 7204,
      "ÅĵMom": 7205,
      "Ġrains": 7206,
      "Ġcrashing": 7207,
      "Ġduckling": 7208,
      "Ġaction": 7209,
      "Ġcoop": 7210,
      "Ġfrowning": 7211,
      "Ġdesigns": 7212,
      "Ġfirefly": 7213,
      "Ġfirmly": 7214,
      "ĠSqueaky": 7215,
      "Ġcoral": 7216,
      "Ġund": 7217,
      "ĠBaa": 7218,
      "Ġearn": 7219,
      "Ġclues": 7220,
      "Ġsmallest": 7221,
      "Ġmonths": 7222,
      "Ġsails": 7223,
      "Ġsurv": 7224,
      "Ġtwisty": 7225,
      "Ġwider": 7226,
      "ĠGranny": 7227,
      "Ġdefin": 7228,
      "Ġpassengers": 7229,
      "Ġtissue": 7230,
      "ody": 7231,
      "please": 7232,
      "Ġais": 7233,
      "Ġheight": 7234,
      "Ġcosy": 7235,
      "plash": 7236,
      "bbling": 7237,
      "ĠFido": 7238,
      "ĠRay": 7239,
      "ĠThatÃ¢": 7240,
      "Ġpolitely": 7241,
      "Ġpays": 7242,
      "Ġnervously": 7243,
      "Ġhumans": 7244,
      "Ġbehavior": 7245,
      "dress": 7246,
      "now": 7247,
      "Ġbru": 7248,
      "Ġovercome": 7249,
      "Ġbelts": 7250,
      "Beep": 7251,
      "Ġstreamers": 7252,
      "Ġrobber": 7253,
      "Follow": 7254,
      "Ġencouraging": 7255,
      "Ġties": 7256,
      "Ġni": 7257,
      "onies": 7258,
      "Ġplaytime": 7259,
      "child": 7260,
      "Ġflown": 7261,
      "ĠEx": 7262,
      "emma": 7263,
      "Ġdrivers": 7264,
      "Ġsurrendered": 7265,
      "iel": 7266,
      "Ġgonna": 7267,
      "ening": 7268,
      "Ġnearly": 7269,
      "Ġpumpkins": 7270,
      "Ġgrandchild": 7271,
      "Ġfleas": 7272,
      "Ġyielded": 7273,
      "Ġmerma": 7274,
      "Ġdefinitely": 7275,
      "During": 7276,
      "bird": 7277,
      "Ġinj": 7278,
      "Ġpoppies": 7279,
      "iona": 7280,
      "Ġcrossing": 7281,
      "undred": 7282,
      "Ġtravelling": 7283,
      "hew": 7284,
      "Ġtuck": 7285,
      "Ġnuzz": 7286,
      "anwhile": 7287,
      "Ġyel": 7288,
      "ĠthatÃ¢": 7289,
      "Ġshady": 7290,
      "ÅĵWell": 7291,
      "Ġraces": 7292,
      "Ġblocked": 7293,
      "Ġlifting": 7294,
      "Ġlaying": 7295,
      "Ġignoring": 7296,
      "Ġshovels": 7297,
      "Ġquarreling": 7298,
      "alloween": 7299,
      "ĠMeg": 7300,
      "Ġperformed": 7301,
      "lets": 7302,
      "Ġease": 7303,
      "ĠAng": 7304,
      "Ġscient": 7305,
      "ĠElly": 7306,
      "antastic": 7307,
      "Ġwobble": 7308,
      "athy": 7309,
      "issa": 7310,
      "Ġresults": 7311,
      "ĠAlong": 7312,
      "Ġsuggestion": 7313,
      "Ġsuits": 7314,
      "Ġcampfire": 7315,
      "Ġsymbols": 7316,
      "Ġtwinkled": 7317,
      "Ġbrushing": 7318,
      "Ġcommun": 7319,
      "Ġyelped": 7320,
      "Ġscientist": 7321,
      "Even": 7322,
      "Jerry": 7323,
      "Watch": 7324,
      "ibbit": 7325,
      "upt": 7326,
      "rey": 7327,
      "ĠHalloween": 7328,
      "Ġshown": 7329,
      "Ġreun": 7330,
      "roken": 7331,
      "Ġscurry": 7332,
      "Ġleapt": 7333,
      "Ġpound": 7334,
      "Ġponies": 7335,
      "ĠSc": 7336,
      "ongo": 7337,
      "ĠEva": 7338,
      "acles": 7339,
      "Ġcolder": 7340,
      "Ġquieter": 7341,
      "Ġappreciated": 7342,
      "fly": 7343,
      "Ġbless": 7344,
      "ighting": 7345,
      "Ġwaterfall": 7346,
      "Ġfinal": 7347,
      "Ġsqueezing": 7348,
      "Ġfills": 7349,
      "Ġhairdress": 7350,
      "ĠZero": 7351,
      "Ġfishes": 7352,
      "ĠRobbie": 7353,
      "Ġcobwebs": 7354,
      "ĠJanie": 7355,
      "Ġthorns": 7356,
      "Ġsnowflakes": 7357,
      "abby": 7358,
      "Ġfantastic": 7359,
      "elie": 7360,
      "Ġsurprising": 7361,
      "Ġtricycle": 7362,
      "ĠStan": 7363,
      "Ġedges": 7364,
      "Ġpreparing": 7365,
      "Ġgrandd": 7366,
      "Ġreversed": 7367,
      "Ġpunishment": 7368,
      "Ġofficers": 7369,
      "Listen": 7370,
      "ĠMabel": 7371,
      "Ġanger": 7372,
      "Ġfinishing": 7373,
      "ĠRock": 7374,
      "Ġchopped": 7375,
      "Ġpaths": 7376,
      "Ġgenie": 7377,
      "Ġpassports": 7378,
      "Bet": 7379,
      "rup": 7380,
      "ooky": 7381,
      "Ġhanding": 7382,
      "ĠRalph": 7383,
      "ĠRyan": 7384,
      "Ġtighter": 7385,
      "Ġpaintbrush": 7386,
      "ĠStar": 7387,
      "Ġloops": 7388,
      "Ġburying": 7389,
      "Ġsuffered": 7390,
      "espite": 7391,
      "Ġoccas": 7392,
      "Ġhairdresser": 7393,
      "Ġsever": 7394,
      "Ġslither": 7395,
      "Ġbraver": 7396,
      "Whenever": 7397,
      "Ġunw": 7398,
      "Ġhealing": 7399,
      "Ġdistract": 7400,
      "Ġbandages": 7401,
      "Ġgiggles": 7402,
      "Ġreminding": 7403,
      "ĠDavey": 7404,
      "Ġdisturbing": 7405,
      "Ġechoed": 7406,
      "fia": 7407,
      "Ġtying": 7408,
      "Ġgap": 7409,
      "ppa": 7410,
      "Ġnotes": 7411,
      "Ġforests": 7412,
      "Ġsmelling": 7413,
      "Ġbaskets": 7414,
      "ĠAlthough": 7415,
      "Ġsniffing": 7416,
      "Ġsurfing": 7417,
      "Ġsurfboard": 7418,
      "laying": 7419,
      "Ġseveral": 7420,
      "cent": 7421,
      "ĠX": 7422,
      "Ġcertain": 7423,
      "ÅĵWhere": 7424,
      "Ġcleaner": 7425,
      "Ġcollap": 7426,
      "Ġfits": 7427,
      "ĠLouise": 7428,
      "Ġconnected": 7429,
      "Ġsyrup": 7430,
      "Hannah": 7431,
      "Ġtipped": 7432,
      "Ġsou": 7433,
      "Ġcongratul": 7434,
      "Ġrays": 7435,
      "rier": 7436,
      "Ġsnort": 7437,
      "ÅĵIf": 7438,
      "ĠZara": 7439,
      "Ġspits": 7440,
      "Ġlicking": 7441,
      "Ġrisks": 7442,
      "Ġconflict": 7443,
      "Ros": 7444,
      "Ġhundred": 7445,
      "Ġcoug": 7446,
      "Ġmaker": 7447,
      "Ġstopping": 7448,
      "Ġsweetest": 7449,
      "Ġpackages": 7450,
      "Ġpuzzled": 7451,
      "Ġseller": 7452,
      "ĠUnder": 7453,
      "Ġtravels": 7454,
      "ĠSnowman": 7455,
      "Ġcottage": 7456,
      "iscuit": 7457,
      "broken": 7458,
      "vroom": 7459,
      "inger": 7460,
      "ĠMouse": 7461,
      "Ġspooky": 7462,
      "Ġconqu": 7463,
      "ĠGina": 7464,
      "Ġdrown": 7465,
      "Ġbelieving": 7466,
      "Ġships": 7467,
      "Ġexamining": 7468,
      "Ġmagnif": 7469,
      "Ġbreathing": 7470,
      "Ġsqueaked": 7471,
      "Ġpurr": 7472,
      "Ġefforts": 7473,
      "Jamie": 7474,
      "bage": 7475,
      "ca": 7476,
      "ÅĵBut": 7477,
      "ÅĵOkay": 7478,
      "ÅĵOf": 7479,
      "athan": 7480,
      "ĠFlopsy": 7481,
      "Ġmailed": 7482,
      "Ġgarbage": 7483,
      "Ġcuddles": 7484,
      "Excited": 7485,
      "Surprise": 7486,
      "erm": 7487,
      "ĠBow": 7488,
      "Ġprob": 7489,
      "Ġslipping": 7490,
      "ĠGreen": 7491,
      "ĠZoomy": 7492,
      "Ġfrowns": 7493,
      "Ġlending": 7494,
      "Ġwhispering": 7495,
      "Ġsuffering": 7496,
      "eeling": 7497,
      "Ġprobably": 7498,
      "Mad": 7499,
      "cher": 7500,
      "Ġlent": 7501,
      "ading": 7502,
      "Ġshoo": 7503,
      "asty": 7504,
      "Ġbuses": 7505,
      "Ġelf": 7506,
      "Ġaddress": 7507,
      "Ġawo": 7508,
      "Ġtubes": 7509,
      "Ġinchworm": 7510,
      "Ġmermaid": 7511,
      "Bunny": 7512,
      "Mira": 7513,
      "Poppy": 7514,
      "line": 7515,
      "isions": 7516,
      "ancy": 7517,
      "onse": 7518,
      "ĠIm": 7519,
      "Ġthoughts": 7520,
      "inkle": 7521,
      "Ġguide": 7522,
      "Ġplanting": 7523,
      "Ġresponse": 7524,
      "Ġspells": 7525,
      "Ġrepeating": 7526,
      "Ġbothering": 7527,
      "Ġgears": 7528,
      "Ġarranged": 7529,
      "?!\"": 7530,
      "but": 7531,
      "ĠOkay": 7532,
      "Ġdump": 7533,
      "Ġexcept": 7534,
      "Ġmemb": 7535,
      "Ġcharge": 7536,
      "Ġtablet": 7537,
      "Ġhumming": 7538,
      "Ġsharks": 7539,
      "ĠUp": 7540,
      "Ġmasterp": 7541,
      "Ġforgiving": 7542,
      "Ġtrotted": 7543,
      "Ġgesture": 7544,
      "Ġmembers": 7545,
      "Get": 7546,
      "found": 7547,
      "ĠWendy": 7548,
      "Ġcoach": 7549,
      "Ġfins": 7550,
      "Ġluckily": 7551,
      "Ġresponsib": 7552,
      "Ġsewed": 7553,
      "Ġdamaged": 7554,
      "Ġcustomers": 7555,
      "Ġgrip": 7556,
      "Ġtil": 7557,
      "ĠHoney": 7558,
      "utter": 7559,
      "Ġrather": 7560,
      "Ġwithin": 7561,
      "Ġgoodby": 7562,
      "Ġdecisions": 7563,
      "ĠDin": 7564,
      "bba": 7565,
      "Ġexplorer": 7566,
      "Ġdriveway": 7567,
      "Ġchocolates": 7568,
      "Ġsupported": 7569,
      "ĠQuick": 7570,
      "Ġinstruments": 7571,
      "Since": 7572,
      "Vroom": 7573,
      "Ġwasting": 7574,
      "Ġlies": 7575,
      "âĤ¬,": 7576,
      "Ġwhose": 7577,
      "antha": 7578,
      "Ġcotton": 7579,
      "Ġannoyed": 7580,
      "Ġgoodbyes": 7581,
      "Ted": 7582,
      "Tony": 7583,
      "ĠSatur": 7584,
      "Ġsoaking": 7585,
      "Ġweeds": 7586,
      "Ġknots": 7587,
      "ĠFighting": 7588,
      "ĠRain": 7589,
      "Ġunderstands": 7590,
      "Ġantic": 7591,
      "ĠPatch": 7592,
      "Ġrotting": 7593,
      "Ġvehicles": 7594,
      "Ġpupils": 7595,
      "Ġaccomplished": 7596,
      "Ġnurses": 7597,
      "Ġwarrior": 7598,
      "Ġreunited": 7599,
      "ĠSaturday": 7600,
      "Ġreapp": 7601,
      "Ġalthough": 7602,
      "Ġpeas": 7603,
      "Ġteles": 7604,
      "Ġcheers": 7605,
      "Ġdangers": 7606,
      "ails": 7607,
      "Ġcalmly": 7608,
      "Ġrobots": 7609,
      "Ġnovels": 7610,
      "ĠAshley": 7611,
      "Ġtelescope": 7612,
      "Ġmood": 7613,
      "ammy": 7614,
      "Ġstumble": 7615,
      "ĠBongo": 7616,
      "asers": 7617,
      "Ġnewfound": 7618,
      "Ġtweet": 7619,
      "ilda": 7620,
      "acle": 7621,
      "Ġelbow": 7622,
      "Ġsweat": 7623,
      "Ġstomp": 7624,
      "Ġdiscussing": 7625,
      "Ġmaterial": 7626,
      "Ġdespite": 7627,
      "Frank": 7628,
      "ĠQuackers": 7629,
      "Ġcowboy": 7630,
      "Mimi": 7631,
      "aven": 7632,
      "mies": 7633,
      "ĠSimon": 7634,
      "Ġheartbroken": 7635,
      "Ġcrowns": 7636,
      "Ġwisely": 7637,
      "Ġtwisting": 7638,
      "Ġpermitted": 7639,
      "steps": 7640,
      "Ġconversation": 7641,
      "Rachel": 7642,
      "Ġbuddy": 7643,
      "ooking": 7644,
      "Ġchanges": 7645,
      "Ġswo": 7646,
      "Ġbelongings": 7647,
      "Ġwhistles": 7648,
      "Ġtidied": 7649,
      "Ġclassmates": 7650,
      "ĠPepper": 7651,
      "Ġspills": 7652,
      "crow": 7653,
      "iens": 7654,
      "Ġtar": 7655,
      "Ġdarl": 7656,
      "ĠMichael": 7657,
      "iza": 7658,
      "Ġbits": 7659,
      "ugging": 7660,
      "Ġteachers": 7661,
      "Ġfootsteps": 7662,
      "Ġguessing": 7663,
      "Ġwealth": 7664,
      "Ġcrystals": 7665,
      "Ġexplains": 7666,
      "Ġrefuse": 7667,
      "Ġreassured": 7668,
      "Ġawoke": 7669,
      "Ġmasterpiece": 7670,
      "Ġswollen": 7671,
      "Ġdarlings": 7672,
      "da": 7673,
      "wise": 7674,
      "Ġaim": 7675,
      "ĠBecause": 7676,
      "Ġaliens": 7677,
      "Ġdecl": 7678,
      "ĠCle": 7679,
      "ÅĵPlease": 7680,
      "Ġvegg": 7681,
      "Ġprayers": 7682,
      "Ġbracelets": 7683,
      "Ġinsisting": 7684,
      "Ġstudent": 7685,
      "Ġpeeled": 7686,
      "Take": 7687,
      "mered": 7688,
      "Ġdot": 7689,
      "Ġgerm": 7690,
      "Ġnasty": 7691,
      "Ġrin": 7692,
      "ĠAny": 7693,
      "Ġscent": 7694,
      "Ġvines": 7695,
      "ĠStitch": 7696,
      "Ġfigures": 7697,
      "Always": 7698,
      "Ġspeeding": 7699,
      "Ġnibbled": 7700,
      "Ġsill": 7701,
      "lle": 7702,
      "Ġspies": 7703,
      "Ġflipped": 7704,
      "Ġtroubles": 7705,
      "Ġtoolbox": 7706,
      "Ġsolving": 7707,
      "Ġencount": 7708,
      "Ġvibr": 7709,
      "Ġseagulls": 7710,
      "Abigail": 7711,
      "Ġnibble": 7712,
      "Penny": 7713,
      "whe": 7714,
      "rest": 7715,
      "Ġform": 7716,
      "Ġtreated": 7717,
      "Ġchilly": 7718,
      "Ġuntied": 7719,
      "ĠJoan": 7720,
      "Ġbeautifully": 7721,
      "Ġstored": 7722,
      "Ġtoward": 7723,
      "Ġbusiness": 7724,
      "Ġemer": 7725,
      "Ġcomforting": 7726,
      "Steve": 7727,
      "Alright": 7728,
      "Ġartwork": 7729,
      "Ġtarget": 7730,
      "order": 7731,
      "chy": 7732,
      "Ġexch": 7733,
      "Ġbirdhouse": 7734,
      "aula": 7735,
      "sol": 7736,
      "Ġunfortunately": 7737,
      "Josh": 7738,
      "Ġafar": 7739,
      "Goodnight": 7740,
      "Ġtaped": 7741,
      "Ġexercises": 7742,
      "Ġsurvive": 7743,
      "Ġgranddaughter": 7744,
      "Ġcongratulated": 7745,
      "lor": 7746,
      "what": 7747,
      "ended": 7748,
      "idey": 7749,
      "Ġposit": 7750,
      "Ġmarve": 7751,
      "Ġhonking": 7752,
      "Ġservant": 7753,
      "Ġbanged": 7754,
      "Ġaware": 7755,
      "Ġstatues": 7756,
      "Ġmosquitoes": 7757,
      "Ġdelayed": 7758,
      "Ġsimply": 7759,
      "Ġinspired": 7760,
      "Ġveggies": 7761,
      "Boys": 7762,
      "Car": 7763,
      "Ġforce": 7764,
      "Ġkings": 7765,
      "ĠMag": 7766,
      "ĠJaney": 7767,
      "Ġturtles": 7768,
      "Ġrats": 7769,
      "Ġsweaty": 7770,
      "five": 7771,
      "father": 7772,
      "ighing": 7773,
      "artled": 7774,
      "Ġthanking": 7775,
      "Ġtrans": 7776,
      "Ġsquished": 7777,
      "Ġgazing": 7778,
      "Ġactivity": 7779,
      "Ġwounds": 7780,
      "Mat": 7781,
      "gain": 7782,
      "pen": 7783,
      "onnie": 7784,
      "Ġrely": 7785,
      "Ġloses": 7786,
      "ecca": 7787,
      "ĠAlly": 7788,
      "Ġmanners": 7789,
      "dding": 7790,
      "Ġtapping": 7791,
      "Ġuntie": 7792,
      "ĠAli": 7793,
      "Ġapologised": 7794,
      "Tweetie": 7795,
      "Ġfocus": 7796,
      "Jessie": 7797,
      "we": 7798,
      "Ġtoss": 7799,
      "Ġdep": 7800,
      "rian": 7801,
      "elvet": 7802,
      "Ġsmashed": 7803,
      "Ġjars": 7804,
      "Ġspy": 7805,
      "Ġjoins": 7806,
      "ipes": 7807,
      "Ġfoxes": 7808,
      "ĠOther": 7809,
      "Ġscram": 7810,
      "Ġsweep": 7811,
      "Ġlabels": 7812,
      "Ġbeeped": 7813,
      "ĠPippa": 7814,
      "Ġscurrying": 7815,
      "Ġemerged": 7816,
      "sm": 7817,
      "uel": 7818,
      "Ġbitten": 7819,
      "orter": 7820,
      "Ġtwenty": 7821,
      "ÅĵThe": 7822,
      "Ġconvin": 7823,
      "Ġdressing": 7824,
      "Ġwarmly": 7825,
      "Ġpurpose": 7826,
      "Ġshrunk": 7827,
      "Ġpresented": 7828,
      "Ġpleaded": 7829,
      "Ġcurl": 7830,
      "Ġghosts": 7831,
      "Ġpandas": 7832,
      "Ġflaps": 7833,
      "Ġoppos": 7834,
      "Ġconcert": 7835,
      "Ġcorrectly": 7836,
      "Claire": 7837,
      "Ġhen": 7838,
      "Ġstall": 7839,
      "Ġsped": 7840,
      "ĠLion": 7841,
      "ĠFuzzy": 7842,
      "Ġsquaw": 7843,
      "ivia": 7844,
      "Ġtires": 7845,
      "Anne": 7846,
      "Ġencouragement": 7847,
      "Ġswaying": 7848,
      "Two": 7849,
      "Ġwrinkled": 7850,
      "Ġaisle": 7851,
      "Ġanticip": 7852,
      "Lena": 7853,
      "ĠSmo": 7854,
      "Ġrowed": 7855,
      "Ġbea": 7856,
      "Ġwhimp": 7857,
      "ortun": 7858,
      "ĠCla": 7859,
      "Ġjud": 7860,
      "ĠKaren": 7861,
      "Ġnests": 7862,
      "Ġtrusting": 7863,
      "Ġprick": 7864,
      "Ġmagazines": 7865,
      "ĠFroggy": 7866,
      "Ġglittering": 7867,
      "ummies": 7868,
      "Ġopportun": 7869,
      "Ġnearest": 7870,
      "Ġtransf": 7871,
      "ats": 7872,
      "Ġsav": 7873,
      "Ġinter": 7874,
      "Ġramp": 7875,
      "Ġcleared": 7876,
      "ĠSofia": 7877,
      "Ġtasting": 7878,
      "Ġpicnics": 7879,
      "Ġrescuing": 7880,
      "Ġgrandfather": 7881,
      "Ġotters": 7882,
      "Ġpedaled": 7883,
      "Ġwiggly": 7884,
      "Ġtype": 7885,
      "Ġnuzzled": 7886,
      "Ġopposite": 7887,
      "Joy": 7888,
      "even": 7889,
      "Ġgall": 7890,
      "ators": 7891,
      "ĠIzzy": 7892,
      "Ġshimmering": 7893,
      "Ġloc": 7894,
      "ĠgirlÃ¢": 7895,
      "ddie": 7896,
      "Ġblond": 7897,
      "ÅĵHey": 7898,
      "Ġswimmer": 7899,
      "ĠKelly": 7900,
      "Ġadds": 7901,
      "Meanwhile": 7902,
      "Ġcovering": 7903,
      "Ġscarecrow": 7904,
      "Ġwindowsill": 7905,
      "Ġdisplayed": 7906,
      "Ġuniforms": 7907,
      "Leave": 7908,
      "Ġswayed": 7909,
      "intment": 7910,
      "Ġcocoon": 7911,
      "ĠAngel": 7912,
      "Ġdeclared": 7913,
      "Ġanticipation": 7914,
      "Abby": 7915,
      "hil": 7916,
      "rily": 7917,
      "its": 7918,
      "idence": 7919,
      "ĠSk": 7920,
      "amma": 7921,
      "acy": 7922,
      "Ġvisits": 7923,
      "Ġdesigning": 7924,
      "screen": 7925,
      "Ġlipstick": 7926,
      "Ġdodged": 7927,
      "Je": 7928,
      "ris": 7929,
      "ĠTiger": 7930,
      "Ġbeating": 7931,
      "Ġends": 7932,
      "Ġdoorbell": 7933,
      "Ġdisc": 7934,
      "Ġdiscoveries": 7935,
      "Ġpurrs": 7936,
      "Quack": 7937,
      "ĠChris": 7938,
      "ĠKevin": 7939,
      "Uncle": 7940,
      "Ġattacked": 7941,
      "Ġsadder": 7942,
      "Ġcollapsed": 7943,
      "Ġscrambled": 7944,
      "Jess": 7945,
      "munk": 7946,
      "oor": 7947,
      "Ġtumbled": 7948,
      "Ġsheets": 7949,
      "rie": 7950,
      "ĠAna": 7951,
      "Ġflick": 7952,
      "Ġflips": 7953,
      "Ġpeep": 7954,
      "Ġjoked": 7955,
      "Ġsnug": 7956,
      "Ġcracks": 7957,
      "Ġimages": 7958,
      "Ġdecoration": 7959,
      "illiam": 7960,
      "ĠPeppa": 7961,
      "Ġbackpacks": 7962,
      "manda": 7963,
      "Ġforgiveness": 7964,
      "Ġroutine": 7965,
      "Ġmanager": 7966,
      "Co": 7967,
      "Rob": 7968,
      "pit": 7969,
      "Ġicing": 7970,
      "Ġtummies": 7971,
      "innie": 7972,
      "Ġhoo": 7973,
      "Ġwhoo": 7974,
      "ĠMina": 7975,
      "romise": 7976,
      "ĠJax": 7977,
      "Ġfailed": 7978,
      "Ġswap": 7979,
      "Ġsunscreen": 7980,
      "ordinary": 7981,
      "Ġbathing": 7982,
      "Ġgenerosity": 7983,
      "Ġtoothbrush": 7984,
      "Chloe": 7985,
      "Ġexperienced": 7986,
      "Dear": 7987,
      "David": 7988,
      "water": 7989,
      "Ġting": 7990,
      "Ġyum": 7991,
      "Ġgoodies": 7992,
      "Ġflip": 7993,
      "ĠDespite": 7994,
      "usty": 7995,
      "Ġgrat": 7996,
      "Ġsingers": 7997,
      "Ġsprout": 7998,
      "Ġbeeh": 7999,
      "ĠSpidey": 8000,
      "ĠRudy": 8001,
      "Ġobeyed": 8002,
      "ĠRobo": 8003,
      "Ġencountered": 8004,
      "Am": 8005,
      "Bang": 8006,
      "Ke": 8007,
      "Ġsens": 8008,
      "Ġheaven": 8009,
      "ĠSplash": 8010,
      "ĠAva": 8011,
      "Ġnodding": 8012,
      "ĠWelcome": 8013,
      "Ġlapt": 8014,
      "roll": 8015,
      "ĠFiona": 8016,
      "ortunately": 8017,
      "empt": 8018,
      "Ġbadger": 8019,
      "Ġconv": 8020,
      "boards": 8021,
      "Ġdripping": 8022,
      "ĠSpring": 8023,
      "Ġadmiration": 8024,
      "Ġsternly": 8025,
      "Ġcustomer": 8026,
      "Ġastronauts": 8027,
      "Ġgratitude": 8028,
      "ilities": 8029,
      "ative": 8030,
      "ĠHolly": 8031,
      "Ġinches": 8032,
      "Ġshall": 8033,
      "ument": 8034,
      "Ġbrightest": 8035,
      "Ġslowed": 8036,
      "Ġattempt": 8037,
      "Ġminds": 8038,
      "Ġcrawls": 8039,
      "Ġsnaps": 8040,
      "ĠExcited": 8041,
      "Ġconvince": 8042,
      "Out": 8043,
      "lo": 8044,
      "lied": 8045,
      "llas": 8046,
      "ĠYouÃ¢": 8047,
      "elle": 8048,
      "Ġblown": 8049,
      "ÅĵSee": 8050,
      "Ġstew": 8051,
      "Ġvisitors": 8052,
      "Ġrobin": 8053,
      "ĠZee": 8054,
      "Ġextraordinary": 8055,
      "ĠSpe": 8056,
      "Ġscooters": 8057,
      "Choo": 8058,
      "Ġapplauding": 8059,
      "Ġfloats": 8060,
      "Ġmeows": 8061,
      "Ġchipmunk": 8062,
      "Too": 8063,
      "cie": 8064,
      "hind": 8065,
      "olp": 8066,
      "ulp": 8067,
      "ĠTy": 8068,
      "ances": 8069,
      "Ġsculp": 8070,
      "Ġflashed": 8071,
      "ĠDory": 8072,
      "Ġexplor": 8073,
      "Ġdiso": 8074,
      "Ġfires": 8075,
      "Ġparted": 8076,
      "Ġrecorder": 8077,
      "Ġsoapy": 8078,
      "Ġorders": 8079,
      "Ġlowered": 8080,
      "ĠBubba": 8081,
      "Ġumbrellas": 8082,
      "Ġgrandson": 8083,
      "Ġmillion": 8084,
      "udolp": 8085,
      "Ġfilms": 8086,
      "Ġmatey": 8087,
      "Ġlaptop": 8088,
      "udolph": 8089,
      "erk": 8090,
      "ĠSw": 8091,
      "ĠSay": 8092,
      "Ġshin": 8093,
      "ÅĵGood": 8094,
      "bee": 8095,
      "ĠPing": 8096,
      "Ġreminds": 8097,
      "Ġtidying": 8098,
      "Ġbreaths": 8099,
      "Ġpriz": 8100,
      "Ġcheckout": 8101,
      "Ġgoats": 8102,
      "Ġmember": 8103,
      "Ġdiamonds": 8104,
      "Ġscolds": 8105,
      "ĠVelvet": 8106,
      "Ġmeowing": 8107,
      "Ġdrowned": 8108,
      "Ġgerms": 8109,
      "Che": 8110,
      "ĠHelen": 8111,
      "Ġshorter": 8112,
      "lyn": 8113,
      "Ġswitched": 8114,
      "Ġfond": 8115,
      "Yesterday": 8116,
      "ctric": 8117,
      "angle": 8118,
      "Ġbounces": 8119,
      "Ġteams": 8120,
      "Ġscratching": 8121,
      "ĠPeggy": 8122,
      "Ġapplause": 8123,
      "Ġquacking": 8124,
      "Ġinstrument": 8125,
      "Ġbeaming": 8126,
      "Ġmunching": 8127,
      "Ġconduct": 8128,
      "Ġresponded": 8129,
      "Rosie": 8130,
      "Any": 8131,
      "ĠSl": 8132,
      "str": 8133,
      "Ġforts": 8134,
      "Ġclicked": 8135,
      "Ġclerk": 8136,
      "ĠNana": 8137,
      "ĠDog": 8138,
      "Ġsupplied": 8139,
      "Ġtentacles": 8140,
      "Ġterrified": 8141,
      "Ġquestioned": 8142,
      "Ġgroan": 8143,
      "Ġincreasing": 8144,
      "Ġweapons": 8145,
      "Ġconnect": 8146,
      "Ġsteering": 8147,
      "Ġunwra": 8148,
      "Adam": 8149,
      "Each": 8150,
      "Papa": 8151,
      "rink": 8152,
      "Ġrumbling": 8153,
      "Ġcarries": 8154,
      "Ġcares": 8155,
      "Ġque": 8156,
      "ĠJackie": 8157,
      "Ġcheated": 8158,
      "Ġcons": 8159,
      "Ġdears": 8160,
      "Ġsets": 8161,
      "ĠFlora": 8162,
      "Ġscrub": 8163,
      "ĠMarie": 8164,
      "Ġbothered": 8165,
      "belle": 8166,
      "Ġflashing": 8167,
      "Ġcharacters": 8168,
      "Arrr": 8169,
      "Buzz": 8170,
      "storm": 8171,
      "Ġscri": 8172,
      "Ġfift": 8173,
      "ĠJojo": 8174,
      "ÅĵSure": 8175,
      "Ġrealizes": 8176,
      "Ġforgives": 8177,
      "Ġpetting": 8178,
      "Ġzooms": 8179,
      "Stay": 8180,
      "Ġmicrow": 8181,
      "ĠElsa": 8182,
      "Ġtilted": 8183,
      "Ġconductor": 8184,
      "Buddy": 8185,
      "Mart": 8186,
      "off": 8187,
      "Ġhood": 8188,
      "ering": 8189,
      "ĠBarry": 8190,
      "aint": 8191,
      "andra": 8192,
      "Ġfloors": 8193,
      "Ġawful": 8194,
      "Ġunlo": 8195,
      "Ġmischie": 8196,
      "Ġquarre": 8197,
      "Ġprevented": 8198,
      "Ġconfidence": 8199,
      "ĠMegan": 8200,
      "Ġconvinced": 8201,
      "Ġbeaver": 8202,
      "Ġmischievous": 8203,
      "Tilly": 8204,
      "ĠTaking": 8205,
      "Ġhaven": 8206,
      "ĠHold": 8207,
      "Ġsoot": 8208,
      "uno": 8209,
      "Ġket": 8210,
      "Ġseals": 8211,
      "Ġflock": 8212,
      "Ġconcent": 8213,
      "Ġtops": 8214,
      "Ġmovements": 8215,
      "Ġelectric": 8216,
      "Ġcourt": 8217,
      "Ġmodels": 8218,
      "ĠFreddie": 8219,
      "Ġknocking": 8220,
      "Ġenviron": 8221,
      "Ġoffering": 8222,
      "True": 8223,
      "Ġconquered": 8224,
      "ĠClaus": 8225,
      "Ġbeehive": 8226,
      "Ġmicrowave": 8227,
      "Ġconcentr": 8228,
      "Ġenvironment": 8229,
      "Beth": 8230,
      "Zoe": 8231,
      "pr": 8232,
      "Ġbou": 8233,
      "Ġwashes": 8234,
      "idnight": 8235,
      "quet": 8236,
      "Ġhardest": 8237,
      "ÅĵWho": 8238,
      "ship": 8239,
      "Ġstretches": 8240,
      "Ġtesting": 8241,
      "Ġtwists": 8242,
      "Ġhunters": 8243,
      "Ġenvelopes": 8244,
      "Ġdestroying": 8245,
      "Ġsprinkle": 8246,
      "Ġshorts": 8247,
      "Ġstrips": 8248,
      "ĠJean": 8249,
      "Ġrobbers": 8250,
      "Ġqueens": 8251,
      "Karen": 8252,
      "Nice": 8253,
      "ift": 8254,
      "Ġtips": 8255,
      "Ġsigning": 8256,
      "Ġwaded": 8257,
      "Ġpuck": 8258,
      "ĠSe": 8259,
      "Ġchecks": 8260,
      "ĠPin": 8261,
      "Ġdeed": 8262,
      "Ġyoungest": 8263,
      "ĠDaniel": 8264,
      "udged": 8265,
      "Ġcontainer": 8266,
      "Ġpaddling": 8267,
      "Ġsirens": 8268,
      "Ġexpecting": 8269,
      "Ġcommon": 8270,
      "Someone": 8271,
      "earing": 8272,
      "lt": 8273,
      "lest": 8274,
      "Momma": 8275,
      "Ġstrum": 8276,
      "Ġjobs": 8277,
      "Ġexpert": 8278,
      "Ġtickling": 8279,
      "Ġstamped": 8280,
      "Ġobserving": 8281,
      "ĠRufus": 8282,
      "Ġannounced": 8283,
      "Ġgallop": 8284,
      "Ġsculpture": 8285,
      "Gina": 8286,
      "Snow": 8287,
      "lers": 8288,
      "rough": 8289,
      "ĠMaisy": 8290,
      "ĠAlf": 8291,
      "ooks": 8292,
      "ĠDuck": 8293,
      "uddles": 8294,
      "ĠCurious": 8295,
      "LetÃ¢": 8296,
      "Ġwinding": 8297,
      "Ġmesses": 8298,
      "Ġmattered": 8299,
      "Ġargument": 8300,
      "Ġunpacking": 8301,
      "Ġstroke": 8302,
      "ĠMaddy": 8303,
      "ĠMonkey": 8304,
      "ĠCrabby": 8305,
      "elieve": 8306,
      "bu": 8307,
      "ĠElle": 8308,
      "arable": 8309,
      "ĠDra": 8310,
      "Ġgrumbled": 8311,
      "Ġteap": 8312,
      "Ġtearing": 8313,
      "Ġraising": 8314,
      "ĠRudolph": 8315,
      "otte": 8316,
      "Ġcupcake": 8317,
      "Ġshrank": 8318,
      "Ġwhisk": 8319,
      "arlotte": 8320,
      "Ġclearly": 8321,
      "Ġcombed": 8322,
      "ĠReady": 8323,
      "ĠVroom": 8324,
      "Ġcowboys": 8325,
      "Friend": 8326,
      "Kids": 8327,
      "flowers": 8328,
      "ware": 8329,
      "Ġtin": 8330,
      "ĠBang": 8331,
      "Ġbride": 8332,
      "Ġsoundly": 8333,
      "ĠNice": 8334,
      "Ġsurely": 8335,
      "Ġcompan": 8336,
      "Ġdragonfly": 8337,
      "Ġbuckled": 8338,
      "Ġstorms": 8339,
      "Ġoutfits": 8340,
      "Ġexperiences": 8341,
      "ĠPoor": 8342,
      "Julie": 8343,
      "Ġexploded": 8344,
      "Ġexploration": 8345,
      "Ġbouquet": 8346,
      "Cindy": 8347,
      "Liz": 8348,
      "Ol": 8349,
      "otch": 8350,
      "Ġsmelt": 8351,
      "ĠMomma": 8352,
      "Ġgardens": 8353,
      "ÅĵMaybe": 8354,
      "Ġsqueezes": 8355,
      "Ġnights": 8356,
      "Ġimaginary": 8357,
      "Ġsalon": 8358,
      "Ġtests": 8359,
      "Ġrelaxing": 8360,
      "Ġsincere": 8361,
      "ĠTwinkle": 8362,
      "ĠMae": 8363,
      "Brown": 8364,
      "Ġresponsibility": 8365,
      "Ġvibrant": 8366,
      "ĠSpeedy": 8367,
      "free": 8368,
      "ĠHope": 8369,
      "Ġsteth": 8370,
      "ĠBounce": 8371,
      "ittered": 8372,
      "Ġwhoever": 8373,
      "Ġmoat": 8374,
      "Ġleaking": 8375,
      "airy": 8376,
      "idents": 8377,
      "Ġactive": 8378,
      "Ġself": 8379,
      "Ġsprays": 8380,
      "Ġpizzas": 8381,
      "Ġchecking": 8382,
      "ippers": 8383,
      "Ġzips": 8384,
      "Ġexplaining": 8385,
      "Ġhaircuts": 8386,
      "Ġburnt": 8387,
      "ccidents": 8388,
      "Ġbehaviour": 8389,
      "Ġtemptation": 8390,
      "Ġpossess": 8391,
      "Ġdisobey": 8392,
      "Ġconsid": 8393,
      "Ġteapot": 8394,
      "Ġstethos": 8395,
      "Feeling": 8396,
      "Ralph": 8397,
      "bank": 8398,
      "emy": 8399,
      "val": 8400,
      "Ġill": 8401,
      "anced": 8402,
      "Ġmommies": 8403,
      "ĠWil": 8404,
      "ĠLina": 8405,
      "Ġswallow": 8406,
      "Ġtraded": 8407,
      "Ġquilt": 8408,
      "Ġoverhead": 8409,
      "Thomas": 8410,
      "Ġglimmering": 8411,
      "ÅĵOk": 8412,
      "Ġpapa": 8413,
      "uffin": 8414,
      "Ġsnowy": 8415,
      "uggy": 8416,
      "Ġinstantly": 8417,
      "balls": 8418,
      "Ġpressing": 8419,
      "Ġburger": 8420,
      "Ġsqueaky": 8421,
      "abra": 8422,
      "ĠWhoever": 8423,
      "ĠLiam": 8424,
      "Ġoccasion": 8425,
      "Ġpeeped": 8426,
      "Ġcompanion": 8427,
      "Honey": 8428,
      "Lia": 8429,
      "po": 8430,
      "yl": 8431,
      "ĠSleep": 8432,
      "ĠBad": 8433,
      "Ġkilled": 8434,
      "Ġrewards": 8435,
      "Ġbond": 8436,
      "Ġfaith": 8437,
      "ĠPhil": 8438,
      "Ġcrocodiles": 8439,
      "Ġcheaper": 8440,
      "Ġinsep": 8441,
      "Ġlanguages": 8442,
      "Ġcubs": 8443,
      "Ġrows": 8444,
      "Ġpuppets": 8445,
      "Ġexpression": 8446,
      "Ġwriggled": 8447,
      "Ġcommunic": 8448,
      "Ġstethoscope": 8449,
      "Bear": 8450,
      "Mon": 8451,
      "Red": 8452,
      "ae": 8453,
      "Ġouch": 8454,
      "igger": 8455,
      "Ġkit": 8456,
      "ĠEddie": 8457,
      "Ġposes": 8458,
      "ĠFel": 8459,
      "Ġtrigger": 8460,
      "Ġwaters": 8461,
      "Ġsandpit": 8462,
      "ĠKaty": 8463,
      "Ġdesc": 8464,
      "Ġhunting": 8465,
      "Ġerase": 8466,
      "Ġparticularly": 8467,
      "Ġpopsic": 8468,
      "Ġinseparable": 8469,
      "Hold": 8470,
      "Ollie": 8471,
      "jack": 8472,
      "prin": 8473,
      "Â¦": 8474,
      "ita": 8475,
      "ĠTerry": 8476,
      "Ġnatur": 8477,
      "Ġplayd": 8478,
      "ĠMidnight": 8479,
      "Ġlocks": 8480,
      "Ġjugg": 8481,
      "Ġsometime": 8482,
      "âĤ¬Â¦": 8483,
      "Ġchin": 8484,
      "ĠCara": 8485,
      "Ġprod": 8486,
      "Ġawhile": 8487,
      "Ġproviding": 8488,
      "ĠTrust": 8489,
      "ĠOlivia": 8490,
      "Ġopinions": 8491,
      "Freddy": 8492,
      "Ġdefeated": 8493,
      "Ġopportunity": 8494,
      "pril": 8495,
      "Ġhab": 8496,
      "Ġplugged": 8497,
      "Ġupside": 8498,
      "ickie": 8499,
      "ĠSamantha": 8500,
      "venir": 8501,
      "Ġflowing": 8502,
      "Ġcleans": 8503,
      "Ġclosing": 8504,
      "Ġcrops": 8505,
      "Ġcalmer": 8506,
      "ĠStep": 8507,
      "ĠShow": 8508,
      "Ġmeatballs": 8509,
      "ĠIsn": 8510,
      "Ġtextures": 8511,
      "ĠJonny": 8512,
      "Ġtypes": 8513,
      "Ġsouvenir": 8514,
      "Milo": 8515,
      "Put": 8516,
      "ĠYum": 8517,
      "Ġpouch": 8518,
      "ĠTime": 8519,
      "omb": 8520,
      "Ġnapped": 8521,
      "Ġthump": 8522,
      "Ġmomma": 8523,
      "Ġshattered": 8524,
      "ĠMan": 8525,
      "Ġfunn": 8526,
      "Ġclut": 8527,
      "Ġchill": 8528,
      "ĠJoanna": 8529,
      "Ġbrains": 8530,
      "Ġglided": 8531,
      "ĠPaula": 8532,
      "Ġsquinted": 8533,
      "Ġgrassho": 8534,
      "Ġhotter": 8535,
      "Ġpreschool": 8536,
      "Ġcheerfully": 8537,
      "Ġburns": 8538,
      "ĠBecky": 8539,
      "Ġhangers": 8540,
      "Ġfascinating": 8541,
      "ĠMelissa": 8542,
      "Ġannoying": 8543,
      "Ġborn": 8544,
      "Ġodd": 8545,
      "Ġplug": 8546,
      "Ġrebu": 8547,
      "Ġroast": 8548,
      "ĠwhatÃ¢": 8549,
      "Ġcheat": 8550,
      "ĠDoes": 8551,
      "Ġvisitor": 8552,
      "Ġgulp": 8553,
      "ĠFlo": 8554,
      "Ġdryer": 8555,
      "Ġwildflowers": 8556,
      "ĠStri": 8557,
      "Ġgasps": 8558,
      "Ġprickly": 8559,
      "Jon": 8560,
      "gr": 8561,
      "jest": 8562,
      "py": 8563,
      "vy": 8564,
      "Ġbound": 8565,
      "aron": 8566,
      "Ġthie": 8567,
      "Ġhisses": 8568,
      "ĠMoo": 8569,
      "anda": 8570,
      "Ġskies": 8571,
      "Ġenemy": 8572,
      "Ġbund": 8573,
      "Ġdollar": 8574,
      "Ġamused": 8575,
      "Ġmessages": 8576,
      "Ġsmoking": 8577,
      "Ġreturning": 8578,
      "Ġstuffing": 8579,
      "Ġwiser": 8580,
      "Ġpantry": 8581,
      "Ġmelody": 8582,
      "ĠPeep": 8583,
      "ĠShare": 8584,
      "amboo": 8585,
      "Ġswirls": 8586,
      "ĠMaddie": 8587,
      "Ġbruises": 8588,
      "ĠImmediately": 8589,
      "Ġlocal": 8590,
      "Zoom": 8591,
      "iving": 8592,
      "oc": 8593,
      "ĠSir": 8594,
      "ending": 8595,
      "Ġhiss": 8596,
      "eline": 8597,
      "ĠmomÃ¢": 8598,
      "ĠWilliam": 8599,
      "getic": 8600,
      "ĠLooking": 8601,
      "Ġbecomes": 8602,
      "Ġbubbly": 8603,
      "Ġbubbling": 8604,
      "Ġunco": 8605,
      "ĠGret": 8606,
      "ĠGary": 8607,
      "ĠRight": 8608,
      "shadow": 8609,
      "Ġriverbank": 8610,
      "Ġpleas": 8611,
      "Ġcops": 8612,
      "ĠMatilda": 8613,
      "asmine": 8614,
      "Maya": 8615,
      "ĠDino": 8616,
      "Lizzie": 8617,
      "Ġ5": 8618,
      "ouraged": 8619,
      "ĠShelly": 8620,
      "Ġinvent": 8621,
      "Ġyumm": 8622,
      "elope": 8623,
      "Ġshines": 8624,
      "Ġshallow": 8625,
      "Ġwhales": 8626,
      "ĠMother": 8627,
      "ĠAmanda": 8628,
      "Ġbacks": 8629,
      "Ġtreas": 8630,
      "Ġwaterm": 8631,
      "ÅĵBe": 8632,
      "Ġfinishes": 8633,
      "ĠPen": 8634,
      "Ġunable": 8635,
      "Ġcreams": 8636,
      "Ġcaw": 8637,
      "Ġanswering": 8638,
      "Ġmysteries": 8639,
      "Ġpasses": 8640,
      "Ġengines": 8641,
      "Ġfreezing": 8642,
      "Ġtraveling": 8643,
      "ĠSeeing": 8644,
      "Ġlumberjack": 8645,
      "ĠEliza": 8646,
      "Ahoy": 8647,
      "Ġhealthier": 8648,
      "Ġnatural": 8649,
      "',": 8650,
      "El": 8651,
      "Ġmac": 8652,
      "iliar": 8653,
      "orking": 8654,
      "ige": 8655,
      "amiliar": 8656,
      "stand": 8657,
      "Ġwhined": 8658,
      "aret": 8659,
      "Ġscow": 8660,
      "ĠLuc": 8661,
      "ĠJoJo": 8662,
      "ĠPl": 8663,
      "ĠPick": 8664,
      "ĠPretty": 8665,
      "ĠNever": 8666,
      "Ġsweeter": 8667,
      "Ġsprang": 8668,
      "Instead": 8669,
      "Ġcoolest": 8670,
      "ĠFinny": 8671,
      "Ġpepperoni": 8672,
      "ĠRoger": 8673,
      "Ġchatted": 8674,
      "Ġunfamiliar": 8675,
      "ĠTessa": 8676,
      "Ġgrasshopper": 8677,
      "Ġwatermel": 8678,
      "belt": 8679,
      "hny": 8680,
      "Ġactor": 8681,
      "Ġsipped": 8682,
      "Ġtot": 8683,
      "Ġlar": 8684,
      "Ġlump": 8685,
      "Ġmunched": 8686,
      "Ġrack": 8687,
      "ĠBrian": 8688,
      "ĠWin": 8689,
      "Ġprank": 8690,
      "anted": 8691,
      "acock": 8692,
      "Ġfarmers": 8693,
      "Ġinvites": 8694,
      "Ġserving": 8695,
      "Ġhonesty": 8696,
      "Ġscares": 8697,
      "Ġcuddling": 8698,
      "ĠFrankie": 8699,
      "Ġearned": 8700,
      "whel": 8701,
      "Hmm": 8702,
      "Kayla": 8703,
      "Mabel": 8704,
      "Never": 8705,
      "Ġbas": 8706,
      "Ġbomb": 8707,
      "Ġbamboo": 8708,
      "Ġdoz": 8709,
      "Ġoverwhel": 8710,
      "ĠPlaying": 8711,
      "spe": 8712,
      "Ġnecks": 8713,
      "Ġseatbelt": 8714,
      "Ġmoonlight": 8715,
      "ĠDonÃ¢": 8716,
      "Ġapology": 8717,
      "Ġcomputers": 8718,
      "Ġmiller": 8719,
      "Ġcompliment": 8720,
      "Ġrepairman": 8721,
      "Ġweighs": 8722,
      "Ġairplanes": 8723,
      "Ġspilling": 8724,
      "Ġhonks": 8725,
      "Ġdetails": 8726,
      "Ġmagnifying": 8727,
      "Maddy": 8728,
      "Ġreappeared": 8729,
      "Big": 8730,
      "Ġbiscuit": 8731,
      "Ġdashed": 8732,
      "ĠNancy": 8733,
      "Ġcris": 8734,
      "shaped": 8735,
      "Ġdrip": 8736,
      "asha": 8737,
      "Ġcompete": 8738,
      "Ġsuccessfully": 8739,
      "Ġpinching": 8740,
      "faction": 8741,
      "Ġexperiment": 8742,
      "Ġaeroplanes": 8743,
      "Ġsatisfaction": 8744,
      "ĠRocky": 8745,
      "ĠTyler": 8746,
      "Ġprizes": 8747,
      "Ġthieves": 8748,
      "Ġtreasured": 8749,
      "Aunt": 8750,
      "Bu": 8751,
      "Ġlim": 8752,
      "Ġgoo": 8753,
      "immered": 8754,
      "ormed": 8755,
      "chup": 8756,
      "ĠAgain": 8757,
      "ĠAccidents": 8758,
      "Ġcanv": 8759,
      "Ġexamp": 8760,
      "Ġknives": 8761,
      "ellie": 8762,
      "Ġsnapping": 8763,
      "Ġdonkey": 8764,
      "Ġraking": 8765,
      "ĠPink": 8766,
      "ĠRavi": 8767,
      "Ġsandy": 8768,
      "ĠAlan": 8769,
      "ĠBruno": 8770,
      "Ġcamel": 8771,
      "Ġspringtime": 8772,
      "Ġchatting": 8773,
      "ĠJonathan": 8774,
      "Betty": 8775,
      "Ġwhimpered": 8776,
      "Brownie": 8777,
      "Cat": 8778,
      "ai": 8779,
      "gar": 8780,
      "rupt": 8781,
      "uess": 8782,
      "Ġhike": 8783,
      "ouched": 8784,
      "Ġlasers": 8785,
      "Ġcages": 8786,
      "ergetic": 8787,
      "ĠSweet": 8788,
      "ĠSuper": 8789,
      "Ġboil": 8790,
      "Ġjets": 8791,
      "Ġenergetic": 8792,
      "Ġlongest": 8793,
      "Ġcheating": 8794,
      "Ġglittered": 8795,
      "ĠPet": 8796,
      "ĠNora": 8797,
      "ĠOuch": 8798,
      "ogo": 8799,
      "Ġpills": 8800,
      "Ġmiracle": 8801,
      "Ġcroaked": 8802,
      "Ġtraps": 8803,
      "Ġalligators": 8804,
      "Chirp": 8805,
      "Ġapproach": 8806,
      "ĠFoxy": 8807,
      "Ġsituations": 8808,
      "Ġsnorted": 8809,
      "Ġpositive": 8810,
      "Ġjudges": 8811,
      "Ġketchup": 8812,
      "Ġwatermelon": 8813,
      "Both": 8814,
      "cad": 8815,
      "yle": 8816,
      "Ġ4": 8817,
      "Ġtopp": 8818,
      "Ġdou": 8819,
      "Ġdart": 8820,
      "rick": 8821,
      "ĠBra": 8822,
      "ĠBonnie": 8823,
      "Ġarrest": 8824,
      "Ġlevers": 8825,
      "ashes": 8826,
      "ĠLenny": 8827,
      "Ġability": 8828,
      "Ġshares": 8829,
      "Ġmeaning": 8830,
      "Ġattitude": 8831,
      "Ġpractised": 8832,
      "Ġprotection": 8833,
      "ĠAnother": 8834,
      "Ġrebuild": 8835,
      "Ġexample": 8836,
      "cadabra": 8837,
      "Ġpounced": 8838,
      "Ġpipes": 8839,
      "Ġweighing": 8840,
      "Ġmoons": 8841,
      "Ġwolves": 8842,
      "ÅĵYay": 8843,
      "Ġthrill": 8844,
      "Ġbluebird": 8845,
      "Ġshoel": 8846,
      "Still": 8847,
      "Ġmedals": 8848,
      "Ġtrusts": 8849,
      "ĠSnowball": 8850,
      "Ġdemanding": 8851,
      "Ġrepeats": 8852,
      "Ġbends": 8853,
      "Ġswimsuits": 8854,
      "Whiskers": 8855,
      "Ġembarrassing": 8856,
      "Ġshrugs": 8857,
      "Ġdiscouraged": 8858,
      "Ġgroaned": 8859,
      "Ġcanvas": 8860,
      "!'.": 8861,
      "Deal": 8862,
      "HE": 8863,
      "Lizzy": 8864,
      "oss": 8865,
      "iter": 8866,
      "ĠTre": 8867,
      "Ġrips": 8868,
      "adually": 8869,
      "Ġgoodness": 8870,
      "Ġswat": 8871,
      "Ġcompared": 8872,
      "Ġjoyfully": 8873,
      "Ġchopping": 8874,
      "Ġhummed": 8875,
      "Ġdigs": 8876,
      "Ġthicker": 8877,
      "scotch": 8878,
      "Ġrewarding": 8879,
      "Ġvests": 8880,
      "Ġwiggling": 8881,
      "Ġstyles": 8882,
      "ĠElsie": 8883,
      "ĠPrince": 8884,
      "Ġdistracted": 8885,
      "Jeff": 8886,
      "Fro": 8887,
      "Jacob": 8888,
      "ĠOh": 8889,
      "Ġding": 8890,
      "onest": 8891,
      "stantly": 8892,
      "ĠMuffin": 8893,
      "ĠJason": 8894,
      "Ġpopping": 8895,
      "Ġhoses": 8896,
      "Ġenem": 8897,
      "Ġfoam": 8898,
      "Ġbaa": 8899,
      "rench": 8900,
      "Ġmeadows": 8901,
      "Ġcaterpillars": 8902,
      "Ġguarding": 8903,
      "Ġsupporting": 8904,
      "Ġnewspapers": 8905,
      "Ġdeserved": 8906,
      "Ġslithered": 8907,
      "Ġblonde": 8908,
      "Ġcommunicate": 8909,
      "Ġenemies": 8910,
      "Baa": 8911,
      "Lulu": 8912,
      "over": 8913,
      "well": 8914,
      "Ġfade": 8915,
      "Ġfaint": 8916,
      "Ġlull": 8917,
      "ĠTammy": 8918,
      "Ġnic": 8919,
      "ĠHurry": 8920,
      "ĠBer": 8921,
      "Ġrecess": 8922,
      "iciest": 8923,
      "Ġfacing": 8924,
      "Ġblade": 8925,
      "Ġpecks": 8926,
      "Ġskirts": 8927,
      "Ġbud": 8928,
      "Ġunderwater": 8929,
      "Ġenjoyable": 8930,
      "Ġdev": 8931,
      "Ġdifferently": 8932,
      "Ġsweetly": 8933,
      "ĠStill": 8934,
      "Ġteamwork": 8935,
      "Ġcosts": 8936,
      "Ġscattering": 8937,
      "Ġhooks": 8938,
      "Ġluckiest": 8939,
      "ĠAuntie": 8940,
      "Ġinjured": 8941,
      "Excitedly": 8942,
      "Ġsweaters": 8943,
      "wen": 8944,
      "ya": 8945,
      "Ãĥ": 8946,
      "inging": 8947,
      "lephant": 8948,
      "Ġstur": 8949,
      "Ġnoticing": 8950,
      "Ġwhipped": 8951,
      "ĠLy": 8952,
      "ĠLots": 8953,
      "Ġpeak": 8954,
      "ĠGinger": 8955,
      "Ġtalents": 8956,
      "ĠRuth": 8957,
      "Ġsleeps": 8958,
      "Ġcafe": 8959,
      "Ġobst": 8960,
      "ĠOf": 8961,
      "Ġembra": 8962,
      "ĠChoo": 8963,
      "Ġ''": 8964,
      "iolet": 8965,
      "Ġthumbs": 8966,
      "Ġfireflies": 8967,
      "ibly": 8968,
      "Ġdaily": 8969,
      "Ġpounds": 8970,
      "Ġcertainly": 8971,
      "Ġcoughed": 8972,
      "Ġnicest": 8973,
      "lish": 8974,
      "Ġtugging": 8975,
      "Ġarom": 8976,
      "Ġwig": 8977,
      "Ġcuc": 8978,
      "isdom": 8979,
      "Ġgummy": 8980,
      "Ġgroom": 8981,
      "otion": 8982,
      "Ġformed": 8983,
      "Ġdolly": 8984,
      "Ġworst": 8985,
      "Ġslapping": 8986,
      "ĠGemma": 8987,
      "Ġfishy": 8988,
      "Ġmonth": 8989,
      "Ġbowing": 8990,
      "Ġshoots": 8991,
      "Ġsmartest": 8992,
      "Ġwelcoming": 8993,
      "Ġbenches": 8994,
      "ebecca": 8995,
      "Ġbats": 8996,
      "Ġangrily": 8997,
      "Ġhoops": 8998,
      "Ġpurring": 8999,
      "Ġpoisonous": 9000,
      "Robbie": 9001,
      "Ġreflect": 9002,
      "ĠBobbie": 9003,
      "Keep": 9004,
      "Ġgates": 9005,
      "ĠSince": 9006,
      "orse": 9007,
      "Ġripp": 9008,
      "Ġhissing": 9009,
      "icious": 9010,
      "Ġblushed": 9011,
      "Ġblades": 9012,
      "ĠDeal": 9013,
      "Ġpeacock": 9014,
      "Ġdoorstep": 9015,
      "Jacky": 9016,
      "ĠAllie": 9017,
      "Ġmarking": 9018,
      "Ġwrapper": 9019,
      "Ġcurre": 9020,
      "Ġlizards": 9021,
      "Ġbicycles": 9022,
      "Ġvinegar": 9023,
      "Ġkayaking": 9024,
      "Ġburgers": 9025,
      "Ġsilently": 9026,
      "Which": 9027,
      "Suzie": 9028,
      "solut": 9029,
      "ĠMagic": 9030,
      "Ġlarger": 9031,
      "Ġoverwhelmed": 9032,
      "Danger": 9033,
      "oard": 9034,
      "Ġicky": 9035,
      "ĠSummer": 9036,
      "ĠHello": 9037,
      "Only": 9038,
      "Ġank": 9039,
      "Ġclaw": 9040,
      "ĠLu": 9041,
      "Ġlava": 9042,
      "rob": 9043,
      "Ġaboard": 9044,
      "Ġpokes": 9045,
      "Ġintently": 9046,
      "Ġowns": 9047,
      "Ġhopscotch": 9048,
      "Ġmustered": 9049,
      "Ġtunes": 9050,
      "ĠStartled": 9051,
      "Ġloyalty": 9052,
      "Ġcherish": 9053,
      "Ġimproving": 9054,
      "Ġharvest": 9055,
      "Ġstrokes": 9056,
      "ĠBirdie": 9057,
      "Ġflashes": 9058,
      "Ġscenery": 9059,
      "Ġmarveled": 9060,
      "Ġwhoosh": 9061,
      "Ġplaydate": 9062,
      "Pip": 9063,
      "Pretty": 9064,
      "edic": 9065,
      "ĠTears": 9066,
      "ili": 9067,
      "ani": 9068,
      "ĠBoun": 9069,
      "Ġshave": 9070,
      "ĠApril": 9071,
      "ĠJilly": 9072,
      "Ġsneezes": 9073,
      "ĠJose": 9074,
      "Ġglisten": 9075,
      "ĠPiggy": 9076,
      "ĠRich": 9077,
      "Ġcrouched": 9078,
      "Ġmessed": 9079,
      "ĠGracie": 9080,
      "ĠCharlotte": 9081,
      "Ġstirs": 9082,
      "Ġtickles": 9083,
      "ĠBehind": 9084,
      "Ġchews": 9085,
      "Ġintelligence": 9086,
      "Ġmugs": 9087,
      "Nothing": 9088,
      "Ġhesitation": 9089,
      "Years": 9090,
      "Ġcrowded": 9091,
      "Ġdesper": 9092,
      "Ġfacts": 9093,
      "People": 9094,
      "Ġexchange": 9095,
      "Ġtransformed": 9096,
      "Ġaroma": 9097,
      "Hurry": 9098,
      "Moo": 9099,
      "barrow": 9100,
      "Ġheels": 9101,
      "Ġhamb": 9102,
      "Ġbeast": 9103,
      "aming": 9104,
      "rice": 9105,
      "Ġplayhouse": 9106,
      "ushes": 9107,
      "andel": 9108,
      "Ġracer": 9109,
      "Ġruff": 9110,
      "Ġguards": 9111,
      "Ġdrying": 9112,
      "Ġwheelbarrow": 9113,
      "Ġcracker": 9114,
      "Ġjogger": 9115,
      "ĠWhich": 9116,
      "Ġkneeling": 9117,
      "ĠVery": 9118,
      "ÅĵWeÃ¢": 9119,
      "Ġscoops": 9120,
      "ĠSparkle": 9121,
      "Ġrevealing": 9122,
      "Ġcousins": 9123,
      "Spike": 9124,
      "ĠHootie": 9125,
      "Ġdefeat": 9126,
      "Ġrinse": 9127,
      "Ġhooves": 9128,
      "Ġhambur": 9129,
      "Mo": 9130,
      "Tara": 9131,
      "che": 9132,
      "ders": 9133,
      "ker": 9134,
      "rum": 9135,
      "Ġlil": 9136,
      "ider": 9137,
      "iring": 9138,
      "irty": 9139,
      "Ġwhir": 9140,
      "Ġbold": 9141,
      "Ġalley": 9142,
      "arky": 9143,
      "Ġlevel": 9144,
      "ĠEver": 9145,
      "ĠFish": 9146,
      "Ġrunner": 9147,
      "Ġunless": 9148,
      "ĠGirl": 9149,
      "Ġstores": 9150,
      "Ġmagically": 9151,
      "Ġtownspe": 9152,
[...]
