{
  "version": "1.0",
  "truncation": null,
  "padding": null,
  "added_tokens": [
    {
      "id": 0,
      "content": "<|endoftext|>",
      "single_word": false,
      "lstrip": false,
      "rstrip": false,
      "normalized": false,
      "special": true
    }
  ],
  "normalizer": null,
  "pre_tokenizer": {
    "type": "ByteLevel",
    "add_prefix_space": false,
    "trim_offsets": true,
    "use_regex": true
  },
  "post_processor": {
    "type": "ByteLevel",
    "add_prefix_space": true,
    "trim_offsets": false,
    "use_regex": true
  },
  "decoder": {
    "type": "ByteLevel",
    "add_prefix_space": true,
    "trim_offsets": true,
    "use_regex": true
  },
  "model": {
    "type": "BPE",
    "dropout": null,
    "unk_token": null,
    "continuing_subword_prefix": null,
    "end_of_word_suffix": null,
    "fuse_unk": false,
    "byte_fallback": false,
    "ignore_merges": false,
    "vocab": {
      "<|endoftext|>": 0,
      "!": 1,
      "$": 2,
      "&": 3,
      "(": 4,
      ")": 5,
      "*": 6,
      ",": 7,
      "-": 8,
      ".": 9,
      "/": 10,
      "0": 11,
      "1": 12,
      "2": 13,
      "3": 14,
      "4": 15,
      "5": 16,
      "6": 17,
      "7": 18,
      "8": 19,
      "9": 20,
      ":": 21,
      ";": 22,
      "<": 23,
      ">": 24,
      "?": 25,
      "A": 26,
      "B": 27,
      "C": 28,
      "D": 29,
      "E": 30,
      "F": 31,
      "G": 32,
      "H": 33,
      "I": 34,
      "J": 35,
      "K": 36,
      "L": 37,
      "M": 38,
      "N": 39,
      "O": 40,
      "P": 41,
      "Q": 42,
      "R": 43,
      "S": 44,
      "T": 45,
      "U": 46,
      "V": 47,
      "W": 48,
      "X": 49,
      "Y": 50,
      "Z": 51,
      "[": 52,
      "]": 53,
      "^": 54,
      "_": 55,
      "a": 56,
      "b": 57,
      "c": 58,
      "d": 59,
      "e": 60,
      "f": 61,
      "g": 62,
      "h": 63,
      "i": 64,
      "j": 65,
      "k": 66,
      "l": 67,
      "m": 68,
      "n": 69,
      "o": 70,
      "p": 71,
      "q": 72,
      "r": 73,
      "s": 74,
      "t": 75,
      "u": 76,
      "v": 77,
      "w": 78,
      "x": 79,
      "y": 80,
      "z": 81,
      "{": 82,
      "|": 83,
      "}": 84,
      "¢": 85,
      "£": 86,
      "¦": 87,
      "¨": 88,
      "©": 89,
      "ª": 90,
      "°": 91,
      "´": 92,
      "·": 93,
      "¹": 94,
      "½": 95,
      "¿": 96,
      "Â": 97,
      "Ã": 98,
      "Å": 99,
      "Î": 100,
      "Ï": 101,
      "×": 102,
      "â": 103,
      "Ċ": 104,
      "Ġ": 105,
      "Ģ": 106,
      "Ĥ": 107,
      "Ħ": 108,
      "İ": 109,
      "ı": 110,
      "Ĵ": 111,
      "ĵ": 112,
      "Ķ": 113,
      "ķ": 114,
      "Ĺ": 115,
      "ĺ": 116,
      "Ļ": 117,
      "ľ": 118,
      "Ŀ": 119,
      "ł": 120,
      "Ġt": 121,
      "he": 122,
      "Ġa": 123,
      "in": 124,
      "Ġs": 125,
      "Ġthe": 126,
      "Ġw": 127,
      "re": 128,
      "Ġo": 129,
      "ha": 130,
      "nd": 131,
      "er": 132,
      "ou": 133,
      "âĢ": 134,
      "Ġm": 135,
      "Ġb": 136,
      "ed": 137,
      "is": 138,
      "it": 139,
      "en": 140,
      "on": 141,
      "ing": 142,
      "Ġf": 143,
      "Ġc": 144,
      "Ġof": 145,
      "Ġto": 146,
      "Ġand": 147,
      "le": 148,
      "or": 149,
      "ll": 150,
      "ar": 151,
      "Ġin": 152,
      "Ġd": 153,
      "as": 154,
      "es": 155,
      "at": 156,
      "Ġh": 157,
      "an": 158,
      "Ġp": 159,
      "Ġhe": 160,
      "ĠI": 161,
      "Ġn": 162,
      "Ġha": 163,
      "om": 164,
      "hat": 165,
      "Ġl": 166,
      "Ġbe": 167,
      "ow": 168,
      "st": 169,
      "ot": 170,
      "âĢľ": 171,
      "ut": 172,
      "ly": 173,
      "ic": 174,
      "Ġe": 175,
      "Ġy": 176,
      "Ġth": 177,
      "ĠĠ": 178,
      "âĢĿ": 179,
      "se": 180,
      "ve": 181,
      "Ġthat": 182,
      "im": 183,
      "Ġg": 184,
      "ld": 185,
      "gh": 186,
      "Ġit": 187,
      "id": 188,
      "ver": 189,
      "ent": 190,
      "et": 191,
      "Ġwas": 192,
      "ce": 193,
      "Ġyou": 194,
      "ion": 195,
      "âĢĻ": 196,
      "Ġu": 197,
      "Ġon": 198,
      "Ġre": 199,
      "ith": 200,
      "Ġhis": 201,
      "ir": 202,
      "Ġwh": 203,
      "ay": 204,
      "Ġas": 205,
      "al": 206,
      "Ġwith": 207,
      "ur": 208,
      "ad": 209,
      "Ġfor": 210,
      "her": 211,
      "ght": 212,
      "Ġnot": 213,
      "Ġmy": 214,
      "Ġis": 215,
      "ro": 216,
      "Ġwe": 217,
      "ter": 218,
      "ri": 219,
      "Ġst": 220,
      "ould": 221,
      "Ġse": 222,
      "ch": 223,
      "Ġher": 224,
      "ain": 225,
      "Ġat": 226,
      "Ġan": 227,
      "ct": 228,
      "Ġhad": 229,
      "Ġme": 230,
      "oo": 231,
      "am": 232,
      "ab": 233,
      "ke": 234,
      "ill": 235,
      "Ġso": 236,
      "li": 237,
      "and": 238,
      "ĠĠĠĠ": 239,
      "ĠT": 240,
      "Ġsu": 241,
      ".âĢĿ": 242,
      "ore": 243,
      "ĠM": 244,
      "ck": 245,
      "ĠA": 246,
      "Ġall": 247,
      "pe": 248,
      "Ġhave": 249,
      "if": 250,
      "Ġhim": 251,
      "Ġsa": 252,
      "Ġbut": 253,
      "red": 254,
      "il": 255,
      "qu": 256,
      "rom": 257,
      "ss": 258,
      "ĠS": 259,
      "ich": 260,
      "all": 261,
      "th": 262,
      "Ġde": 263,
      "Ġby": 264,
      "ĠH": 265,
      "the": 266,
      "ome": 267,
      "Ġshe": 268,
      "ra": 269,
      "ge": 270,
      "ĠB": 271,
      "Ġsh": 272,
      "Ġthis": 273,
      "ĠâĢľ": 274,
      "Ġwhich": 275,
      "âĢĶ": 276,
      "Ġcon": 277,
      "Ġup": 278,
      "very": 279,
      "Ġfrom": 280,
      "ess": 281,
      "ard": 282,
      "to": 283,
      "ous": 284,
      "ul": 285,
      "hen": 286,
      "ight": 287,
      "Ġle": 288,
      "our": 289,
      "ust": 290,
      "pp": 291,
      "ast": 292,
      "ation": 293,
      "ol": 294,
      "Ġv": 295,
      "est": 296,
      "ĠW": 297,
      "lf": 298,
      "em": 299,
      "un": 300,
      "Ġwere": 301,
      "Ġex": 302,
      "Ġr": 303,
      "ant": 304,
      "Ġne": 305,
      "Ġk": 306,
      "ong": 307,
      "Ġman": 308,
      "Ġfe": 309,
      "ind": 310,
      "Ġdo": 311,
      "us": 312,
      "Ġsaid": 313,
      ",âĢĿ": 314,
      "han": 315,
      "ĠThe": 316,
      "art": 317,
      "Ġone": 318,
      "hale": 319,
      "Ġno": 320,
      "ound": 321,
      "ers": 322,
      "Ġor": 323,
      "out": 324,
      "one": 325,
      "ĠC": 326,
      "ure": 327,
      "Ġli": 328,
      "ough": 329,
      "Ġun": 330,
      "Ġwho": 331,
      "Ġal": 332,
      "self": 333,
      "Ġthere": 334,
      "Ġbeen": 335,
      "able": 336,
      "um": 337,
      "own": 338,
      "ate": 339,
      "ost": 340,
      "ist": 341,
      "Ġcom": 342,
      "ak": 343,
      "Ġare": 344,
      "ĠL": 345,
      "Ġthey": 346,
      "ort": 347,
      "Ġwhen": 348,
      "itt": 349,
      "ame": 350,
      "Ġyour": 351,
      "Ġwould": 352,
      "ood": 353,
      "ĠMr": 354,
      "Ġkn": 355,
      "pt": 356,
      "ther": 357,
      "la": 358,
      "reat": 359,
      "ook": 360,
      "el": 361,
      "Ġvery": 362,
      "Ġwhat": 363,
      "Ġthem": 364,
      "Ġab": 365,
      "Ġsome": 366,
      "Ġtheir": 367,
      "po": 368,
      "Ġam": 369,
      "ĠD": 370,
      "ven": 371,
      "Ġj": 372,
      "ide": 373,
      "ice": 374,
      "fe": 375,
      "od": 376,
      "te": 377,
      "?âĢĿ": 378,
      "Ġout": 379,
      "per": 380,
      "Ġag": 381,
      "Ġwill": 382,
      "Ġcould": 383,
      "eth": 384,
      "hed": 385,
      "ĠĠĠĠĠĠĠĠ": 386,
      "ine": 387,
      "ity": 388,
      "ved": 389,
      "Ġwhale": 390,
      "ive": 391,
      "ag": 392,
      "Ġaf": 393,
      "lo": 394,
      "ance": 395,
      "Ġmore": 396,
      "ip": 397,
      "Ġnow": 398,
      "ig": 399,
      "fore": 400,
      "ish": 401,
      "Ġupon": 402,
      "Ġpre": 403,
      "Ġany": 404,
      "Ġthen": 405,
      "Ġinto": 406,
      "of": 407,
      "Ġcan": 408,
      "we": 409,
      "Ġpro": 410,
      "Ġwor": 411,
      "ite": 412,
      "Ġpo": 413,
      "ĠP": 414,
      "de": 415,
      "Ġif": 416,
      "ac": 417,
      "ĠE": 418,
      "ry": 419,
      "Ġqu": 420,
      "urn": 421,
      "nt": 422,
      "ink": 423,
      "ime": 424,
      "ble": 425,
      "ally": 426,
      "Ġother": 427,
      "way": 428,
      "ue": 429,
      "The": 430,
      "ake": 431,
      "ence": 432,
      "ass": 433,
      "Ġsha": 434,
      "ather": 435,
      "Ġsp": 436,
      "Ġim": 437,
      "ious": 438,
      "ire": 439,
      "ings": 440,
      "ĠBut": 441,
      "uch": 442,
      "ond": 443,
      "Ġover": 444,
      "ĠF": 445,
      "wn": 446,
      "Ġthan": 447,
      "Ġlike": 448,
      "be": 449,
      "are": 450,
      "ies": 451,
      "ittle": 452,
      "Ġro": 453,
      "Ġen": 454,
      "Ġsee": 455,
      "age": 456,
      "cc": 457,
      "ving": 458,
      "ought": 459,
      "ĠHe": 460,
      "au": 461,
      "Ġsuch": 462,
      "ep": 463,
      "ness": 464,
      "Ġagain": 465,
      "ie": 466,
      "Ġ_": 467,
      "ile": 468,
      "ick": 469,
      "!âĢĿ": 470,
      "Ġhas": 471,
      "Ġhow": 472,
      "Ġus": 473,
      "Ġknow": 474,
      "Ġonly": 475,
      "Ġdid": 476,
      "Ġgo": 477,
      "ĠN": 478,
      "Ġad": 479,
      "Ġshould": 480,
      "ment": 481,
      "Ġbo": 482,
      "Ġtw": 483,
      "Ġlittle": 484,
      "Ġar": 485,
      "ree": 486,
      "Ġmust": 487,
      "ĠG": 488,
      "here": 489,
      "liz": 490,
      "Ġdown": 491,
      "ward": 492,
      "Ġye": 493,
      "sh": 494,
      "ark": 495,
      "Ġdis": 496,
      "led": 497,
      "Ġbefore": 498,
      "ose": 499,
      "Ġtime": 500,
      "ne": 501,
      "ran": 502,
      "other": 503,
      "ĠIt": 504,
      "Ġper": 505,
      "ction": 506,
      "Ġlook": 507,
      "ĠSt": 508,
      "Ġfa": 509,
      "ars": 510,
      "abeth": 511,
      "lizabeth": 512,
      "less": 513,
      "for": 514,
      "Ġseem": 515,
      "ert": 516,
      "Ġhand": 517,
      "ress": 518,
      "end": 519,
      "ise": 520,
      "ated": 521,
      "ried": 522,
      "Ġho": 523,
      "Ġmuch": 524,
      "ack": 525,
      "ng": 526,
      "Ġits": 527,
      "ade": 528,
      "Ġsay": 529,
      "Ġrem": 530,
      "that": 531,
      "âĢĺ": 532,
      "ount": 533,
      "his": 534,
      "Ġmay": 535,
      "Ġpart": 536,
      "ell": 537,
      "Ġgreat": 538,
      "cy": 539,
      "Ġabout": 540,
      "ever": 541,
      "Ġevery": 542,
      "ap": 543,
      "Ġlong": 544,
      "Ġafter": 545,
      "You": 546,
      "ning": 547,
      "Ġmight": 548,
      "Ġtoo": 549,
      "irst": 550,
      "ful": 551,
      "ull": 552,
      "ru": 553,
      "Ġday": 554,
      "ily": 555,
      "man": 556,
      "ĠJ": 557,
      "ves": 558,
      "ady": 559,
      "ced": 560,
      "Ġbr": 561,
      "ove": 562,
      "Ġown": 563,
      "hing": 564,
      "Ġcomp": 565,
      "int": 566,
      "Ġthink": 567,
      "Ġob": 568,
      "Ġmost": 569,
      "Ġoff": 570,
      "Ġsc": 571,
      "ĠO": 572,
      "ary": 573,
      "Ġour": 574,
      "Ġthese": 575,
      "nder": 576,
      "Ġhar": 577,
      "not": 578,
      "Ġnever": 579,
      "iss": 580,
      "Ġtwo": 581,
      "Ġsm": 582,
      "ud": 583,
      "ub": 584,
      "ife": 585,
      "oll": 586,
      "Ġold": 587,
      "Ġey": 588,
      "Ġcha": 589,
      "Ġgr": 590,
      "hab": 591,
      "Ġdes": 592,
      "Ġch": 593,
      "Ġfirst": 594,
      "right": 595,
      "ps": 596,
      "pect": 597,
      "Ġthought": 598,
      "ach": 599,
      "Ġway": 600,
      "so": 601,
      "Ġship": 602,
      "wh": 603,
      "Ġpl": 604,
      "Ġcont": 605,
      "ling": 606,
      "Ġthr": 607,
      "Ġlast": 608,
      "Ġthough": 609,
      "Ġbl": 610,
      "Ġtr": 611,
      "Ġeven": 612,
      "Ġyet": 613,
      "ĠElizabeth": 614,
      "ild": 615,
      "Ġgood": 616,
      "--": 617,
      "con": 618,
      "Ġhead": 619,
      "ked": 620,
      "Ġent": 621,
      "ĠAnd": 622,
      "ber": 623,
      "ible": 624,
      "Ġwell": 625,
      "ath": 626,
      "Ġshall": 627,
      "ft": 628,
      "ĠR": 629,
      "Ġbeing": 630,
      "ign": 631,
      "Ġhere": 632,
      "sent": 633,
      "ave": 634,
      "uck": 635,
      "Ġever": 636,
      "Ġstill": 637,
      "ord": 638,
      "riend": 639,
      "je": 640,
      "tter": 641,
      "ouse": 642,
      "Ġmade": 643,
      "pen": 644,
      "mes": 645,
      "com": 646,
      "ions": 647,
      "ces": 648,
      "ged": 649,
      "ple": 650,
      "Ġwhere": 651,
      "Ġpass": 652,
      "Ġthose": 653,
      "Ġspe": 654,
      "ied": 655,
      "ted": 656,
      "ĠAhab": 657,
      "atter": 658,
      "Ġres": 659,
      "ĠĠĠĠĠĠĠĠĠĠĠĠĠĠĠĠ": 660,
      "oy": 661,
      "olmes": 662,
      "equ": 663,
      "most": 664,
      "Ġwat": 665,
      "Ġsea": 666,
      "But": 667,
      "ley": 668,
      "Ġend": 669,
      "Ġsoon": 670,
      "It": 671,
      "Ġaway": 672,
      "Ġcons": 673,
      "ff": 674,
      "Ġpla": 675,
      "Ġgl": 676,
      "ertain": 677,
      "Ġturn": 678,
      "arcy": 679,
      "Ġbeg": 680,
      "Ġseemed": 681,
      "apt": 682,
      "ty": 683,
      "ane": 684,
      "Ġfeel": 685,
      "Ġpe": 686,
      "ase": 687,
      "Ġboat": 688,
      "light": 689,
      "igh": 690,
      "lice": 691,
      "iness": 692,
      "Ġback": 693,
      "ory": 694,
      "ister": 695,
      "Ġco": 696,
      "Ġatt": 697,
      "med": 698,
      "Ġacc": 699,
      "Ġcame": 700,
      "ject": 701,
      "iz": 702,
      "ins": 703,
      "Ġrep": 704,
      "wards": 705,
      "ci": 706,
      "Ġfriend": 707,
      "Ġwithout": 708,
      "Ġcome": 709,
      "imes": 710,
      "ren": 711,
      "ĠShe": 712,
      "ĠHolmes": 713,
      "Ġap": 714,
      "Ġhapp": 715,
      "ail": 716,
      "os": 717,
      "Ġimp": 718,
      "Ġfound": 719,
      "me": 720,
      "Ġinst": 721,
      "Ġeyes": 722,
      "ared": 723,
      "Ġmar": 724,
      "Ġret": 725,
      "rew": 726,
      "Ġjust": 727,
      "Ġsom": 728,
      "Ġpr": 729,
      "ĠDarcy": 730,
      "Ġsame": 731,
      "ks": 732,
      "Ġwhile": 733,
      "Ġsaw": 734,
      "ER": 735,
      "Ġhimself": 736,
      "av": 737,
      "ner": 738,
      "Ġunder": 739,
      "les": 740,
      "HA": 741,
      "net": 742,
      "lie": 743,
      "Ġmake": 744,
      "Ġcall": 745,
      "ret": 746,
      "mer": 747,
      "cl": 748,
      "Ġround": 749,
      "pl": 750,
      "Ġside": 751,
      "TER": 752,
      "hes": 753,
      "ten": 754,
      "Ġthree": 755,
      "Ġthrough": 756,
      "ex": 757,
      "Ġlife": 758,
      "king": 759,
      "Ġheard": 760,
      "iv": 761,
      "PTER": 762,
      "Ġfl": 763,
      "ations": 764,
      "HAPTER": 765,
      "thing": 766,
      "Ġke": 767,
      "Ġcl": 768,
      "Ġmany": 769,
      "ened": 770,
      "Ġbec": 771,
      "Ġnothing": 772,
      "aptain": 773,
      "ished": 774,
      "aking": 775,
      "Ġra": 776,
      "ery": 777,
      "owed": 778,
      "but": 779,
      "ows": 780,
      "ting": 781,
      "Ġyoung": 782,
      "with": 783,
      "Ġcomm": 784,
      "was": 785,
      "ennet": 786,
      "su": 787,
      "ors": 788,
      "ained": 789,
      "ĠMiss": 790,
      "Ġmen": 791,
      "Ġmyself": 792,
      "Que": 793,
      "ways": 794,
      "Ġword": 795,
      "Ġroom": 796,
      "ĠMrs": 797,
      "ause": 798,
      "Ġple": 799,
      "oment": 800,
      "ular": 801,
      "Ġsub": 802,
      "CHAPTER": 803,
      "ason": 804,
      "Ġlo": 805,
      "âĢľâĢĺ": 806,
      "ĠAlice": 807,
      "ger": 808,
      "Ġsister": 809,
      "Ġcried": 810,
      "get": 811,
      "men": 812,
      "Ġdist": 813,
      "ĠYou": 814,
      "ined": 815,
      "Ġfather": 816,
      "Ġnight": 817,
      "cted": 818,
      "Ġwr": 819,
      "Ġwind": 820,
      "air": 821,
      "by": 822,
      "Ġcar": 823,
      "ser": 824,
      "oth": 825,
      "Ġonce": 826,
      "Ġmean": 827,
      "ene": 828,
      "Ġseen": 829,
      "He": 830,
      "vent": 831,
      "Ġtell": 832,
      "Ġfar": 833,
      "ĠIn": 834,
      "Ġappe": 835,
      "And": 836,
      "you": 837,
      "Ġapp": 838,
      "ho": 839,
      "ens": 840,
      "Ġsupp": 841,
      "up": 842,
      "oub": 843,
      "den": 844,
      "har": 845,
      "ial": 846,
      "Ġwent": 847,
      "ĠBennet": 848,
      "ody": 849,
      "co": 850,
      "aught": 851,
      "ched": 852,
      "Ġinde": 853,
      "Ġhouse": 854,
      "ĠWhale": 855,
      "head": 856,
      "ither": 857,
      "ingley": 858,
      "Ġear": 859,
      "ĠK": 860,
      "Ġcr": 861,
      "ian": 862,
      "Ġdear": 863,
      "land": 864,
      "Ġsur": 865,
      "Ġmor": 866,
      "Ġcertain": 867,
      "Ġherself": 868,
      "Ġhowever": 869,
      "pr": 870,
      "Ġhard": 871,
      "lt": 872,
      "Ġsw": 873,
      "Ġsat": 874,
      "Ġmoment": 875,
      "ener": 876,
      "Ġfam": 877,
      "its": 878,
      "ict": 879,
      "ubb": 880,
      "arb": 881,
      "ew": 882,
      "ething": 883,
      "ered": 884,
      "Ġnat": 885,
      "Ġfew": 886,
      "rest": 887,
      "Ġopen": 888,
      "Ġsec": 889,
      "ia": 890,
      "ib": 891,
      "sel": 892,
      "Ġget": 893,
      "Ġheart": 894,
      "ower": 895,
      "Ġ1": 896,
      "Ġac": 897,
      "Ġstran": 898,
      "Ġposs": 899,
      "ix": 900,
      "Ġmind": 901,
      "ures": 902,
      "Ġworld": 903,
      "ĠQue": 904,
      "ĠâĢĺ": 905,
      "Ġtake": 906,
      "Ġset": 907,
      "Ġthing": 908,
      "Ġhands": 909,
      "ently": 910,
      "ĠThere": 911,
      "Ġadd": 912,
      "ons": 913,
      "Ġpleas": 914,
      "eg": 915,
      "now": 916,
      "Ġplace": 917,
      "Ġ(": 918,
      "ition": 919,
      "Ġsail": 920,
      "Ġocc": 921,
      "haps": 922,
      "Ġwhole": 923,
      "ult": 924,
      "der": 925,
      "ham": 926,
      "ention": 927,
      "cei": 928,
      "perm": 929,
      "Ġfind": 930,
      "Ġhalf": 931,
      "Ġbelie": 932,
      "Ġpresent": 933,
      "ĠBingley": 934,
      "Ġalmost": 935,
      "Ġreturn": 936,
      "ating": 937,
      "ĠFor": 938,
      "itu": 939,
      "ween": 940,
      "ider": 941,
      "sp": 942,
      "Ġright": 943,
      "Ġlight": 944,
      "Ġalways": 945,
      "Ġpoint": 946,
      "Ġamong": 947,
      "Ġpur": 948,
      "Ġnear": 949,
      ".âĢĻ": 950,
      "Ġpers": 951,
      "pos": 952,
      "aw": 953,
      "Ġwa": 954,
      "Ġcur": 955,
      "Ġface": 956,
      "Ġmis": 957,
      "ical": 958,
      "irc": 959,
      "Ġinte": 960,
      "vers": 961,
      "read": 962,
      "Ġmatter": 963,
      "entle": 964,
      "Ġdoor": 965,
      "Ġquite": 966,
      "Ġindeed": 967,
      "Ġmon": 968,
      "Ġfelt": 969,
      "ock": 970,
      "ye": 971,
      "Ġbet": 972,
      "nded": 973,
      "ited": 974,
      "Ġem": 975,
      "fect": 976,
      "Ġtowards": 977,
      "ĠJane": 978,
      "Ġleft": 979,
      "Ġmorning": 980,
      "fort": 981,
      "ised": 982,
      "Ġans": 983,
      "Ġenough": 984,
      "ured": 985,
      "which": 986,
      "equeg": 987,
      "press": 988,
      "aring": 989,
      "Ġinc": 990,
      "Ġgive": 991,
      "Ġcannot": 992,
      "ince": 993,
      "vi": 994,
      "like": 995,
      "uc": 996,
      "Ġwond": 997,
      "ern": 998,
      "Ġsmall": 999,
      "Ġwal": 1000,
      "Ġcount": 1001,
      "ceed": 1002,
      "Ġrest": 1003,
      "ably": 1004,
      "rem": 1005,
      "Ġchan": 1006,
      "Ġlove": 1007,
      "Ġanother": 1008,
      "ĠY": 1009,
      "Ġvis": 1010,
      "Ġkind": 1011,
      "lic": 1012,
      "Ġind": 1013,
      "Ġreg": 1014,
      "Ġlooked": 1015,
      "hy": 1016,
      "Ġput": 1017,
      "Ġsomething": 1018,
      "Ġcour": 1019,
      "Ġdra": 1020,
      "Ġhum": 1021,
      "Ġass": 1022,
      "Ġhope": 1023,
      "my": 1024,
      "Ġsl": 1025,
      "Ġhor": 1026,
      "Ġhour": 1027,
      "Ġeach": 1028,
      "Ġsir": 1029,
      "Ġinter": 1030,
      "Ġdone": 1031,
      "ott": 1032,
      "lied": 1033,
      "Ġconf": 1034,
      "Ġlet": 1035,
      "lock": 1036,
      "Ġagainst": 1037,
      "Ġinv": 1038,
      "Ġstand": 1039,
      "Ġsort": 1040,
      "Ġgi": 1041,
      "Ġstr": 1042,
      "pped": 1043,
      "ĠStubb": 1044,
      "Ġfoll": 1045,
      "Ġwhom": 1046,
      "Ġste": 1047,
      "lack": 1048,
      "What": 1049,
      "bo": 1050,
      "Ġdoub": 1051,
      "owing": 1052,
      "ls": 1053,
      "Ġtill": 1054,
      "Ġair": 1055,
      "Ġser": 1056,
      "cept": 1057,
      "ale": 1058,
      "gr": 1059,
      "Ġletter": 1060,
      "Ġnew": 1061,
      "Ġdoes": 1062,
      "Ġbetween": 1063,
      "ken": 1064,
      "vil": 1065,
      "Ġboth": 1066,
      "Ġtook": 1067,
      "ace": 1068,
      "ms": 1069,
      "ross": 1070,
      "gether": 1071,
      "ped": 1072,
      "unt": 1073,
      "ship": 1074,
      "Ġte": 1075,
      "Ġsil": 1076,
      "ash": 1077,
      "Ġref": 1078,
      "Ġreason": 1079,
      "Ġsun": 1080,
      "Ġalso": 1081,
      "Ġgentle": 1082,
      "aid": 1083,
      "val": 1084,
      "Ġche": 1085,
      "Mr": 1086,
      "Oh": 1087,
      "ual": 1088,
      "ingly": 1089,
      "ately": 1090,
      "Ġyears": 1091,
      "Ġcle": 1092,
      "Ġnor": 1093,
      "Ġlar": 1094,
      "ĠMy": 1095,
      "no": 1096,
      "oice": 1097,
      "she": 1098,
      "Ġtal": 1099,
      "Ġbus": 1100,
      "Ġint": 1101,
      "Ġgener": 1102,
      "ĠWhat": 1103,
      "aut": 1104,
      "Ġcor": 1105,
      "oman": 1106,
      "ances": 1107,
      "stand": 1108,
      "ĠThey": 1109,
      "Ġadv": 1110,
      "hether": 1111,
      "Ġdif": 1112,
      "Ġbetter": 1113,
      "Ġcontin": 1114,
      "ute": 1115,
      "Ġthou": 1116,
      "Ġwant": 1117,
      "Ġread": 1118,
      "Ġsure": 1119,
      "gg": 1120,
      "Ġclo": 1121,
      "Ġrather": 1122,
      "aken": 1123,
      "Ġconsider": 1124,
      "oud": 1125,
      "him": 1126,
      "Ġwhite": 1127,
      "Ġins": 1128,
      "Ġhaving": 1129,
      "Ġrec": 1130,
      "uring": 1131,
      "ĠAs": 1132,
      "Ġless": 1133,
      "Ġwhales": 1134,
      "Ġmin": 1135,
      "Ġoften": 1136,
      "Ġhel": 1137,
      "Ġhigh": 1138,
      "Ġpoor": 1139,
      "ceived": 1140,
      "ired": 1141,
      "og": 1142,
      "Ġthings": 1143,
      "Ġharpo": 1144,
      "Ġfamily": 1145,
      "day": 1146,
      "had": 1147,
      "Ġcase": 1148,
      "ates": 1149,
      "ents": 1150,
      "eng": 1151,
      "Ġfell": 1152,
      "ler": 1153,
      "Ġbro": 1154,
      "ĠThis": 1155,
      "this": 1156,
      "ully": 1157,
      "Ġcalled": 1158,
      "Elizabeth": 1159,
      "etimes": 1160,
      "Ġter": 1161,
      "Ġbest": 1162,
      "Ġperhaps": 1163,
      "Ġhear": 1164,
      "Ġwater": 1165,
      "cu": 1166,
      "Ġcirc": 1167,
      "any": 1168,
      "ains": 1169,
      "Ġpassed": 1170,
      "ĠQueequeg": 1171,
      "Ġtra": 1172,
      "Ġwish": 1173,
      "ang": 1174,
      "Ġland": 1175,
      "Ġwhose": 1176,
      "dden": 1177,
      "tern": 1178,
      "ickham": 1179,
      "Ġbegan": 1180,
      "what": 1181,
      "Ġsk": 1182,
      "Ġhome": 1183,
      "arbuck": 1184,
      "xt": 1185,
      "Ġcreat": 1186,
      "ster": 1187,
      "aint": 1188,
      "pre": 1189,
      "und": 1190,
      "Ġsle": 1191,
      "Ġswe": 1192,
      "Ġdet": 1193,
      "Ġinstant": 1194,
      "In": 1195,
      "tle": 1196,
      "ching": 1197,
      "Ġfo": 1198,
      "ank": 1199,
      "Ġknew": 1200,
      "ollins": 1201,
      "yd": 1202,
      "Ġdire": 1203,
      "iet": 1204,
      "there": 1205,
      "Ġleast": 1206,
      "ustr": 1207,
      "Yes": 1208,
      "bour": 1209,
      "cess": 1210,
      "row": 1211,
      "ĠV": 1212,
      "Ġsince": 1213,
      "Ġname": 1214,
      "Ġgu": 1215,
      "Ġsudden": 1216,
      "Ġstrange": 1217,
      "ield": 1218,
      "Ġel": 1219,
      "Ġmother": 1220,
      "ĠWe": 1221,
      "Ġdays": 1222,
      "ering": 1223,
      "ool": 1224,
      "Ġgoing": 1225,
      "af": 1226,
      "ah": 1227,
      "ĠCaptain": 1228,
      "Ġobser": 1229,
      "ph": 1230,
      "Ġspo": 1231,
      "Ġinf": 1232,
      "ask": 1233,
      "cing": 1234,
      "mon": 1235,
      "pro": 1236,
      "sc": 1237,
      "Ġsight": 1238,
      "oun": 1239,
      "Ġblack": 1240,
      "Ġext": 1241,
      "Ġide": 1242,
      "ides": 1243,
      "riage": 1244,
      "Ġcourse": 1245,
      "ying": 1246,
      "Ġri": 1247,
      "Ġdark": 1248,
      "ĠIf": 1249,
      "Ġturned": 1250,
      "ually": 1251,
      "will": 1252,
      "ream": 1253,
      "ĠSo": 1254,
      "ung": 1255,
      "Ġdoubt": 1256,
      "act": 1257,
      "op": 1258,
      "reet": 1259,
      "Ġgone": 1260,
      "Ġremark": 1261,
      "Ġfre": 1262,
      "ĠĠĠ": 1263,
      "Ġreally": 1264,
      "Ġdeath": 1265,
      "equod": 1266,
      "Ġbelieve": 1267,
      "Ġdead": 1268,
      "Ġdeep": 1269,
      "No": 1270,
      "ont": 1271,
      "Ġthus": 1272,
      "room": 1273,
      "Ġdeck": 1274,
      "ember": 1275,
      "selves": 1276,
      "ued": 1277,
      "rent": 1278,
      "Ġfin": 1279,
      "Ġfore": 1280,
      "Ġcare": 1281,
      "ĠCollins": 1282,
      "ydia": 1283,
      "az": 1284,
      "part": 1285,
      "have": 1286,
      "Ġfull": 1287,
      "Ġtold": 1288,
      "ctions": 1289,
      "chan": 1290,
      "ton": 1291,
      "Ġsou": 1292,
      "Ġwhether": 1293,
      "Ġbre": 1294,
      "arm": 1295,
      "Ġexpress": 1296,
      "Ġmanner": 1297,
      "ĠStarbuck": 1298,
      "Ġcol": 1299,
      "ats": 1300,
      "Ġlay": 1301,
      "ĠHis": 1302,
      "ĠWickham": 1303,
      "Ġquest": 1304,
      "ford": 1305,
      "itude": 1306,
      "arn": 1307,
      "Ġconc": 1308,
      "Ġvoice": 1309,
      "There": 1310,
      "rence": 1311,
      "_.": 1312,
      "from": 1313,
      "Ġgave": 1314,
      "night": 1315,
      "ĠTh": 1316,
      "tered": 1317,
      "Ġaffe": 1318,
      "Ġlarge": 1319,
      "My": 1320,
      "lled": 1321,
      "Ġwithin": 1322,
      "rac": 1323,
      "Ġanything": 1324,
      "app": 1325,
      "fully": 1326,
      "Ġill": 1327,
      "Ġsing": 1328,
      "Ġsound": 1329,
      "Ġdro": 1330,
      "Ġeng": 1331,
      "ĠGod": 1332,
      "Ġspeak": 1333,
      "Ġwords": 1334,
      "Ġbusiness": 1335,
      "Ġir": 1336,
      "llustr": 1337,
      "Ġgir": 1338,
      "Ġfeet": 1339,
      "Ġchild": 1340,
      "Ġreplied": 1341,
      "Ġinterest": 1342,
      "iting": 1343,
      "orn": 1344,
      "Ġshort": 1345,
      "Ġlive": 1346,
      "Ġwonder": 1347,
      "Ġmo": 1348,
      "ising": 1349,
      "Ġasked": 1350,
      "ural": 1351,
      "liar": 1352,
      "Illustr": 1353,
      "wer": 1354,
      "Ġbed": 1355,
      "Ġfour": 1356,
      "ater": 1357,
      "uth": 1358,
      "used": 1359,
      "Ġeye": 1360,
      "Illustration": 1361,
      "Ġdaught": 1362,
      "icular": 1363,
      "Ġeas": 1364,
      "Ġgot": 1365,
      "ific": 1366,
      "though": 1367,
      "Ġfear": 1368,
      "Ġjo": 1369,
      "br": 1370,
      "dis": 1371,
      "long": 1372,
      "Ġdon": 1373,
      "empt": 1374,
      "Ġexpect": 1375,
      "Ġnext": 1376,
      "ĠLady": 1377,
      "pose": 1378,
      "Ġwork": 1379,
      "Ġshar": 1380,
      "body": 1381,
      "Ġdec": 1382,
      "Ġknown": 1383,
      "ength": 1384,
      "go": 1385,
      "Ġrel": 1386,
      "ility": 1387,
      "ĠPequod": 1388,
      "ached": 1389,
      "iously": 1390,
      ",âĢĻ": 1391,
      "Ġfire": 1392,
      "als": 1393,
      "ĠHow": 1394,
      "Ġalong": 1395,
      "Well": 1396,
      "Ġwood": 1397,
      "Ġlad": 1398,
      "ĠWh": 1399,
      "Ġtherefore": 1400,
      "ĠLydia": 1401,
      "Ġhold": 1402,
      "Ġact": 1403,
      "ready": 1404,
      "Ġfr": 1405,
      "ided": 1406,
      "Ġbecause": 1407,
      "where": 1408,
      "fic": 1409,
      "Ġtimes": 1410,
      "Ġtogether": 1411,
      "Ġunt": 1412,
      "Ġwoman": 1413,
      "res": 1414,
      "poss": 1415,
      "Ġkeep": 1416,
      "bed": 1417,
      "ople": 1418,
      "eness": 1419,
      "Ġrun": 1420,
      "akes": 1421,
      "Ġspir": 1422,
      "aven": 1423,
      "old": 1424,
      "ĠAt": 1425,
      "how": 1426,
      "Ġes": 1427,
      "leg": 1428,
      "ird": 1429,
      "Ġsometimes": 1430,
      "That": 1431,
      "nding": 1432,
      "Ġmark": 1433,
      "Ġbody": 1434,
      "Ġbeaut": 1435,
      "Ġuse": 1436,
      "iled": 1437,
      "itted": 1438,
      "Ġadm": 1439,
      "Ġhardly": 1440,
      "Ġperson": 1441,
      "Ġhelp": 1442,
      "She": 1443,
      "This": 1444,
      "ient": 1445,
      "ience": 1446,
      "Ġsign": 1447,
      "orm": 1448,
      "ident": 1449,
      "veral": 1450,
      "rie": 1451,
      "iew": 1452,
      "Ġobject": 1453,
      "Ġfeelings": 1454,
      "!âĢĶ": 1455,
      "cri": 1456,
      "Ġbene": 1457,
      "isf": 1458,
      "Ġhur": 1459,
      "ousand": 1460,
      "ĠWhen": 1461,
      "racter": 1462,
      "when": 1463,
      "outh": 1464,
      "Ġfur": 1465,
      "Ġlady": 1466,
      "Ġform": 1467,
      "ards": 1468,
      "ferent": 1469,
      "Ġfact": 1470,
      "ucket": 1471,
      ",--": 1472,
      "sed": 1473,
      "Ġcond": 1474,
      "aster": 1475,
      "Ġwhy": 1476,
      "amp": 1477,
      "Ġleave": 1478,
      "overed": 1479,
      "Ġhappy": 1480,
      "Ġsubject": 1481,
      "Ġappear": 1482,
      "Ġidea": 1483,
      "iam": 1484,
      "ense": 1485,
      "Ġdisc": 1486,
      "ressed": 1487,
      "your": 1488,
      "Ġmur": 1489,
      "Ġlength": 1490,
      "umst": 1491,
      "ney": 1492,
      "Ġlooking": 1493,
      "Ġseems": 1494,
      "Ġcertainly": 1495,
      "would": 1496,
      "Ġcrew": 1497,
      "asion": 1498,
      "Ġunc": 1499,
      "ĠEng": 1500,
      "Ġbrought": 1501,
      "ts": 1502,
      "uff": 1503,
      "ities": 1504,
      "Ġlist": 1505,
      "ference": 1506,
      "Ġprof": 1507,
      "Ġmeans": 1508,
      "Ġtaken": 1509,
      "Ġaw": 1510,
      "Ġmad": 1511,
      "Ġprom": 1512,
      "Ġtrue": 1513,
      "Ġcountry": 1514,
      "hind": 1515,
      "whale": 1516,
      "Ġline": 1517,
      "Ġwild": 1518,
      "Ġpower": 1519,
      "Ġstood": 1520,
      "Ġleg": 1521,
      "ĠOh": 1522,
      "Ġentire": 1523,
      "Ġaccount": 1524,
      "ec": 1525,
      "Ġtable": 1526,
      "Ġstart": 1527,
      "itting": 1528,
      "rying": 1529,
      "Ġarm": 1530,
      "Ġarri": 1531,
      "Ġelse": 1532,
      "ror": 1533,
      "wise": 1534,
      "haling": 1535,
      "Ġcra": 1536,
      "Ġthy": 1537,
      "ump": 1538,
      "ief": 1539,
      "Ġsurpr": 1540,
      "Ġpossible": 1541,
      "side": 1542,
      "Ġhon": 1543,
      "ans": 1544,
      "Ġitself": 1545,
      "Ġstep": 1546,
      "Ġyourself": 1547,
      "atherine": 1548,
      "Ġvisit": 1549,
      "Ġgiven": 1550,
      "Ġsleep": 1551,
      "some": 1552,
      "inc": 1553,
      "Ġwife": 1554,
      "Ġmet": 1555,
      "Ġtown": 1556,
      "Ġeither": 1557,
      "Ġalone": 1558,
      "aged": 1559,
      "Ġcomple": 1560,
      "Ġstrong": 1561,
      "du": 1562,
      "ote": 1563,
      "Ġfort": 1564,
      "ĠSperm": 1565,
      "Ġabs": 1566,
      "Ġothers": 1567,
      "ĠOn": 1568,
      "Ġchar": 1569,
      "wing": 1570,
      "Ġsy": 1571,
      "Ġop": 1572,
      "utes": 1573,
      "Ġplay": 1574,
      "medi": 1575,
      "wor": 1576,
      "Ġcal": 1577,
      "ĠThat": 1578,
      "were": 1579,
      "Ġunderstand": 1580,
      "Ġaffection": 1581,
      "?âĢĻ": 1582,
      "As": 1583,
      "How": 1584,
      "aving": 1585,
      "ier": 1586,
      "look": 1587,
      "ught": 1588,
      "Ġsens": 1589,
      "Ġthee": 1590,
      "reen": 1591,
      "Ġdest": 1592,
      "Ġstru": 1593,
      "Ġcoming": 1594,
      "Ġquick": 1595,
      "form": 1596,
      "Ġboats": 1597,
      "Ġacqu": 1598,
      "Ġtri": 1599,
      "Ġfish": 1600,
      "Ġneed": 1601,
      "ĠNo": 1602,
      "Ġevening": 1603,
      "Ġanswer": 1604,
      "Ġclose": 1605,
      "spe": 1606,
      "att": 1607,
      "Ġdelight": 1608,
      "ushed": 1609,
      "Ġfriends": 1610,
      "ixed": 1611,
      "eav": 1612,
      "zy": 1613,
      "oured": 1614,
      "Ġcut": 1615,
      "Ġlost": 1616,
      "illed": 1617,
      "them": 1618,
      "ages": 1619,
      "ments": 1620,
      "Ġgeneral": 1621,
      "over": 1622,
      "Ġduring": 1623,
      "Ġhat": 1624,
      "ĠThen": 1625,
      "they": 1626,
      "wered": 1627,
      "Ġresol": 1628,
      "Ġbecame": 1629,
      "Ġpleasure": 1630,
      "We": 1631,
      "Ġsim": 1632,
      "erm": 1633,
      "Ġdan": 1634,
      "athan": 1635,
      "Ġseveral": 1636,
      "antucket": 1637,
      "ĠKing": 1638,
      "culiar": 1639,
      "Now": 1640,
      "ee": 1641,
      "iner": 1642,
      "Ġopp": 1643,
      "Ġfan": 1644,
      "ety": 1645,
      "Ġmeet": 1646,
      "Ġpeople": 1647,
      "Ġadded": 1648,
      "Ġsoul": 1649,
      "When": 1650,
      "Ġtran": 1651,
      "Ġmid": 1652,
      "ative": 1653,
      "Ġmere": 1654,
      "Ġalready": 1655,
      "Ġcharacter": 1656,
      "ĠĠĠĠĠĠĠĠĠĠĠĠĠĠĠĠĠĠĠĠĠĠĠĠĠĠĠĠĠĠĠĠ": 1657,
      "Ġnature": 1658,
      "viathan": 1659,
      "ob": 1660,
      "ines": 1661,
      "ones": 1662,
      "ager": 1663,
      "ondon": 1664,
      "Ġspoke": 1665,
      "Ġpa": 1666,
      "Ġlau": 1667,
      "their": 1668,
      "Ġimag": 1669,
      "Ġrespect": 1670,
      "Ġsecond": 1671,
      "Ġut": 1672,
      "Ġsent": 1673,
      "Ġcab": 1674,
      "Ġappeared": 1675,
      "Ġfellow": 1676,
      "Ġuntil": 1677,
      "arr": 1678,
      "Ġequ": 1679,
      "Ġstri": 1680,
      "Ġsuff": 1681,
      "une": 1682,
      "Ġparticular": 1683,
      "Ġbrother": 1684,
      "Ġclear": 1685,
      "Ġsuddenly": 1686,
      "_,": 1687,
      "fin": 1688,
      "ug": 1689,
      "yed": 1690,
      "Ġflo": 1691,
      "lect": 1692,
      "Ġwee": 1693,
      "Ġsum": 1694,
      "laim": 1695,
      "ĠDo": 1696,
      "well": 1697,
      "oyage": 1698,
      "do": 1699,
      "ging": 1700,
      "nat": 1701,
      "under": 1702,
      "Ġcap": 1703,
      "Ġlow": 1704,
      "Ġbehind": 1705,
      "Ġgra": 1706,
      "Ġview": 1707,
      "ĠCatherine": 1708,
      "umb": 1709,
      "ledge": 1710,
      "Ġhours": 1711,
      "St": 1712,
      "Ġtou": 1713,
      "Ġten": 1714,
      "Ġbook": 1715,
      "isher": 1716,
      "Ġdri": 1717,
      "Ġev": 1718,
      "Ġthousand": 1719,
      "Ġund": 1720,
      "Ġexc": 1721,
      "ĠFl": 1722,
      "Ġsatisf": 1723,
      "Ġquestion": 1724,
      "par": 1725,
      "Ġcaptain": 1726,
      "oose": 1727,
      "pping": 1728,
      "Ġentered": 1729,
      "Ġmonth": 1730,
      "Ġanswered": 1731,
      "Ġhuman": 1732,
      "ination": 1733,
      "ters": 1734,
      "iles": 1735,
      "Ġdaughter": 1736,
      "inion": 1737,
      "Ġmist": 1738,
      "Ġpol": 1739,
      "Ġforward": 1740,
      "ĠNow": 1741,
      "Ġearth": 1742,
      "Ġreturned": 1743,
      "ches": 1744,
      "mb": 1745,
      "ring": 1746,
      "erable": 1747,
      "Ġpain": 1748,
      "ĠAll": 1749,
      "ĠLondon": 1750,
      "appe": 1751,
      "Ġsuppose": 1752,
      "cha": 1753,
      "vour": 1754,
      "Ġmast": 1755,
      "Ġbur": 1756,
      "enty": 1757,
      "Ġprec": 1758,
      "Ġground": 1759,
      "Ġcontinued": 1760,
      "Then": 1761,
      "ape": 1762,
      "more": 1763,
      "sha": 1764,
      "som": 1765,
      "Ġmount": 1766,
      "pend": 1767,
      "Ġexpl": 1768,
      "ĠLe": 1769,
      "Ġimmedi": 1770,
      "ĠNantucket": 1771,
      "airs": 1772,
      "Ġoccasion": 1773,
      "Ġbreak": 1774,
      "Th": 1775,
      "Ġreal": 1776,
      "Ġreceived": 1777,
      "Ġsol": 1778,
      "thy": 1779,
      "Ġexam": 1780,
      "Ġart": 1781,
      "cont": 1782,
      "Ġendeav": 1783,
      "Ġattention": 1784,
      "Ġhappiness": 1785,
      "could": 1786,
      "des": 1787,
      "lish": 1788,
      "ming": 1789,
      "Ġbit": 1790,
      "iment": 1791,
      "ilt": 1792,
      "iling": 1793,
      "âĢĶâĢľ": 1794,
      "Ġconv": 1795,
      "ants": 1796,
      "Ġused": 1797,
      "Ġplain": 1798,
      "Ġharpoone": 1799,
      "can": 1800,
      "Ġast": 1801,
      "Ġmot": 1802,
      "Ġmention": 1803,
      "Ġfall": 1804,
      "Ġinqu": 1805,
      "Ġdr": 1806,
      "atch": 1807,
      "Ġevent": 1808,
      "ift": 1809,
      "ously": 1810,
      "Ġcompan": 1811,
      "Ġwindow": 1812,
      "Ġminutes": 1813,
      "Ġcircumst": 1814,
      "possible": 1815,
      "ding": 1816,
      "Ġson": 1817,
      "Ġwhaling": 1818,
      "Ġglo": 1819,
      "ets": 1820,
      "oney": 1821,
      "ĠLong": 1822,
      "Ġabove": 1823,
      "versation": 1824,
      "ior": 1825,
      "kn": 1826,
      "inter": 1827,
      "Ġstory": 1828,
      "Ġaff": 1829,
      "Ġseeing": 1830,
      "shire": 1831,
      "Ġcommon": 1832,
      "ĠWhite": 1833,
      "pter": 1834,
      "use": 1835,
      "Ġsperm": 1836,
      "Ġfive": 1837,
      "vel": 1838,
      "ames": 1839,
      "ĠTo": 1840,
      "Ġprob": 1841,
      "They": 1842,
      "Ġboy": 1843,
      "Ġperfect": 1844,
      "Ġblood": 1845,
      "Ġcold": 1846,
      "Ġappro": 1847,
      "Ġgentleman": 1848,
      "vious": 1849,
      "ĠâĢĻ": 1850,
      "Ġfine": 1851,
      "see": 1852,
      "ĠHer": 1853,
      "ush": 1854,
      "Ġpeculiar": 1855,
      "come": 1856,
      "kes": 1857,
      "Ġslight": 1858,
      "ceive": 1859,
      "aining": 1860,
      "Ġsuper": 1861,
      "ession": 1862,
      "Ġran": 1863,
      "retched": 1864,
      "Ġstanding": 1865,
      "bit": 1866,
      "band": 1867,
      "fast": 1868,
      "ili": 1869,
      "pla": 1870,
      "reg": 1871,
      "Ġce": 1872,
      "arch": 1873,
      "Ġvar": 1874,
      "Ġliving": 1875,
      "Ġable": 1876,
      "ĠGard": 1877,
      "Ġoffic": 1878,
      "Ġfeeling": 1879,
      "Ġgirl": 1880,
      "ffect": 1881,
      "Ġsix": 1882,
      "sequ": 1883,
      "Ġask": 1884,
      "iful": 1885,
      "ract": 1886,
      "Ġval": 1887,
      "Ġsmo": 1888,
      "Ġbegin": 1889,
      "izzy": 1890,
      "upon": 1891,
      "Ġslow": 1892,
      "ĠFlask": 1893,
      "mor": 1894,
      "Ġ2": 1895,
      "inary": 1896,
      "Ġsor": 1897,
      "Ġheaven": 1898,
      "Ġstra": 1899,
      "ĠWill": 1900,
      "onel": 1901,
      "Ġfair": 1902,
      "Ġscene": 1903,
      "who": 1904,
      "Ġplan": 1905,
      "Ġregard": 1906,
      "Ġcreature": 1907,
      "If": 1908,
      "iol": 1909,
      "ray": 1910,
      "sm": 1911,
      "tw": 1912,
      "vo": 1913,
      "Ġtail": 1914,
      "hand": 1915,
      "happ": 1916,
      "Ġheav": 1917,
      "Ġeager": 1918,
      "irm": 1919,
      "Ġstay": 1920,
      "Ġago": 1921,
      "Ġremained": 1922,
      "Ġthoughts": 1923,
      "Ġwalked": 1924,
      "undred": 1925,
      "Ġopinion": 1926,
      "every": 1927,
      "gin": 1928,
      "lot": 1929,
      "vol": 1930,
      "ouble": 1931,
      "ony": 1932,
      "Ġfast": 1933,
      "Ġtor": 1934,
      "Ġdread": 1935,
      "ased": 1936,
      "ots": 1937,
      "ically": 1938,
      "imp": 1939,
      "ĠCh": 1940,
      "isted": 1941,
      "Ġquar": 1942,
      "Ġenc": 1943,
      "Ġobli": 1944,
      "Ġnatural": 1945,
      ",âĢĶ": 1946,
      "Ġest": 1947,
      "Ġtre": 1948,
      "Ġtem": 1949,
      "Ġmouth": 1950,
      "ison": 1951,
      "cean": 1952,
      "Ġrepe": 1953,
      "herlock": 1954,
      "Ġconne": 1955,
      "Ġlearn": 1956,
      "Ġorder": 1957,
      "Ġmarriage": 1958,
      "ibly": 1959,
      "Ġladies": 1960,
      "ead": 1961,
      "Ġaunt": 1962,
      "Ġmine": 1963,
      "Ġmaking": 1964,
      "Ġhast": 1965,
      "str": 1966,
      "Ġele": 1967,
      "Ġanx": 1968,
      "ĠAn": 1969,
      "Ġdeg": 1970,
      "âĢĶ_": 1971,
      "ement": 1972,
      "Ġjoy": 1973,
      "Ġfavour": 1974,
      "Ġdeterm": 1975,
      "fl": 1976,
      "field": 1977,
      "spect": 1978,
      "Ġ*": 1979,
      "Ġviol": 1980,
      "Ġproper": 1981,
      "rupt": 1982,
      "clud": 1983,
      "._": 1984,
      "Not": 1985,
      "count": 1986,
      "oint": 1987,
      "pes": 1988,
      "ĠU": 1989,
      "ining": 1990,
      "oura": 1991,
      "Ġbott": 1992,
      "ĠInd": 1993,
      "idence": 1994,
      "Ġred": 1995,
      "rible": 1996,
      "Ġvoyage": 1997,
      "usion": 1998,
      "iece": 1999,
      "Ġimport": 2000,
      "Ġfollowed": 2001,
      "Ġfoot": 2002,
      "Ġuncle": 2003,
      "round": 2004,
      "esides": 2005,
      "Ġpri": 2006,
      "Ġpull": 2007,
      "ution": 2008,
      "Ġere": 2009,
      "Ġang": 2010,
      "Ġproceed": 2011,
      "hold": 2012,
      "Ġdifferent": 2013,
      "Ġiron": 2014,
      "Ġcomplete": 2015,
      "00": 2016,
      "Ġmer": 2017,
      "Ġmag": 2018,
      "lling": 2019,
      "Ġpat": 2020,
      "Ġnone": 2021,
      "Ġself": 2022,
      "cked": 2023,
      "ĠAr": 2024,
      "raid": 2025,
      "astle": 2026,
      "Ġthemselves": 2027,
      "Ġquiet": 2028,
      "Ġsaying": 2029,
      "Ġpursu": 2030,
      "Ġbeneath": 2031,
      "low": 2032,
      "ners": 2033,
      "Ġsqu": 2034,
      "Ġcent": 2035,
      "arce": 2036,
      "Ġport": 2037,
      "Ġves": 2038,
      "antic": 2039,
      "usband": 2040,
      "ĠChar": 2041,
      "Ġspout": 2042,
      "ized": 2043,
      "ĠGardiner": 2044,
      "Why": 2045,
      "bs": 2046,
      "hood": 2047,
      "plo": 2048,
      "inct": 2049,
      "Ġfree": 2050,
      "Ġyes": 2051,
      "Ġatte": 2052,
      "Ġsole": 2053,
      "live": 2054,
      "ils": 2055,
      "Ġdevil": 2056,
      "âĢĶâĢĿ": 2057,
      "ĠWith": 2058,
      "ĠDe": 2059,
      "Ġpres": 2060,
      "before": 2061,
      "ccess": 2062,
      "Ġyear": 2063,
      "should": 2064,
      "Ġeverything": 2065,
      "comm": 2066,
      "Ġsilence": 2067,
      "Ġtalk": 2068,
      "bourn": 2069,
      "Ġfurther": 2070,
      "Ġvessel": 2071,
      "ze": 2072,
      "Ġve": 2073,
      "Ġtaking": 2074,
      "Ġsense": 2075,
      "itation": 2076,
      "Ġfle": 2077,
      "Ġcas": 2078,
      "Ġhun": 2079,
      "Ġhair": 2080,
      "Ġlower": 2081,
      "irt": 2082,
      "ury": 2083,
      "Ġformer": 2084,
      "Ġjaw": 2085,
      "Ġpurpose": 2086,
      "ĠYet": 2087,
      "lotte": 2088,
      "!âĢĻ": 2089,
      "So": 2090,
      "eor": 2091,
      "fter": 2092,
      "joy": 2093,
      "pent": 2094,
      "inced": 2095,
      "onah": 2096,
      "Ġfixed": 2097,
      "Ġph": 2098,
      "stant": 2099,
      "thr": 2100,
      "then": 2101,
      "ĠPe": 2102,
      "been": 2103,
      "Ġbring": 2104,
      "cially": 2105,
      "Ġkept": 2106,
      "Ġacross": 2107,
      "ĠQueen": 2108,
      "Ġoccur": 2109,
      "ucas": 2110,
      "At": 2111,
      "nest": 2112,
      "enance": 2113,
      "Ġfisher": 2114,
      "Ġciv": 2115,
      "Ġdart": 2116,
      "cell": 2117,
      "ĠCol": 2118,
      "Ġlonger": 2119,
      "Ġglad": 2120,
      "Ġcommand": 2121,
      "Ġnearly": 2122,
      "Ġchance": 2123,
      "Ġesc": 2124,
      "oby": 2125,
      "ric": 2126,
      "Ġsn": 2127,
      "Ġoil": 2128,
      "ening": 2129,
      "Ġcause": 2130,
      "Ġden": 2131,
      "iding": 2132,
      "Ġstud": 2133,
      "Ġconversation": 2134,
      "emed": 2135,
      "Ġru": 2136,
      "Ġboard": 2137,
      "Ġturning": 2138,
      "ighbour": 2139,
      "Ġaccom": 2140,
      "Ġcurious": 2141,
      "Ġserv": 2142,
      "Ġfront": 2143,
      "II": 2144,
      "dle": 2145,
      "iable": 2146,
      "little": 2147,
      "pid": 2148,
      "Ġmod": 2149,
      "Ġbra": 2150,
      "Ġhundred": 2151,
      "Ġlate": 2152,
      "Ġeffect": 2153,
      "ĠBe": 2154,
      "dered": 2155,
      "Ġgold": 2156,
      "ĠGeor": 2157,
      "Ġcontr": 2158,
      "Ġmarried": 2159,
      "Ġ18": 2160,
      "posed": 2161,
      "Ġstruck": 2162,
      "Ġimmediately": 2163,
      "hor": 2164,
      "pan": 2165,
      "Ġought": 2166,
      "Ġmoney": 2167,
      "Ġbow": 2168,
      "llow": 2169,
      "Ġrequ": 2170,
      "Ġready": 2171,
      "Ġseas": 2172,
      "ĠTur": 2173,
      "umber": 2174,
      "Ġcomes": 2175,
      "ĠNot": 2176,
      "Ġremember": 2177,
      "Ġtruth": 2178,
      "Ġchange": 2179,
      "Ġsilent": 2180,
      "atson": 2181,
      "Ġentirely": 2182,
      "Ġcabin": 2183,
      "yond": 2184,
      "Ġed": 2185,
      "Ġbar": 2186,
      "lected": 2187,
      "Ġdut": 2188,
      "aded": 2189,
      "Ġvast": 2190,
      "ested": 2191,
      "Ġexact": 2192,
      "Ġcomfort": 2193,
      "itten": 2194,
      "Ġdesp": 2195,
      "Ġchief": 2196,
      "Ġplaced": 2197,
      "Ġsecret": 2198,
      "Ġengaged": 2199,
      "Ġeasy": 2200,
      "Ġcalm": 2201,
      "Ġmonths": 2202,
      "),": 2203,
      "pass": 2204,
      "uct": 2205,
      "ĠâĢĶ_": 2206,
      "Ġtry": 2207,
      "Ġmort": 2208,
      "Ġbreat": 2209,
      "Ġfat": 2210,
      "asure": 2211,
      "ousin": 2212,
      "Ġexcept": 2213,
      "ĠLet": 2214,
      "Ġbecome": 2215,
      "Ġsett": 2216,
      "after": 2217,
      "?âĢĶ": 2218,
      "cr": 2219,
      "gl": 2220,
      "hapter": 2221,
      "Ġcross": 2222,
      "ading": 2223,
      "Ġforth": 2224,
      "Ġsoci": 2225,
      "ified": 2226,
      "Ġconce": 2227,
      "ours": 2228,
      "olute": 2229,
      "Ġnecess": 2230,
      "Ġnoble": 2231,
      "arent": 2232,
      "ĠJonah": 2233,
      "Ġattempt": 2234,
      "meric": 2235,
      "Ġdistance": 2236,
      "Ġstranger": 2237,
      "Ġwalk": 2238,
      "Ġdirect": 2239,
      "ĠWilliam": 2240,
      "ned": 2241,
      "time": 2242,
      "Ġcry": 2243,
      "lly": 2244,
      "ancing": 2245,
      "Ġpit": 2246,
      "Ġstate": 2247,
      "ĠLucas": 2248,
      "ĠDick": 2249,
      "ishment": 2250,
      "apers": 2251,
      "Ġchair": 2252,
      "Ġopened": 2253,
      "Ġsweet": 2254,
      "Ġcompanion": 2255,
      "ĠLongbourn": 2256,
      "mn": 2257,
      "Ġign": 2258,
      "hel": 2259,
      "Ġwon": 2260,
      "Ġbound": 2261,
      "Ġdrew": 2262,
      "Ġdream": 2263,
      "Ġhint": 2264,
      "Ġham": 2265,
      "Ġwhis": 2266,
      "ĠĠĠĠĠ": 2267,
      "cks": 2268,
      "Ġsav": 2269,
      "essed": 2270,
      "els": 2271,
      "Ġjud": 2272,
      "Ġafraid": 2273,
      "Ġrose": 2274,
      "Ġparty": 2275,
      "Ġblue": 2276,
      "ildad": 2277,
      "Ġobserved": 2278,
      "Ġconcern": 2279,
      "Ġsym": 2280,
      "Ġdanger": 2281,
      "Ġlaugh": 2282,
      "cent": 2283,
      "eper": 2284,
      "into": 2285,
      "Ġwarm": 2286,
      "Ġmaster": 2287,
      "Ġdare": 2288,
      "Ġled": 2289,
      "ality": 2290,
      "pecially": 2291,
      "Ġdeal": 2292,
      "ourney": 2293,
      "ĠLord": 2294,
      "ĠLizzy": 2295,
      "itty": 2296,
      "Ġafterwards": 2297,
      "while": 2298,
      "Ġsuppos": 2299,
      "fortun": 2300,
      "aintance": 2301,
      "known": 2302,
      "cies": 2303,
      "ĠX": 2304,
      "rer": 2305,
      "reme": 2306,
      "Ġocean": 2307,
      "only": 2308,
      "Ġtop": 2309,
      "Ġheld": 2310,
      "Ġgaz": 2311,
      "alth": 2312,
      "together": 2313,
      "ĠWatson": 2314,
      "Ġexper": 2315,
      "Ġexceed": 2316,
      "Ġwhatever": 2317,
      "again": 2318,
      "Ġimpossible": 2319,
      "Ġwaters": 2320,
      "cover": 2321,
      "Ġpersu": 2322,
      "Ġemb": 2323,
      "Ġbroken": 2324,
      "Qu": 2325,
      "gged": 2326,
      "know": 2327,
      "must": 2328,
      "such": 2329,
      "Ġver": 2330,
      "Ġsitting": 2331,
      "Ġbul": 2332,
      "Ġbright": 2333,
      "Ġfro": 2334,
      "Ġca": 2335,
      "Ġcott": 2336,
      "Ġhusband": 2337,
      "Ġpast": 2338,
      "Ġpict": 2339,
      "ether": 2340,
      "Ġdepart": 2341,
      "Ġpret": 2342,
      "ĠNor": 2343,
      "reeable": 2344,
      "Ġsays": 2345,
      "Ġwatch": 2346,
      "Ġemplo": 2347,
      "Ġharpoon": 2348,
      "ĠEnglish": 2349,
      "Ġslowly": 2350,
      "pri": 2351,
      "Ġice": 2352,
      "Ġgrie": 2353,
      "ainted": 2354,
      "olog": 2355,
      "Ġaround": 2356,
      "Ġsisters": 2357,
      "etherfield": 2358,
      "Alice": 2359,
      "ded": 2360,
      "ipe": 2361,
      "Ġtried": 2362,
      "Ġsitu": 2363,
      "erning": 2364,
      "ises": 2365,
      "Ġfif": 2366,
      "Ġfig": 2367,
      "ĠMoby": 2368,
      "arden": 2369,
      "ively": 2370,
      "icked": 2371,
      "Ġscarce": 2372,
      "ize": 2373,
      "Ġgentlemen": 2374,
      "Ġinstantly": 2375,
      "On": 2376,
      "ear": 2377,
      "ature": 2378,
      "anced": 2379,
      "cket": 2380,
      "ĠAl": 2381,
      "ĠBy": 2382,
      "Ġvain": 2383,
      "aker": 2384,
      "Ġknowledge": 2385,
      "Ġdescri": 2386,
      "Ġcarried": 2387,
      "Ġmiserable": 2388,
      "Ġremarked": 2389,
      "Ġfresh": 2390,
      "Ġsingle": 2391,
      "Ġexpected": 2392,
      "Ġspirits": 2393,
      "Ġappearance": 2394,
      "Ġhonour": 2395,
      "Ġperfectly": 2396,
      "Ġdegree": 2397,
      "down": 2398,
      "ives": 2399,
      "ping": 2400,
      "sail": 2401,
      "Ġbu": 2402,
      "Ġfurn": 2403,
      "Ġcru": 2404,
      "Ġpar": 2405,
      "ĠSir": 2406,
      "acy": 2407,
      "ĠStreet": 2408,
      "Ġdesire": 2409,
      "Ġships": 2410,
      "Ġhappened": 2411,
      "Ġearly": 2412,
      "board": 2413,
      "Ġbroad": 2414,
      "Ġsharp": 2415,
      "Ġdestro": 2416,
      "Ġaston": 2417,
      "ourage": 2418,
      "Ġbottom": 2419,
      "Do": 2420,
      "fer": 2421,
      "face": 2422,
      "oe": 2423,
      "rist": 2424,
      "Ġwished": 2425,
      "Ġmut": 2426,
      "Ġmate": 2427,
      "Ġburn": 2428,
      "Ġcaught": 2429,
      "Ġcousin": 2430,
      "Ġanim": 2431,
      "ssed": 2432,
      "ume": 2433,
      "Ġlikely": 2434,
      "Ġ(_": 2435,
      "Ġoccup": 2436,
      "Mrs": 2437,
      "Ġfancy": 2438,
      "Ġweek": 2439,
      "Ġstraight": 2440,
      "ĠPeleg": 2441,
      "Ġsettled": 2442,
      ";âĢĶ": 2443,
      "aves": 2444,
      "bl": 2445,
      "great": 2446,
      "mast": 2447,
      "much": 2448,
      "oh": 2449,
      "zz": 2450,
      "Ġwall": 2451,
      "Ġmus": 2452,
      "Ġbird": 2453,
      "Ġfing": 2454,
      "ices": 2455,
      "Ġsoft": 2456,
      "ored": 2457,
      "Ġord": 2458,
      "fered": 2459,
      "ĠPip": 2460,
      "Ġenjoy": 2461,
      "Ġcompany": 2462,
      "Ġblind": 2463,
      "cons": 2464,
      "Ġhorror": 2465,
      "Ġfrequ": 2466,
      "Ġchildren": 2467,
      "Ġbeauty": 2468,
      "Ġarrived": 2469,
      "cellent": 2470,
      "ĠColonel": 2471,
      "ĠGeorge": 2472,
      "phe": 2473,
      "than": 2474,
      "uish": 2475,
      "Ġwit": 2476,
      "Ġmain": 2477,
      "Ġcast": 2478,
      "ashed": 2479,
      "Ġpen": 2480,
      "Ġbear": 2481,
      "Ġforg": 2482,
      "Ġsuccess": 2483,
      "redit": 2484,
      "que": 2485,
      "ĠBildad": 2486,
      "Ġshow": 2487,
      "Ġlean": 2488,
      "Ġmanners": 2489,
      "oft": 2490,
      "ĠHere": 2491,
      "Ġremain": 2492,
      "Ġheads": 2493,
      "Ġmonster": 2494,
      "Ġmerely": 2495,
      "Ġheavy": 2496,
      "che": 2497,
      "eed": 2498,
      "good": 2499,
      "uous": 2500,
      "wr": 2501,
      "Ġball": 2502,
      "Ġfright": 2503,
      "lest": 2504,
      "Ġinno": 2505,
      "Ġdiv": 2506,
      "Ġlaw": 2507,
      "Ġthick": 2508,
      "ries": 2509,
      "Ġstreet": 2510,
      "think": 2511,
      "Ġneither": 2512,
      "Ġneighbour": 2513,
      "Ġdoing": 2514,
      "ists": 2515,
      "feel": 2516,
      "ĠOne": 2517,
      "Ġgrand": 2518,
      "Ġpeace": 2519,
      "Ġmisery": 2520,
      "Ġdiffic": 2521,
      "Ġsurprised": 2522,
      "Ġresolved": 2523,
      "Ġvarious": 2524,
      "Ġrepeated": 2525,
      ".âĢĶ": 2526,
      "For": 2527,
      "did": 2528,
      "father": 2529,
      "iod": 2530,
      "ios": 2531,
      "rous": 2532,
      "tr": 2533,
      "ues": 2534,
      "held": 2535,
      "heart": 2536,
      "Ġmiles": 2537,
      "Ġfirm": 2538,
      "Ġcof": 2539,
      "lection": 2540,
      "Ġbeyond": 2541,
      "Ġgreen": 2542,
      "tering": 2543,
      "Ġmeant": 2544,
      "ĠMary": 2545,
      "ĠAmeric": 2546,
      "ĠWell": 2547,
      "ĠWhy": 2548,
      "Ġgoes": 2549,
      "Ġgreater": 2550,
      "Ġwrite": 2551,
      "Ġswim": 2552,
      "ashion": 2553,
      "Ġtalking": 2554,
      "ĠEngland": 2555,
      "Ġinquir": 2556,
      "cluded": 2557,
      "Ġexactly": 2558,
      "Ġpretty": 2559,
      "even": 2560,
      "friend": 2561,
      "jo": 2562,
      "kind": 2563,
      "ma": 2564,
      "Ġsad": 2565,
      "Ġsnow": 2566,
      "Ġwide": 2567,
      "ishes": 2568,
      "ency": 2569,
      "Ġdi": 2570,
      "Ġlim": 2571,
      "Ġlab": 2572,
      "Ġbeha": 2573,
      "Ġbelong": 2574,
      "Ġformed": 2575,
      "thought": 2576,
      "ustom": 2577,
      "pper": 2578,
      "antage": 2579,
      "Ġjourney": 2580,
      "Ġprevent": 2581,
      "Ġswift": 2582,
      "Ġletters": 2583,
      "Ġnews": 2584,
      "Ġextreme": 2585,
      "Ġeasily": 2586,
      "Ġsurprise": 2587,
      "ĠLeviathan": 2588,
      "Ġharpooneer": 2589,
      "ĠCharlotte": 2590,
      "awn": 2591,
      "dra": 2592,
      "just": 2593,
      "ny": 2594,
      "Ġage": 2595,
      "Ġfly": 2596,
      "let": 2597,
      "ĠIs": 2598,
      "ste": 2599,
      "Ġevil": 2600,
      "set": 2601,
      "Ġgarden": 2602,
      "Ġseam": 2603,
      "these": 2604,
      "ĠBr": 2605,
      "Ġvill": 2606,
      "ĠNetherfield": 2607,
      "Ġcompl": 2608,
      "aching": 2609,
      "Ġrapid": 2610,
      "Ġearnest": 2611,
      "ĠKitty": 2612,
      "Ġdrawing": 2613,
      "Ġassist": 2614,
      "appoint": 2615,
      "incip": 2616,
      "Ġcircumstances": 2617,
      "With": 2618,
      "aj": 2619,
      "clock": 2620,
      "gy": 2621,
      "hum": 2622,
      "min": 2623,
      "rey": 2624,
      "Ġori": 2625,
      "Ġoars": 2626,
      "itz": 2627,
      "Ġcre": 2628,
      "Ġcook": 2629,
      "Ġlaid": 2630,
      "iced": 2631,
      "semb": 2632,
      "about": 2633,
      "ĠSherlock": 2634,
      "gel": 2635,
      "Ġleaving": 2636,
      "Ġwhalemen": 2637,
      "Ġusual": 2638,
      "nothing": 2639,
      "Ġpassage": 2640,
      "Ġcarriage": 2641,
      "Ġespecially": 2642,
      "Ġbeautiful": 2643,
      "Ġdetermined": 2644,
      "To": 2645,
      "Wh": 2646,
      "car": 2647,
      "ky": 2648,
      "lu": 2649,
      "lay": 2650,
      "oes": 2651,
      "port": 2652,
      "ses": 2653,
      "Ġtend": 2654,
      "inte": 2655,
      "inner": 2656,
      "Ġmakes": 2657,
      "Ġbows": 2658,
      "Ġdie": 2659,
      "Ġpal": 2660,
      "icul": 2661,
      "Ġthrew": 2662,
      "Ġhist": 2663,
      "pered": 2664,
      "ĠPer": 2665,
      "Ġspent": 2666,
      "being": 2667,
      "arer": 2668,
      "ublic": 2669,
      "Ġcloud": 2670,
      "Ġcountenance": 2671,
      "Ġsky": 2672,
      "iety": 2673,
      "Ġabsolute": 2674,
      "ĠIndian": 2675,
      "Ġignor": 2676,
      "Ġsavage": 2677,
      "iosity": 2678,
      "reng": 2679,
      "Ġmass": 2680,
      "Ġmiss": 2681,
      "Ġbad": 2682,
      "Ġhig": 2683,
      "Ġpay": 2684,
      "othes": 2685,
      "Ġeight": 2686,
      "Ġsepar": 2687,
      "Ġshut": 2688,
      "Ġvent": 2689,
      "Ġexist": 2690,
      "Ġneg": 2691,
      "Ġlived": 2692,
      "Ġlips": 2693,
      "ĠNew": 2694,
      "Ġarms": 2695,
      "Ġperiod": 2696,
      "Ġpride": 2697,
      "Ġcrow": 2698,
      "Ġaddress": 2699,
      "Ġpleasant": 2700,
      "viour": 2701,
      "Ġdraw": 2702,
      "boat": 2703,
      "Ġconsiderable": 2704,
      "himself": 2705,
      "angu": 2706,
      "Ġrunning": 2707,
      "Ġadmir": 2708,
      "Ġconduct": 2709,
      "duced": 2710,
      "Ġimagine": 2711,
      "Ġutter": 2712,
      "laimed": 2713,
      "ges": 2714,
      "uge": 2715,
      "Ġtrem": 2716,
      "Ġwar": 2717,
      "iter": 2718,
      "Ġdress": 2719,
      "Ġlatter": 2720,
      "Ġreached": 2721,
      "unic": 2722,
      "Ġprep": 2723,
      "arest": 2724,
      "Ġtwenty": 2725,
      "Ġspeaking": 2726,
      "ailed": 2727,
      "Ġinstead": 2728,
      "ext": 2729,
      "position": 2730,
      "Ġrecol": 2731,
      "lerval": 2732,
      "Ġhurried": 2733,
      "looking": 2734,
      "Ġscarcely": 2735,
      "His": 2736,
      "Ġtone": 2737,
      "resent": 2738,
      "has": 2739,
      "Ġpapers": 2740,
      "irty": 2741,
      "urch": 2742,
      "ades": 2743,
      "Ġallowed": 2744,
      "unity": 2745,
      "hant": 2746,
      "arks": 2747,
      "Ġgrat": 2748,
      "Ġinterval": 2749,
      "Ġfollowing": 2750,
      "Ġconcerning": 2751,
      "Ġbreakfast": 2752,
      "Ġduty": 2753,
      "Ġdespair": 2754,
      "Ġsituation": 2755,
      "Aye": 2756,
      "ales": 2757,
      "bre": 2758,
      "gs": 2759,
      "house": 2760,
      "sur": 2761,
      "Ġauth": 2762,
      "Ġfac": 2763,
      "Ġincl": 2764,
      "Ġinform": 2765,
      "uture": 2766,
      "aled": 2767,
      "Ġann": 2768,
      "ĠMock": 2769,
      "Ġsake": 2770,
      "Ġconsequ": 2771,
      "hens": 2772,
      "Ġrushed": 2773,
      "Ġque": 2774,
      "never": 2775,
      "Ġgreatest": 2776,
      "Ġthinking": 2777,
      "Ġtrust": 2778,
      "Ġimpro": 2779,
      "ivory": 2780,
      "eryton": 2781,
      "heads": 2782,
      "Ġgetting": 2783,
      "Ġpleased": 2784,
      "Ġincre": 2785,
      "Ġkindness": 2786,
      "Ġcheer": 2787,
      "Ġminute": 2788,
      "Ġoppos": 2789,
      "Ġquarter": 2790,
      "Ġsolemn": 2791,
      "rength": 2792,
      "line": 2793,
      "mber": 2794,
      "pers": 2795,
      "rid": 2796,
      "say": 2797,
      "Ġ3": 2798,
      "Ġ4": 2799,
      "Ġtall": 2800,
      "Ġsal": 2801,
      "Ġsli": 2802,
      "Ġmild": 2803,
      "arily": 2804,
      "Ġdied": 2805,
      "omen": 2806,
      "Ġbelow": 2807,
      "ilar": 2808,
      "ĠSc": 2809,
      "Ġdelic": 2810,
      "ustine": 2811,
      "Ġvan": 2812,
      "Ġuncom": 2813,
      "Ġpos": 2814,
      "acle": 2815,
      "Ġdisg": 2816,
      "formed": 2817,
      "Ġenter": 2818,
      "cient": 2819,
      "ceiving": 2820,
      "Ġcreatures": 2821,
      "phon": 2822,
      "Ġspirit": 2823,
      "Ġacquaintance": 2824,
      "Ġsociety": 2825,
      "Ġorigin": 2826,
      "Your": 2827,
      "aff": 2828,
      "col": 2829,
      "cceed": 2830,
      "iest": 2831,
      "last": 2832,
      "might": 2833,
      "vis": 2834,
      "Ġaye": 2835,
      "Ġdim": 2836,
      "stood": 2837,
      "ics": 2838,
      "velo": 2839,
      "Ġreve": 2840,
      "Ġrelie": 2841,
      "Ġsto": 2842,
      "Ġsave": 2843,
      "ounds": 2844,
      "elt": 2845,
      "tego": 2846,
      "ague": 2847,
      "ryphon": 2848,
      "Ġspot": 2849,
      "iend": 2850,
      "Ġknows": 2851,
      "range": 2852,
      "Ġlooks": 2853,
      "Ġchase": 2854,
      "Ġwaves": 2855,
      "ĠYour": 2856,
      "Ġgiving": 2857,
      "ashtego": 2858,
      "Ġintro": 2859,
      "Ġgenerally": 2860,
      "gging": 2861,
      "emberley": 2862,
      "Ġstarted": 2863,
      "Ġsatisfied": 2864,
      "Ġbitter": 2865,
      "place": 2866,
      "ĠChrist": 2867,
      "Miss": 2868,
      "bet": 2869,
      "came": 2870,
      "ech": 2871,
      "mar": 2872,
      "ron": 2873,
      "sing": 2874,
      "Ġid": 2875,
      "Ġwretched": 2876,
      "owers": 2877,
      "abbit": 2878,
      "Ġdev": 2879,
      "ĠHatter": 2880,
      "Ġlead": 2881,
      "Ġunf": 2882,
      "Ġunless": 2883,
      "Ġalthough": 2884,
      "aped": 2885,
      "fulness": 2886,
      "rud": 2887,
      "Ġwritten": 2888,
      "Ġtrave": 2889,
      "Ġextra": 2890,
      "Ġmiddle": 2891,
      "Ġconvinced": 2892,
      "Ġgloom": 2893,
      "Ġsorry": 2894,
      "two": 2895,
      "through": 2896,
      "Ġfigure": 2897,
      "eli": 2898,
      "found": 2899,
      "lan": 2900,
      "oot": 2901,
      "oved": 2902,
      "said": 2903,
      "Ġsit": 2904,
      "Ġcat": 2905,
      "llig": 2906,
      "Ġpract": 2907,
      "Ġheight": 2908,
      "Ġthird": 2909,
      "sec": 2910,
      "Ġforget": 2911,
      "Ġmyst": 2912,
      "ĠAfter": 2913,
      "alled": 2914,
      "ĠChapter": 2915,
      "ĠPar": 2916,
      "Ġshad": 2917,
      "Ġspite": 2918,
      "Ġhopes": 2919,
      "Ġmighty": 2920,
      "Ġglance": 2921,
      "rench": 2922,
      "sured": 2923,
      "Ġdecla": 2924,
      "Ġpromise": 2925,
      "Ġfortune": 2926,
      "Ġquickly": 2927,
      "Ġbeginning": 2928,
      "Ġlearned": 2929,
      "ĠTurtle": 2930,
      "ajest": 2931,
      "ike": 2932,
      "may": 2933,
      "Ġstern": 2934,
      "Ġhang": 2935,
      "Ġyouth": 2936,
      "Ġweather": 2937,
      "Ġsend": 2938,
      "cho": 2939,
      "ills": 2940,
      "Ġallow": 2941,
      "ifferent": 2942,
      "ilo": 2943,
      "theless": 2944,
      "race": 2945,
      "Ġshout": 2946,
      "Ġvol": 2947,
      "ĠWho": 2948,
      "Ġexcellent": 2949,
      "Ġamiable": 2950,
      "Ġspring": 2951,
      "isely": 2952,
      "Ġparts": 2953,
      "Ġsmile": 2954,
      "Ġgrow": 2955,
      "Ġaccord": 2956,
      "Here": 2957,
      "Ġfollow": 2958,
      "Ġteeth": 2959,
      "Ġdirection": 2960,
      "Ġmurder": 2961,
      "Ġpaper": 2962,
      "Ġfloor": 2963,
      "Ġgrave": 2964,
      "appeared": 2965,
      "Ġobliged": 2966,
      "Ġpriv": 2967,
      "Is": 2968,
      "ien": 2969,
      "mit": 2970,
      "wed": 2971,
      "iny": 2972,
      "Ġfuture": 2973,
      "owards": 2974,
      "icient": 2975,
      "seemed": 2976,
      "Ġstrength": 2977,
      "ĠAd": 2978,
      "ĠSome": 2979,
      "Ġdem": 2980,
      "Ġvirt": 2981,
      "using": 2982,
      "ĠFrom": 2983,
      "ĠGryphon": 2984,
      "Ġremem": 2985,
      "ĠRight": 2986,
      "Queequeg": 2987,
      "spic": 2988,
      "Ġwaiting": 2989,
      "Ġwalking": 2990,
      "Ġdrawn": 2991,
      "Ġadvantage": 2992,
      "Ġgirls": 2993,
      "Ġinteresting": 2994,
      "Ġmentioned": 2995,
      "Ġcases": 2996,
      "penter": 2997,
      "Ahab": 2998,
      "Who": 2999,
      "action": 3000,
      "back": 3001,
      "eas": 3002,
      "wind": 3003,
      "yes": 3004,
      "Ã¦": 3005,
      "Ġwand": 3006,
      "Ġmal": 3007,
      "Ġbless": 3008,
      "Ġfashion": 3009,
      "ator": 3010,
      "Ġpublic": 3011,
      "Ġner": 3012,
      "Ġgro": 3013,
      "Ġassured": 3014,
      "Ġforced": 3015,
      "Ġnote": 3016,
      "Ġshore": 3017,
      "Ġshock": 3018,
      "Ġconcl": 3019,
      "Ġring": 3020,
      "ument": 3021,
      "Ġafford": 3022,
      "Ġrope": 3023,
      "eping": 3024,
      "lessly": 3025,
      "Ġdesce": 3026,
      "Ġdesign": 3027,
      "ignity": 3028,
      "Ġpassing": 3029,
      "Ġglass": 3030,
      "Ġattent": 3031,
      "Ġcommunic": 3032,
      "Ġsailors": 3033,
      "Ġbelieved": 3034,
      "Ġinterrupt": 3035,
      "Ġserious": 3036,
      "Ġtears": 3037,
      "Ġcorner": 3038,
      "ounter": 3039,
      "Ġdarkness": 3040,
      "Ġcraft": 3041,
      "Ġsteps": 3042,
      "Ġequal": 3043,
      "Ġburst": 3044,
      "Ġplainly": 3045,
      "Ġbehaviour": 3046,
      "elix": 3047,
      "Holmes": 3048,
      "rade": 3049,
      "Ġsink": 3050,
      "Ġble": 3051,
      "itated": 3052,
      "iteness": 3053,
      "Ġdinner": 3054,
      "ancy": 3055,
      "Ġpipe": 3056,
      "Ġlamp": 3057,
      "Ġgod": 3058,
      "ldom": 3059,
      "Ġsafe": 3060,
      "unning": 3061,
      "Ġnose": 3062,
      "ortunity": 3063,
      "teen": 3064,
      "Ġworth": 3065,
      "ĠPh": 3066,
      "Ġrolled": 3067,
      "Ġcompass": 3068,
      "ission": 3069,
      "Ġtrouble": 3070,
      "ordinary": 3071,
      "osings": 3072,
      "Ġimpress": 3073,
      "Ġmarry": 3074,
      "Ġprincip": 3075,
      "Ġflu": 3076,
      "Ġassure": 3077,
      "Ġtalked": 3078,
      "Ġdaughters": 3079,
      "Ġdiscovered": 3080,
      "Ġofficers": 3081,
      "Ġescape": 3082,
      "ohn": 3083,
      "Ġauthor": 3084,
      "iloso": 3085,
      ":âĢĶ": 3086,
      "OR": 3087,
      "Very": 3088,
      "castle": 3089,
      "pon": 3090,
      "Ġivory": 3091,
      "Ġalive": 3092,
      "Ġwed": 3093,
      "Ġban": 3094,
      "itions": 3095,
      "Ġfool": 3096,
      "Ġfiend": 3097,
      "arrow": 3098,
      "Ġhot": 3099,
      "Ġhealth": 3100,
      "Ġnarr": 3101,
      "Ġthin": 3102,
      "seen": 3103,
      "Ġaspect": 3104,
      "rop": 3105,
      "Ġsuspic": 3106,
      "ĠMeryton": 3107,
      "Ġshook": 3108,
      "Ġrising": 3109,
      "antly": 3110,
      "Ġlie": 3111,
      "Ġunknown": 3112,
      "ption": 3113,
      "Ġanyone": 3114,
      "Ġroad": 3115,
      "erted": 3116,
      "Ġimpat": 3117,
      "covery": 3118,
      "iction": 3119,
      "Ġaccept": 3120,
      "Ġcuriosity": 3121,
      "present": 3122,
      "Ġexpressed": 3123,
      "Ġcolour": 3124,
      "Ġdropped": 3125,
      "Ġlistened": 3126,
      "Ġtrans": 3127,
      "something": 3128,
      "Ġaffair": 3129,
      "Ġprobably": 3130,
      "happy": 3131,
      "Ġoccurred": 3132,
      "Ġnecessary": 3133,
      "Ġqueer": 3134,
      "By": 3135,
      "Jane": 3136,
      "circ": 3137,
      "gn": 3138,
      "gment": 3139,
      "iven": 3140,
      "oard": 3141,
      "path": 3142,
      "vation": 3143,
      "Ġtru": 3144,
      "reason": 3145,
      "rehens": 3146,
      "Ġod": 3147,
      "Ġmil": 3148,
      "Ġbes": 3149,
      "Ġbod": 3150,
      "Ġfilled": 3151,
      "Ġdance": 3152,
      "ese": 3153,
      "Ġpost": 3154,
      "Ġlangu": 3155,
      "Ġbeheld": 3156,
      "oted": 3157,
      "Ġears": 3158,
      "Ġgrey": 3159,
      "Ġisland": 3160,
      "ctor": 3161,
      "anded": 3162,
      "ĠTashtego": 3163,
      "Ġshowed": 3164,
      "top": 3165,
      "asted": 3166,
      "Ġwholly": 3167,
      "Ġaloft": 3168,
      "agg": 3169,
      "off": 3170,
      "Ġprov": 3171,
      "urned": 3172,
      "bered": 3173,
      "Ġknowing": 3174,
      "Ġarg": 3175,
      "Ġdisappoint": 3176,
      "rang": 3177,
      "rank": 3178,
      "Ġbrow": 3179,
      "Ġentreat": 3180,
      "Ġspeed": 3181,
      "Ġreply": 3182,
      "Ġexpression": 3183,
      "Ġsingular": 3184,
      "Ġfacts": 3185,
      "Ġsimple": 3186,
      "ĠĠĠĠĠĠĠĠĠĠĠĠĠĠĠĠĠĠĠĠĠĠĠĠĠĠĠĠĠĠĠĠĠĠĠĠĠĠĠĠ": 3187,
      "Ġevents": 3188,
      "Ġtrees": 3189,
      "cle": 3190,
      "cour": 3191,
      "certain": 3192,
      "ds": 3193,
      "dist": 3194,
      "uzz": 3195,
      "yet": 3196,
      "Ġwound": 3197,
      "rel": 3198,
      "Ġmed": 3199,
      "oner": 3200,
      "lls": 3201,
      "Ġhung": 3202,
      "Ġnumber": 3203,
      "omin": 3204,
      "Ġlines": 3205,
      "stru": 3206,
      "imate": 3207,
      "Ġgall": 3208,
      "Ġgained": 3209,
      "vert": 3210,
      "urst": 3211,
      "Ġnotice": 3212,
      "Ġseated": 3213,
      "Ġseason": 3214,
      "Ġsucceed": 3215,
      "Ġdef": 3216,
      "ĠHun": 3217,
      "Ġshot": 3218,
      "ulous": 3219,
      "unk": 3220,
      "Ġexec": 3221,
      "Ġrid": 3222,
      "umed": 3223,
      "idered": 3224,
      "Ġagreeable": 3225,
      "Ġimm": 3226,
      "Ġimper": 3227,
      "Ġdidn": 3228,
      "Ġcoat": 3229,
      "ails": 3230,
      "Ġpray": 3231,
      "headed": 3232,
      "Ġpossibly": 3233,
      "Ġregular": 3234,
      "Ġjoined": 3235,
      "Ġsharks": 3236,
      "Ġweeks": 3237,
      "natural": 3238,
      "Ġmotion": 3239,
      "Ġanxious": 3240,
      "Ġimportant": 3241,
      "Ġmagn": 3242,
      "Ġquietly": 3243,
      "Ġfishery": 3244,
      "Ġsupposed": 3245,
      "Car": 3246,
      "iver": 3247,
      "occ": 3248,
      "rance": 3249,
      "tic": 3250,
      "Ġtreat": 3251,
      "hess": 3252,
      "Ġsides": 3253,
      "Ġbones": 3254,
      "ital": 3255,
      "Ġfond": 3256,
      "atures": 3257,
      "Ġhide": 3258,
      "Ġpun": 3259,
      "Ġpath": 3260,
      "Ġpale": 3261,
      "still": 3262,
      "uted": 3263,
      "Ġgame": 3264,
      "etr": 3265,
      "alse": 3266,
      "Ġstro": 3267,
      "ĠSuch": 3268,
      "ĠCan": 3269,
      "ĠPemberley": 3270,
      "derer": 3271,
      "Ġseek": 3272,
      "udden": 3273,
      "Ġgras": 3274,
      "ĠRosings": 3275,
      "Ġconsidered": 3276,
      "Ġkeen": 3277,
      "Ġloved": 3278,
      "Ġdistinct": 3279,
      "hard": 3280,
      "Ġcrime": 3281,
      "Ġsurround": 3282,
      "ibility": 3283,
      "Ġsailor": 3284,
      "uchess": 3285,
      "Ġconfess": 3286,
      "Ġclosed": 3287,
      "Ġwonderful": 3288,
      "Ġmoon": 3289,
      "Ġmarked": 3290,
      "Ġsuperior": 3291,
      "morrow": 3292,
      "Ġtemper": 3293,
      "Ġexceedingly": 3294,
      "Ġfifty": 3295,
      "Ġhistory": 3296,
      "All": 3297,
      "cal": 3298,
      "fish": 3299,
      "jud": 3300,
      "Ġer": 3301,
      "Ġmat": 3302,
      "Ġbat": 3303,
      "Ġbill": 3304,
      "Ġfun": 3305,
      "Ġcourage": 3306,
      "Ġcredit": 3307,
      "Ġinten": 3308,
      "ashing": 3309,
      "Ġbeat": 3310,
      "stairs": 3311,
      "otten": 3312,
      "Ġeat": 3313,
      "add": 3314,
      "ribut": 3315,
      "ability": 3316,
      "iff": 3317,
      "ĠSte": 3318,
      "Ġdepend": 3319,
      "olation": 3320,
      "ushing": 3321,
      "ĠClerval": 3322,
      "elve": 3323,
      "Ġotherwise": 3324,
      "Ġthank": 3325,
      "Ġthrown": 3326,
      "ĠRabbit": 3327,
      "Ġpassion": 3328,
      "Ġraised": 3329,
      "supp": 3330,
      "Ġnative": 3331,
      "Ġcourt": 3332,
      "ogra": 3333,
      "fordshire": 3334,
      "Ġengage": 3335,
      "Ġtouching": 3336,
      "Ġexclaimed": 3337,
      "Ġmountains": 3338,
      "Ġendeavour": 3339,
      "Ġmortal": 3340,
      "Ġfrequently": 3341,
      "Ġwitness": 3342,
      "ilosop": 3343,
      "Come": 3344,
      "first": 3345,
      "lord": 3346,
      "mis": 3347,
      "ope": 3348,
      "uce": 3349,
      "Ġsick": 3350,
      "erman": 3351,
      "Ġbone": 3352,
      "ism": 3353,
      "Ġfield": 3354,
      "Ġcapt": 3355,
      "arance": 3356,
      "Ġhuge": 3357,
      "Ġloud": 3358,
      "Ġgun": 3359,
      "Ġreceive": 3360,
      "terday": 3361,
      "Ġstone": 3362,
      "Ġseven": 3363,
      "Ġseldom": 3364,
      "ĠMan": 3365,
      "Ġshr": 3366,
      "ulty": 3367,
      "aste": 3368,
      "ĠWhere": 3369,
      "Ġkill": 3370,
      "aked": 3371,
      "venge": 3372,
      "Ġprevious": 3373,
      "Ġprospect": 3374,
      "Ġworse": 3375,
      "deck": 3376,
      "Ġenem": 3377,
      "Ġperceived": 3378,
      "Ġeverybody": 3379,
      "ivid": 3380,
      "Ġwrong": 3381,
      "Ġlovely": 3382,
      "Ġhorse": 3383,
      "Ġhoriz": 3384,
      "Ġobserve": 3385,
      "ĠThough": 3386,
      "Ġprofession": 3387,
      "Ġarrival": 3388,
      "Ġsuffer": 3389,
      "Ġbooks": 3390,
      "Ġpolice": 3391,
      "Ġharpooneers": 3392,
      "Ġsmoke": 3393,
      "Ġpursuit": 3394,
      "Ġcottage": 3395,
      "Ġgrief": 3396,
      "Ġexistence": 3397,
      "Ah": 3398,
      "creat": 3399,
      "leness": 3400,
      "mind": 3401,
      "pit": 3402,
      "rors": 3403,
      "sub": 3404,
      "va": 3405,
      "vous": 3406,
      "Ġavo": 3407,
      "Ġsch": 3408,
      "Ġwishes": 3409,
      "rene": 3410,
      "Ġbarb": 3411,
      "itary": 3412,
      "itud": 3413,
      "Ġinj": 3414,
      "Ġpra": 3415,
      "oms": 3416,
      "Ġetern": 3417,
      "imon": 3418,
      "ented": 3419,
      "adv": 3420,
      "ĠSe": 3421,
      "those": 3422,
      "racted": 3423,
      "ĠBaker": 3424,
      "orted": 3425,
      "ĠDon": 3426,
      "Ġwhaleman": 3427,
      "Ġprev": 3428,
      "acqu": 3429,
      "onder": 3430,
      "ieces": 3431,
      "Ġcompar": 3432,
      "Ġcoast": 3433,
      "izing": 3434,
      "Ġapart": 3435,
      "Ġplease": 3436,
      "Ġcarry": 3437,
      "Ġmeaning": 3438,
      "Ġhandsome": 3439,
      "Ġpointed": 3440,
      "Ġintellig": 3441,
      "Ġwondrous": 3442,
      "Ġvisible": 3443,
      "Ġconsidering": 3444,
      "Ġdeeply": 3445,
      "Ġwooden": 3446,
      "Ġopportunity": 3447,
      "Ġcivility": 3448,
      "Ġdarted": 3449,
      "Ġbreath": 3450,
      "Ġdirectly": 3451,
      "fortunate": 3452,
      "94": 3453,
      "IL": 3454,
      "Let": 3455,
      "cur": 3456,
      "cause": 3457,
      "made": 3458,
      "open": 3459,
      "Â£": 3460,
      "Ġtrying": 3461,
      "Ġwake": 3462,
      "rehe": 3463,
      "Ġfit": 3464,
      "Ġcou": 3465,
      "lections": 3466,
      "Ġhither": 3467,
      "Ġhearing": 3468,
      "Ġeld": 3469,
      "urb": 3470,
      "Ġstream": 3471,
      "Ġseized": 3472,
      "chief": 3473,
      "amed": 3474,
      "Ġsugg": 3475,
      "ulated": 3476,
      "Ġlee": 3477,
      "ourgh": 3478,
      "Ġaltogether": 3479,
      "ĠDuchess": 3480,
      "Ġspl": 3481,
      "ĠFelix": 3482,
      "Ġfail": 3483,
      "ertfordshire": 3484,
      "Ġbrain": 3485,
      "Ġoffer": 3486,
      "ĠOf": 3487,
      "ubber": 3488,
      "Ġdeser": 3489,
      "Ġblow": 3490,
      "Ġwatching": 3491,
      "Ġsubst": 3492,
      "Ġsupper": 3493,
      "Ġmoments": 3494,
      "ictor": 3495,
      "Ġinvol": 3496,
      "ground": 3497,
      "Ġhighly": 3498,
      "Ġterri": 3499,
      "Ġterms": 3500,
      "Ġspoken": 3501,
      "Ġfinally": 3502,
      "Ġmoved": 3503,
      "Ġjoin": 3504,
      "Ġcompletely": 3505,
      "Ġpicture": 3506,
      "Ġastonishment": 3507,
      "Captain": 3508,
      "One": 3509,
      "Whale": 3510,
      "cence": 3511,
      "cious": 3512,
      "cCar": 3513,
      "ghed": 3514,
      "iently": 3515,
      "iliar": 3516,
      "kilt": 3517,
      "por": 3518,
      "ude": 3519,
      "Ġwomen": 3520,
      "Ġmates": 3521,
      "enry": 3522,
      "Ġfalse": 3523,
      "leep": 3524,
      "Ġnigh": 3525,
      "Ġhall": 3526,
      "Ġlod": 3527,
      "Ġlance": 3528,
      "Ġlying": 3529,
      "otion": 3530,
      "Ġreach": 3531,
      "herself": 3532,
      "Ġwel": 3533,
      "Ġweight": 3534,
      "ĠMarch": 3535,
      "ĠAg": 3536,
      "arded": 3537,
      "ardon": 3538,
      "Ġneck": 3539,
      "elkilt": 3540,
      "Ġsomewhat": 3541,
      "Ġsomehow": 3542,
      "point": 3543,
      "ĠDorm": 3544,
      "Ġproved": 3545,
      "Ġpocket": 3546,
      "ires": 3547,
      "Ġdiscover": 3548,
      "necess": 3549,
      "Ġremains": 3550,
      "ĠJohn": 3551,
      "conc": 3552,
      "Ġresult": 3553,
      "express": 3554,
      "Ġkey": 3555,
      "Ġloss": 3556,
      "mense": 3557,
      "harpo": 3558,
      "Ġsecure": 3559,
      "Ġsailed": 3560,
      "Ġwaited": 3561,
      "Ġchee": 3562,
      "Ġinflu": 3563,
      "Ġremarkable": 3564,
      "Ġhurry": 3565,
      "Ġlegs": 3566,
      "Ġstrike": 3567,
      "Ġsummer": 3568,
      "Ġendeavoured": 3569,
      "Ġdrink": 3570,
      "Ġdreadful": 3571,
      "Ġimportance": 3572,
      "Ġinnocent": 3573,
      "Ġabsolutely": 3574,
      "Ġwedding": 3575,
      "cCarthy": 3576,
      "ĠDormouse": 3577,
      "Bingley": 3578,
      "HE": 3579,
      "Ind": 3580,
      "away": 3581,
      "ean": 3582,
      "gan": 3583,
      "gress": 3584,
      "ium": 3585,
      "pet": 3586,
      "sy": 3587,
      "yal": 3588,
      "Ġtim": 3589,
      "Ġtong": 3590,
      "iners": 3591,
      "Ġske": 3592,
      "Ġoh": 3593,
      "hall": 3594,
      "ergy": 3595,
      "Ġbesides": 3596,
      "ories": 3597,
      "Ġluck": 3598,
      "imin": 3599,
      "iments": 3600,
      "hern": 3601,
      "road": 3602,
      "Ġstop": 3603,
      "Ġstorm": 3604,
      "Ġseat": 3605,
      "Ġmem": 3606,
      "amb": 3607,
      "ĠSw": 3608,
      "ĠBesides": 3609,
      "Ġleviathan": 3610,
      "Ġrate": 3611,
      "ĠThese": 3612,
      "Ġlives": 3613,
      "aced": 3614,
      "account": 3615,
      "ĠFrench": 3616,
      "ĠJustine": 3617,
      "ords": 3618,
      "pleas": 3619,
      "Ġturns": 3620,
      "Ġclothes": 3621,
      "Ġwindows": 3622,
      "Ġwait": 3623,
      "Ġmatters": 3624,
      "fortune": 3625,
      "Ġhorrible": 3626,
      "Ġinvest": 3627,
      "Ġadvice": 3628,
      "Ġwanted": 3629,
      "Ġcircle": 3630,
      "ounced": 3631,
      "chant": 3632,
      "Ġdrove": 3633,
      "Ġmurderer": 3634,
      "Ġlisten": 3635,
      "Ġsensible": 3636,
      "reenland": 3637,
      "Ġtranqu": 3638,
      "Ġtouch": 3639,
      "Ġmistaken": 3640,
      "Ġcircumstance": 3641,
      "Ġeagerly": 3642,
      "Be": 3643,
      "Good": 3644,
      "Of": 3645,
      "_)": 3646,
      "don": 3647,
      "dig": 3648,
      "ker": 3649,
      "lar": 3650,
      "put": 3651,
      "sw": 3652,
      "uable": 3653,
      "warks": 3654,
      "ĠQu": 3655,
      "ĠÂ£": 3656,
      "Ġtakes": 3657,
      "heard": 3658,
      "Ġsought": 3659,
      "half": 3660,
      "Ġmood": 3661,
      "Ġmatch": 3662,
      "Ġbree": 3663,
      "attered": 3664,
      "Ġpity": 3665,
      "Ġpaid": 3666,
      "Ġnames": 3667,
      "Ġbell": 3668,
      "Ġthirty": 3669,
      "sea": 3670,
      "Ġrecomm": 3671,
      "ays": 3672,
      "Ġash": 3673,
      "rob": 3674,
      "ĠTw": 3675,
      "quest": 3676,
      "ĠBourgh": 3677,
      "Ġupper": 3678,
      "Ġleaves": 3679,
      "estrade": 3680,
      "Ġrich": 3681,
      "anted": 3682,
      "Ġkilled": 3683,
      "Ġunable": 3684,
      "Ġalarm": 3685,
      "Ġyours": 3686,
      "Ġamid": 3687,
      "ishing": 3688,
      "acific": 3689,
      "Ġsprang": 3690,
      "Ġrock": 3691,
      "Ġtwelve": 3692,
      "Ġdesired": 3693,
      "conf": 3694,
      "ĠRuc": 3695,
      "Ġwrote": 3696,
      "served": 3697,
      "Ġempt": 3698,
      "Ġgives": 3699,
      "ception": 3700,
      "grat": 3701,
      "noon": 3702,
      "Ġcontinually": 3703,
      "lerable": 3704,
      "opy": 3705,
      "Ġfinished": 3706,
      "Ġholding": 3707,
      "Ġabsence": 3708,
      "Ġlaughed": 3709,
      "Ġparticularly": 3710,
      "Ġcapable": 3711,
      "Ġexample": 3712,
      "Ġheavens": 3713,
      "Ġattend": 3714,
      "Ġpresence": 3715,
      "Ġcaused": 3716,
      "ĠAmerican": 3717,
      "Ġseamen": 3718,
      "Ġinformation": 3719,
      "Ġopposite": 3720,
      "ajesty": 3721,
      "choly": 3722,
      "itudes": 3723,
      "Look": 3724,
      "Nor": 3725,
      "gu": 3726,
      "moment": 3727,
      "mock": 3728,
      "sue": 3729,
      "water": 3730,
      "Ġsank": 3731,
      "Ġwre": 3732,
      "Ġmeth": 3733,
      "Ġmove": 3734,
      "enge": 3735,
      "Ġfate": 3736,
      "Ġfood": 3737,
      "Ġfla": 3738,
      "Ġcand": 3739,
      "Ġclaim": 3740,
      "Ġinhab": 3741,
      "Ġdressed": 3742,
      "Ġlose": 3743,
      "Ġyield": 3744,
      "vere": 3745,
      "Ġforce": 3746,
      "Ġweak": 3747,
      "illar": 3748,
      "ĠSp": 3749,
      "ĠHad": 3750,
      "geon": 3751,
      "Ġvac": 3752,
      "Ġspare": 3753,
      "Ġbox": 3754,
      "Ġobt": 3755,
      "Ġoffice": 3756,
      "Ġourselves": 3757,
      "soon": 3758,
      "soci": 3759,
      "Ġthrow": 3760,
      "Ġspecies": 3761,
      "retch": 3762,
      "Ġrage": 3763,
      "eneva": 3764,
      "ians": 3765,
      "Ġsurface": 3766,
      "Ġopening": 3767,
      "ĠYes": 3768,
      "Ġsteady": 3769,
      "standing": 3770,
      "Ġterror": 3771,
      "Ġskin": 3772,
      "Ġdrop": 3773,
      "ĠLadyship": 3774,
      "duce": 3775,
      "Ġfortun": 3776,
      "ierce": 3777,
      "Ġcutting": 3778,
      "Ġdrive": 3779,
      "Ġsorrow": 3780,
      "Ġviolent": 3781,
      "Ġcentre": 3782,
      "Ġstudy": 3783,
      "Ġneighbourhood": 3784,
      "Ġdifficult": 3785,
      "Ġcoffin": 3786,
      "iculars": 3787,
      "Ġuncommon": 3788,
      "Ġposition": 3789,
      "[_": 3790,
      "bly": 3791,
      "ef": 3792,
      "fall": 3793,
      "mod": 3794,
      "matter": 3795,
      "mates": 3796,
      "oss": 3797,
      "pat": 3798,
      "ral": 3799,
      "sister": 3800,
      "uished": 3801,
      "zen": 3802,
      "Ġ5": 3803,
      "ndered": 3804,
      "Ġbore": 3805,
      "ences": 3806,
      "Ġcli": 3807,
      "leton": 3808,
      "Ġded": 3809,
      "Ġdam": 3810,
      "Ġdouble": 3811,
      "Ġhull": 3812,
      "Ġlur": 3813,
      "Ġeff": 3814,
      "Ġthreat": 3815,
      "Ġthunder": 3816,
      "Ġgrew": 3817,
      "idden": 3818,
      "Ġrevol": 3819,
      "urally": 3820,
      "key": 3821,
      "liest": 3822,
      "Ġsuspe": 3823,
      "ĠMcCarthy": 3824,
      "ĠHenry": 3825,
      "Ġshown": 3826,
      "ouses": 3827,
      "Ġrain": 3828,
      "Ġking": 3829,
      "Ġdog": 3830,
      "ĠCar": 3831,
      "umn": 3832,
      "Ġjack": 3833,
      "Ġpress": 3834,
      "Ġspread": 3835,
      "Ġard": 3836,
      "lessness": 3837,
      "Ġgrass": 3838,
      "white": 3839,
      "Ġthrust": 3840,
      "jection": 3841,
      "pense": 3842,
      "expect": 3843,
      "without": 3844,
      "Ġrooms": 3845,
      "Ġcarpenter": 3846,
      "Ġfamiliar": 3847,
      "Ġpossessed": 3848,
      "Ġfinding": 3849,
      "Ġpresented": 3850,
      "spir": 3851,
      "myself": 3852,
      "Ġinvitation": 3853,
      "Ġtea": 3854,
      "Ġcorp": 3855,
      "cuse": 3856,
      "william": 3857,
      "Ġsounds": 3858,
      "however": 3859,
      "Ġpromised": 3860,
      "Ġacquainted": 3861,
      "Ġsimilar": 3862,
      "Ġmeeting": 3863,
      "Ġexplain": 3864,
      "contin": 3865,
      "ilips": 3866,
      "Ġ1894": 3867,
      "Ġexperience": 3868,
      "Ġemploy": 3869,
      "Ġemployed": 3870,
      "itzwilliam": 3871,
      "Ġvirtue": 3872,
      "Ġmemory": 3873,
      "Copy": 3874,
      "Darcy": 3875,
      "Fish": 3876,
      "Per": 3877,
      "Where": 3878,
      "]]": 3879,
      "case": 3880,
      "ially": 3881,
      "ivers": 3882,
      "nib": 3883,
      "oc": 3884,
      "oke": 3885,
      "sat": 3886,
      "wal": 3887,
      "hest": 3888,
      "inn": 3889,
      "Ġwinter": 3890,
      "Ġwoe": 3891,
      "Ġmater": 3892,
      "Ġbent": 3893,
      "Ġbran": 3894,
      "itable": 3895,
      "enes": 3896,
      "Ġcovered": 3897,
      "Ġpil": 3898,
      "ometimes": 3899,
      "Ġlif": 3900,
      "Ġbehold": 3901,
      "stem": 3902,
      "stone": 3903,
      "Ġaside": 3904,
      "almost": 3905,
      "Ġsoot": 3906,
      "life": 3907,
      "ĠSA": 3908,
      "ĠSimon": 3909,
      "Ġfeatures": 3910,
      "hank": 3911,
      "ĠTheir": 3912,
      "ĠCome": 3913,
      "Ġliked": 3914,
      "ĠDer": 3915,
      "Ġprove": 3916,
      "ĠPacific": 3917,
      "ĠEvery": 3918,
      "Ġimmense": 3919,
      "Ġbold": 3920,
      "Ġtwice": 3921,
      "Ġremoved": 3922,
      "ruction": 3923,
      "Ġobvious": 3924,
      "coming": 3925,
      "Ġspeech": 3926,
      "Ġreser": 3927,
      "Ġjustice": 3928,
      "Ġfamous": 3929,
      "Ġaddressed": 3930,
      "Ġsails": 3931,
      "ĠForster": 3932,
      "Ġpoints": 3933,
      "Ġchanged": 3934,
      "Ġstands": 3935,
      "Ġchest": 3936,
      "Ġnorth": 3937,
      "Ġreadily": 3938,
      "Ġforehead": 3939,
      "Ġsensations": 3940,
      "Ġequally": 3941,
      "ĠAllen": 3942,
      "shall": 3943,
      "Ġmountain": 3944,
      "Ġboys": 3945,
      "Ġfavourite": 3946,
      "000": 3947,
      "Ġcontrary": 3948,
      "ology": 3949,
      "Ġdestroyed": 3950,
      "Ġoccupied": 3951,
      "Ġfinger": 3952,
      "Ġleaning": 3953,
      "Ġremembered": 3954,
      "Ġtruly": 3955,
      "ĠRucastle": 3956,
      "Copyright": 3957,
      "Al": 3958,
      "Bennet": 3959,
      "aper": 3960,
      "cor": 3961,
      "cried": 3962,
      "det": 3963,
      "gar": 3964,
      "gest": 3965,
      "ius": 3966,
      "towards": 3967,
      "Ġ6": 3968,
      "Ġ7": 3969,
      "Ġtree": 3970,
      "Ġtale": 3971,
      "hered": 3972,
      "erous": 3973,
      "oul": 3974,
      "Ġmaid": 3975,
      "Ġbor": 3976,
      "Ġder": 3977,
      "Ġnice": 3978,
      "Ġbearing": 3979,
      "utch": 3980,
      "ament": 3981,
      "Ġsuf": 3982,
      "ĠMor": 3983,
      "ĠMar": 3984,
      "ĠBo": 3985,
      "Ġvic": 3986,
      "Ġnearer": 3987,
      "Ġlies": 3988,
      "Ġwhenever": 3989,
      "pond": 3990,
      "Ġamaz": 3991,
      "Ġje": 3992,
      "Ġjet": 3993,
      "tell": 3994,
      "loved": 3995,
      "ips": 3996,
      "acc": 3997,
      "acious": 3998,
      "Ġquitted": 3999,
      "blem": 4000,
      "Ġenorm": 4001,
      "Ġcomprehe": 4002,
      "olly": 4003,
      "Ġspend": 4004,
      "ĠĠĠĠĠĠĠĠĠĠĠĠĠĠĠĠĠĠĠĠĠĠĠĠ": 4005,
      "cial": 4006,
      "play": 4007,
      "Ġyounger": 4008,
      "Ġreturning": 4009,
      "Ġregret": 4010,
      "Ġdifference": 4011,
      "Ġbroke": 4012,
      "Ġterrible": 4013,
      "Ġquestions": 4014,
      "Ġrelated": 4015,
      "Ġprofound": 4016,
      "Ġvisitor": 4017,
      "Ġcharge": 4018,
      "appearance": 4019,
      "._]]": 4020,
      "Nothing": 4021,
      "Ġproceeded": 4022,
      "Ġyesterday": 4023,
      "Ġphilosop": 4024,
      "Ġaccompl": 4025,
      "Ġwhispered": 4026,
      "Ġconcerned": 4027,
      "Ġsympath": 4028,
      "earth": 4029,
      "Ġorders": 4030,
      "Ġfrightened": 4031,
      "Ġrapidly": 4032,
      "Ġignorant": 4033,
      "Ġadmiration": 4034,
      "Ġshouted": 4035,
      "Ġprivate": 4036,
      "Ġflukes": 4037,
      "Ġbeside": 4038,
      "aggoo": 4039,
      "uddenly": 4040,
      "Ġrecommend": 4041,
      "Ġempty": 4042,
      "Her": 4043,
      "Lady": 4044,
      "Sherlock": 4045,
      "bing": 4046,
      "bling": 4047,
      "gener": 4048,
      "gentle": 4049,
      "mo": 4050,
      "master": 4051,
      "pany": 4052,
      "sk": 4053,
      "son": 4054,
      "Ġsla": 4055,
      "Ġsize": 4056,
      "rees": 4057,
      "Ġbread": 4058,
      "Ġfight": 4059,
      "Ġcustom": 4060,
      "orous": 4061,
      "Ġdom": 4062,
      "atic": 4063,
      "Ġpiece": 4064,
      "Ġpounds": 4065,
      "Ġnarrow": 4066,
      "Ġlake": 4067,
      "Ġloose": 4068,
      "Ġyards": 4069,
      "Ġgas": 4070,
      "idel": 4071,
      "lig": 4072,
      "Ġdecl": 4073,
      "ĠHertfordshire": 4074,
      "Ġconsent": 4075,
      "astic": 4076,
      "Ġvenge": 4077,
      "Ġexp": 4078,
      "ĠCape": 4079,
      "Ġunfortunate": 4080,
      "Ġkne": 4081,
      "law": 4082,
      "Ġsomewhere": 4083,
      "tend": 4084,
      "Ġagony": 4085,
      "Ġanybody": 4086,
      "delight": 4087,
      "Ġquit": 4088,
      "icking": 4089,
      "Ġadvent": 4090,
      "Ġyellow": 4091,
      "Ġdisposition": 4092,
      "Ġsmell": 4093,
      "Ġways": 4094,
      "comes": 4095,
      "Ġplaces": 4096,
      "Ġaccident": 4097,
      "Ġrepresent": 4098,
      "Ġinstance": 4099,
      "Ġprote": 4100,
      "Ġprison": 4101,
      "Ġdistant": 4102,
      "Ġappears": 4103,
      "coat": 4104,
      "cogn": 4105,
      "Ġ11": 4106,
      "Ġsailing": 4107,
      "Ġputting": 4108,
      "Ġsteel": 4109,
      "Ġclean": 4110,
      "ĠVictor": 4111,
      "Ġdeadly": 4112,
      "Ġfinal": 4113,
      "Ġactually": 4114,
      "Ġstrugg": 4115,
      "Ġpaused": 4116,
      "Ġsufficient": 4117,
      "morning": 4118,
      "Ġconnected": 4119,
      "Ġanxiety": 4120,
      "Ġattended": 4121,
      "Ġcontrast": 4122,
      "Ġlaughing": 4123,
      "While": 4124,
      "interest": 4125,
      "Ġextraordinary": 4126,
      "ĠPhilips": 4127,
      "circumst": 4128,
      "ograph": 4129,
      "Ġavoid": 4130,
      "ILOR": 4131,
      "Ġashore": 4132,
      "ĠSAILOR": 4133,
      "After": 4134,
      "From": 4135,
      "Never": 4136,
      "bus": 4137,
      "give": 4138,
      "mas": 4139,
      "mur": 4140,
      "mate": 4141,
      "same": 4142,
      "rec": 4143,
      "Ġbab": 4144,
      "Ġbank": 4145,
      "isto": 4146,
      "Ġcity": 4147,
      "Ġinn": 4148,
      "Ġdared": 4149,
      "asing": 4150,
      "Ġpack": 4151,
      "Ġhell": 4152,
      "Ġheat": 4153,
      "Ġhate": 4154,
      "Ġreceiving": 4155,
      "Ġrevenge": 4156,
      "Ġanger": 4157,
      "Ġancient": 4158,
      "illy": 4159,
      "ifying": 4160,
      "Ġdeli": 4161,
      "ĠHare": 4162,
      "Ġshud": 4163,
      "Ġconve": 4164,
      "Ġleap": 4165,
      "Ġexcess": 4166,
      "Ġabhor": 4167,
      "ĠDr": 4168,
      "ĠDaggoo": 4169,
      "tended": 4170,
      "Ġproc": 4171,
      "itely": 4172,
      "urning": 4173,
      "inkled": 4174,
      "ĠGood": 4175,
      "ĠGeneva": 4176,
      "Ġfaith": 4177,
      "ertion": 4178,
      "Ġhoped": 4179,
      "Ġsmiling": 4180,
      "Ġgrin": 4181,
      "Ġchurch": 4182,
      "achment": 4183,
      "consc": 4184,
      "Ġattached": 4185,
      "cience": 4186,
      "plain": 4187,
      "Ġapparent": 4188,
      "Ġhearts": 4189,
      "nowled": 4190,
      "ships": 4191,
      "Ġadvance": 4192,
      "Ġinside": 4193,
      "Ġrecovered": 4194,
      "Ġhelm": 4195,
      "Ġfold": 4196,
      "Ġguess": 4197,
      "affe": 4198,
      "Ġideas": 4199,
      "Ġlively": 4200,
      "Ġdecided": 4201,
      "Ġadmire": 4202,
      "work": 4203,
      "world": 4204,
      "Ġutmost": 4205,
      "Ġevidence": 4206,
      "Ġconnection": 4207,
      "Ġangry": 4208,
      "consider": 4209,
      "Ġflying": 4210,
      "stein": 4211,
      "Ġhigher": 4212,
      "between": 4213,
      "Ġhanging": 4214,
      "iveness": 4215,
      "Ġsubstance": 4216,
      "Ġinfluence": 4217,
      "Ġmethod": 4218,
      "ez": 4219,
      "fle": 4220,
      "mother": 4221,
      "Ġ8": 4222,
      "Ġtask": 4223,
      "Ġtempt": 4224,
      "Ġtaste": 4225,
      "hem": 4226,
      "Ġwhe": 4227,
      "Ġband": 4228,
      "Ġborn": 4229,
      "Ġpowers": 4230,
      "Ġhen": 4231,
      "Ġlat": 4232,
      "sey": 4233,
      "Ġgen": 4234,
      "verse": 4235,
      "Ġones": 4236,
      "Ġnoticed": 4237,
      "Ġwear": 4238,
      "keeper": 4239,
      "ĠAust": 4240,
      "thousand": 4241,
      "ĠHurst": 4242,
      "Ġvig": 4243,
      "Ġnoise": 4244,
      "Ġknock": 4245,
      "ĠDid": 4246,
      "Ġjury": 4247,
      "igantic": 4248,
      "Ġpop": 4249,
      "Ġroyal": 4250,
      "ĠNever": 4251,
      "Ġshoulders": 4252,
      "Ġdiscovery": 4253,
      "Ġperil": 4254,
      "Ġscience": 4255,
      "fted": 4256,
      "Ġsooner": 4257,
      "Ġglancing": 4258,
      "Ġattack": 4259,
      "Ġhappen": 4260,
      "suff": 4261,
      "Ġlog": 4262,
      "Ġdisting": 4263,
      "Ġwriting": 4264,
      "Ġmisfortune": 4265,
      "Ġintended": 4266,
      "Ġlandlord": 4267,
      "Ġdirected": 4268,
      "Ġriver": 4269,
      "Ġrigging": 4270,
      "Ġrelation": 4271,
      "ĠHowever": 4272,
      "Ġwoods": 4273,
      "whales": 4274,
      "Ġaffectionate": 4275,
      "Ġdelighted": 4276,
      "Ġresolution": 4277,
      "Ġexcited": 4278,
      "Ġoccasionally": 4279,
      "Ġprobable": 4280,
      "Ġplanks": 4281,
      "Ġflew": 4282,
      "Ġjaws": 4283,
      "ĠXX": 4284,
      "Ġbulk": 4285,
      "Ġdeparted": 4286,
      "Ġswimming": 4287,
      "Ġgratitude": 4288,
      "Ġintervals": 4289,
      "Ġconsequence": 4290,
      "Ġincreased": 4291,
      "Ġshadow": 4292,
      "Ġdeclared": 4293,
      "Ġenemy": 4294,
      "Ġenormous": 4295,
      "An": 4296,
      "Pray": 4297,
      "ax": 4298,
      "dest": 4299,
      "foll": 4300,
      "lers": 4301,
      "mark": 4302,
      "pillar": 4303,
      "tal": 4304,
      "Ġtack": 4305,
      "Ġack": 4306,
      "Ġsin": 4307,
      "rely": 4308,
      "Ġcord": 4309,
      "Ġdry": 4310,
      "Ġpuzz": 4311,
      "strange": 4312,
      "Ġease": 4313,
      "irth": 4314,
      "Ġweary": 4315,
      "rill": 4316,
      "Ġstat": 4317,
      "Ġstairs": 4318,
      "child": 4319,
      "Ġmelan": 4320,
      "abs": 4321,
      "ĠAye": 4322,
      "ifference": 4323,
      "ĠSat": 4324,
      "three": 4325,
      "Ġdeeper": 4326,
      "Ġdearest": 4327,
      "Ġconcluded": 4328,
      "ulf": 4329,
      "ulation": 4330,
      "usted": 4331,
      "Ġexcl": 4332,
      "Ġrise": 4333,
      "ĠCat": 4334,
      "ĠCla": 4335,
      "Ġunhappy": 4336,
      "agers": 4337,
      "Ġproduced": 4338,
      "Ġshape": 4339,
      "belie": 4340,
      "Ġenvelo": 4341,
      "Ġdisappeared": 4342,
      "many": 4343,
      "Ġsche": 4344,
      "Ġharm": 4345,
      "Ġgrown": 4346,
      "Ġblubber": 4347,
      "Ġtrain": 4348,
      "igned": 4349,
      "pens": 4350,
      "Ġinstances": 4351,
      "Ġproud": 4352,
      "Ġunderstood": 4353,
      "Heading": 4354,
      "Ġapprehens": 4355,
      "Ġswall": 4356,
      "Ġ10": 4357,
      "Ġ12": 4358,
      "Ġpointing": 4359,
      "posure": 4360,
      "Ġincred": 4361,
      "Ġstead": 4362,
      "Ġintention": 4363,
      "Ġskull": 4364,
      "Ġstrangely": 4365,
      "Ġaffected": 4366,
      "aterpillar": 4367,
      "Ġmadam": 4368,
      "ecause": 4369,
      "Ġstrongly": 4370,
      "Ġprecious": 4371,
      "smith": 4372,
      "import": 4373,
      "Ġpulled": 4374,
      "Ġanguish": 4375,
      "Ġmodern": 4376,
      "Ġgolden": 4377,
      "Ġhammock": 4378,
      "Ġjudge": 4379,
      "Ġcruel": 4380,
      "Ġdestroy": 4381,
      "Ġfingers": 4382,
      "Ġforgotten": 4383,
      "feelings": 4384,
      "Ġinquiries": 4385,
      "Ġcompliment": 4386,
      "ĠScot": 4387,
      "Ġnervous": 4388,
      "Ġlanguage": 4389,
      "ĠSteelkilt": 4390,
      "Indeed": 4391,
      "Ġskeleton": 4392,
      "Ġbreeze": 4393,
      "Ġsuffered": 4394,
      "business": 4395,
      "Ġmelancholy": 4396,
      "LE": 4397,
      "aly": 4398,
      "ald": 4399,
      "bur": 4400,
      "bone": 4401,
      "evil": 4402,
      "eyes": 4403,
      "lad": 4404,
      "lass": 4405,
      "mine": 4406,
      "mitted": 4407,
      "pur": 4408,
      "pol": 4409,
      "ram": 4410,
      "rather": 4411,
      "sol": 4412,
      "ture": 4413,
      "vast": 4414,
      "whether": 4415,
      "xion": 4416,
      "Ġty": 4417,
      "Ġwha": 4418,
      "requ": 4419,
      "resh": 4420,
      "Ġbag": 4421,
      "iture": 4422,
      "itive": 4423,
      "onet": 4424,
      "orse": 4425,
      "orough": 4426,
      "armed": 4427,
      "Ġda": 4428,
      "Ġdignity": 4429,
      "Ġpause": 4430,
      "Ġpair": 4431,
      "Ġheed": 4432,
      "Ġnur": 4433,
      "Ġbeloved": 4434,
      "stri": 4435,
      "âĢľ_": 4436,
      "âĢĿâĢĶ": 4437,
      "Ġur": 4438,
      "Ġresent": 4439,
      "Ġstuff": 4440,
      "Ġmeasure": 4441,
      "aming": 4442,
      "ĠTHE": 4443,
      "Ġsuit": 4444,
      "Ġsuspect": 4445,
      "ores": 4446,
      "ĠMe": 4447,
      "ĠSometimes": 4448,
      "Ġdeb": 4449,
      "Ġdelay": 4450,
      "Ġshrie": 4451,
      "Ġvict": 4452,
      "ems": 4453,
      "Ġexh": 4454,
      "Ġris": 4455,
      "Ġfears": 4456,
      "uses": 4457,
      "ĠCom": 4458,
      "urely": 4459,
      "uments": 4460,
      "isting": 4461,
      "perhaps": 4462,
      "Ġaft": 4463,
      "often": 4464,
      "acity": 4465,
      "ĠFitzwilliam": 4466,
      "Ġadvert": 4467,
      "ĠGerman": 4468,
      "ĠGreenland": 4469,
      "Ġparticulars": 4470,
      "Ġdesir": 4471,
      "Ġdesert": 4472,
      "Ġcontent": 4473,
      "Ġmarve": 4474,
      "Ġprot": 4475,
      "Ġcalling": 4476,
      "Ġlock": 4477,
      "Ġtelling": 4478,
      "hole": 4479,
      "ials": 4480,
      "Ġcrown": 4481,
      "prise": 4482,
      "Ġ17": 4483,
      "Ġpossession": 4484,
      "lication": 4485,
      "box": 4486,
      "Ġrefuse": 4487,
      "Ġsunk": 4488,
      "Ġwants": 4489,
      "ounce": 4490,
      "Ġsigns": 4491,
      "Ġdancing": 4492,
      "Ġmidnight": 4493,
      "Ġimagination": 4494,
      "chair": 4495,
      "cannot": 4496,
      "Ġhastily": 4497,
      "stantly": 4498,
      "Ġservant": 4499,
      "Ġchiefly": 4500,
      "Ġpersuaded": 4501,
      "Ġbulwarks": 4502,
      "Ġanimal": 4503,
      "Ġmusic": 4504,
      "Ġdifficulty": 4505,
      "Ġextremely": 4506,
      "Ġvillage": 4507,
      "Ġtender": 4508,
      "Ġseparate": 4509,
      "Ġmystery": 4510,
      "Ġaccording": 4511,
      "ienced": 4512,
      "Ġimpression": 4513,
      "Ġintense": 4514,
      "Ġcouple": 4515,
      "Ġinhabit": 4516,
      "satisf": 4517,
      "..": 4518,
      ":--": 4519,
      "AN": 4520,
      "Char": 4521,
      "Did": 4522,
      "God": 4523,
      "Wickham": 4524,
      "bu": 4525,
      "book": 4526,
      "dri": 4527,
      "dark": 4528,
      "oor": 4529,
      "oked": 4530,
      "sil": 4531,
      "Ġ9": 4532,
      "Ġess": 4533,
      "reed": 4534,
      "Ġobe": 4535,
      "Ġbig": 4536,
      "edall": 4537,
      "itical": 4538,
      "oned": 4539,
      "Ġfet": 4540,
      "Ġfill": 4541,
      "Ġfaint": 4542,
      "Ġoffered": 4543,
      "Ġtossed": 4544,
      "Ġdwell": 4545,
      "anation": 4546,
      "Ġpor": 4547,
      "Ġpul": 4548,
      "Ġhero": 4549,
      "Ġniece": 4550,
      "Ġga": 4551,
      "Ġgain": 4552,
      "Ġgale": 4553,
      "Ġrendered": 4554,
      "Ġasce": 4555,
      "always": 4556,
      "urday": 4557,
      "Ġstation": 4558,
      "ĠMajesty": 4559,
      "ĠSqu": 4560,
      "thou": 4561,
      "Ġcongrat": 4562,
      "Ġupstairs": 4563,
      "ource": 4564,
      "ational": 4565,
      "ĠWind": 4566,
      "empl": 4567,
      "Ġmanage": 4568,
      "usual": 4569,
      "arther": 4570,
      "Ġordered": 4571,
      "umped": 4572,
      "Ġcomb": 4573,
      "ĠLook": 4574,
      "ĠLestrade": 4575,
      "fee": 4576,
      "Ġoutside": 4577,
      "agreeable": 4578,
      "acet": 4579,
      "bles": 4580,
      "These": 4581,
      "irect": 4582,
      "Ġlikewise": 4583,
      "Ġgover": 4584,
      "Ġshoulder": 4585,
      "Ġperform": 4586,
      "Ġgreatly": 4587,
      "Ġrace": 4588,
      "Ġdistress": 4589,
      "oubled": 4590,
      "oubted": 4591,
      "Ġnaturally": 4592,
      "Ġbelief": 4593,
      "Ġinches": 4594,
      "Ġindul": 4595,
      "Ġlarger": 4596,
      "Ġadvanced": 4597,
      "Ġconsideration": 4598,
      "Ġharpoons": 4599,
      "anything": 4600,
      "Ġforecastle": 4601,
      "brary": 4602,
      "Ġrelations": 4603,
      "Ġaware": 4604,
      "Ġhonor": 4605,
      "Ġsatisfaction": 4606,
      "Ġsolitary": 4607,
      "Ġartic": 4608,
      "Ġapproached": 4609,
      "Ġvalue": 4610,
      "Ġbringing": 4611,
      "panied": 4612,
      "Ġedge": 4613,
      "Ġfatal": 4614,
      "Ġconceal": 4615,
      "Ġgazing": 4616,
      "Ġpersuade": 4617,
      "Ġpictures": 4618,
      "Ġbirds": 4619,
      "Ġstreets": 4620,
      "Ġswiftly": 4621,
      "Ġclouds": 4622,
      "Ġprepared": 4623,
      "Ġattentions": 4624,
      "Ġsurrounded": 4625,
      "Ġschool": 4626,
      "necessary": 4627,
      "pleasant": 4628,
      "Ġclient": 4629,
      "Ġvengeance": 4630,
      "Ġhence": 4631,
      "ĠAusten": 4632,
      "edallah": 4633,
      "Will": 4634,
      "_.âĢĿ": 4635,
      "bout": 4636,
      "bert": 4637,
      "cher": 4638,
      "char": 4639,
      "ev": 4640,
      "fit": 4641,
      "felt": 4642,
      "gen": 4643,
      "iant": 4644,
      "lance": 4645,
      "make": 4646,
      "pic": 4647,
      "swe": 4648,
      "saw": 4649,
      "tra": 4650,
      "uced": 4651,
      "view": 4652,
      "woman": 4653,
      "Ġaction": 4654,
      "Ġwid": 4655,
      "Ġwicked": 4656,
      "haw": 4657,
      "having": 4658,
      "eding": 4659,
      "Ġfain": 4660,
      "Ġfarther": 4661,
      "Ġcher": 4662,
      "Ġcell": 4663,
      "Ġcool": 4664,
      "Ġtow": 4665,
      "Ġdust": 4666,
      "Ġdue": 4667,
      "Ġdying": 4668,
      "Ġhunt": 4669,
      "Ġpains": 4670,
      "Ġpushed": 4671,
      "Ġnine": 4672,
      "Ġlone": 4673,
      "Ġemer": 4674,
      "Ġge": 4675,
      "Ġgoose": 4676,
      "Ġgigantic": 4677,
      "idently": 4678,
      "Ġrene": 4679,
      "Ġrejo": 4680,
      "Ġstir": 4681,
      "Ġanch": 4682,
      "Ġsold": 4683,
      "ĠMouse": 4684,
      "ĠAh": 4685,
      "quite": 4686,
      "ĠSee": 4687,
      "alling": 4688,
      "ĠHa": 4689,
      "ulate": 4690,
      "Ġlear": 4691,
      "Ġvague": 4692,
      "Ġexcuse": 4693,
      "Ġfeared": 4694,
      "ĠCHAPTER": 4695,
      "ĠCaterpillar": 4696,
      "Ġamuse": 4697,
      "perate": 4698,
      "ĠEven": 4699,
      "Ġspr": 4700,
      "Ġrolling": 4701,
      "Ġarch": 4702,
      "ranken": 4703,
      "Ġhoisted": 4704,
      "Ġparted": 4705,
      "Ġscream": 4706,
      "Ġscenes": 4707,
      "ĠOur": 4708,
      "Ġsmiled": 4709,
      "Ġchin": 4710,
      "Ġchim": 4711,
      "why": 4712,
      "Ġblows": 4713,
      "----": 4714,
      "pleasure": 4715,
      "Ġendure": 4716,
      "Ġglanced": 4717,
      "Ġreport": 4718,
      "serve": 4719,
      "Ġpossess": 4720,
      "Ġpresently": 4721,
      "Ġlightning": 4722,
      "Ġreflections": 4723,
      "Ġreading": 4724,
      "Ġrecord": 4725,
      "Ġinfin": 4726,
      "Ġmoving": 4727,
      "Ġshark": 4728,
      "rief": 4729,
      "Ġbenevol": 4730,
      "Ġstriking": 4731,
      "Ġexplained": 4732,
      "Ġfallen": 4733,
      "Ġregarded": 4734,
      "Ġpulling": 4735,
      "Ġvex": 4736,
      "Ġflesh": 4737,
      "Ġfishermen": 4738,
      "Ġpitch": 4739,
      "Ġhammer": 4740,
      "against": 4741,
      "Ġburning": 4742,
      "Ġlimbs": 4743,
      "Ġearnestly": 4744,
      "Ġhighest": 4745,
      "Ġstopped": 4746,
      "rudent": 4747,
      "Ġconclusion": 4748,
      "Ġfoolish": 4749,
      "Ġhideous": 4750,
      "Ġeternal": 4751,
      "Ġhitherto": 4752,
      "Ġsuggest": 4753,
      "Ġcheeks": 4754,
      "Ġsuspended": 4755,
      "Perhaps": 4756,
      "rankenstein": 4757,
      "Chapter": 4758,
      "OO": 4759,
      "Sir": 4760,
      "Some": 4761,
      "Such": 4762,
      "Thank": 4763,
      "bow": 4764,
      "boy": 4765,
      "fam": 4766,
      "fact": 4767,
      "host": 4768,
      "iery": 4769,
      "mist": 4770,
      "opp": 4771,
      "prom": 4772,
      "sight": 4773,
      "sford": 4774,
      "too": 4775,
      "table": 4776,
      "take": 4777,
      "yard": 4778,
      "rep": 4779,
      "rect": 4780,
      "eds": 4781,
      "ision": 4782,
      "inging": 4783,
      "Ġdashed": 4784,
      "Ġhook": 4785,
      "Ġpan": 4786,
      "Ġparent": 4787,
      "Ġpardon": 4788,
      "Ġhabit": 4789,
      "Ġlan": 4790,
      "Ġlord": 4791,
      "Ġlater": 4792,
      "Ġbeings": 4793,
      "oward": 4794,
      "lying": 4795,
      "vering": 4796,
      "Ġwhist": 4797,
      "along": 4798,
      "Ġmyster": 4799,
      "Ġstout": 4800,
      "Ġstretched": 4801,
      "Ġant": 4802,
      "oop": 4803,
      "lies": 4804,
      "ĠMay": 4805,
      "ify": 4806,
      "quet": 4807,
      "ĠSh": 4808,
      "ths": 4809,
      "things": 4810,
      "ĠHave": 4811,
      "Ġconst": 4812,
      "Ġconject": 4813,
      "ulations": 4814,
      "Ġleak": 4815,
      "Ġlevel": 4816,
      "Ġrush": 4817,
      "usions": 4818,
      "Ġuneas": 4819,
      "umult": 4820,
      "ateful": 4821,
      "Ġwouldn": 4822,
      "Ġpreced": 4823,
      "Ġpressed": 4824,
      "Ġprogress": 4825,
      "onday": 4826,
      "Ġovercome": 4827,
      "Ġoverboard": 4828,
      "ĠFedallah": 4829,
      "because": 4830,
      "Ġdislike": 4831,
      "Ġhole": 4832,
      "Ġremind": 4833,
      "Ġafternoon": 4834,
      "Ġchoose": 4835,
      "Ġgoodness": 4836,
      "Ġentertain": 4837,
      "Ġendured": 4838,
      "Ġconscious": 4839,
      "Ġattachment": 4840,
      "Ġinstr": 4841,
      "Ġmariners": 4842,
      "Ġretreat": 4843,
      "Ġretired": 4844,
      "super": 4845,
      "orses": 4846,
      "Ġlocked": 4847,
      "Ġcarrying": 4848,
      "young": 4849,
      "aughter": 4850,
      "ĠWhales": 4851,
      "arboard": 4852,
      "itional": 4853,
      "posing": 4854,
      "Ġvisited": 4855,
      "hys": 4856,
      "Ġassur": 4857,
      "Ġreasons": 4858,
      "Ġcleared": 4859,
      "Ġcontinue": 4860,
      "ĠWhile": 4861,
      "Ġsignific": 4862,
      "Ġsystem": 4863,
      "Ġunderstanding": 4864,
      "looked": 4865,
      "speak": 4866,
      "Ġtransp": 4867,
      "ĠDoctor": 4868,
      "Starbuck": 4869,
      "Ġtouched": 4870,
      "Ġimmediate": 4871,
      "Ġastern": 4872,
      "Ġmotive": 4873,
      "Ġslightest": 4874,
      "whole": 4875,
      "Ġtorn": 4876,
      "Ġeste": 4877,
      "Ġelev": 4878,
      "cluding": 4879,
      "country": 4880,
      "ĠUn": 4881,
      "Ġsquare": 4882,
      "Ġcivil": 4883,
      "Ġruin": 4884,
      "Ġbrave": 4885,
      "Ġrequest": 4886,
      "Ġcomfortable": 4887,
      "Ġhinted": 4888,
      "Ġjudgment": 4889,
      "Ġfrost": 4890,
      "Ġdescribe": 4891,
      "Ġordinary": 4892,
      "ustomed": 4893,
      "Ġutterly": 4894,
      "break": 4895,
      "Ġoriginal": 4896,
      "Ġrelief": 4897,
      "Ġbodily": 4898,
      "course": 4899,
      "Ġsucceeded": 4900,
      "ividual": 4901,
      "Ġintelligence": 4902,
      "Ġvictim": 4903,
      "Certain": 4904,
      "bound": 4905,
      "bene": 4906,
      "bits": 4907,
      "clo": 4908,
      "cond": 4909,
      "either": 4910,
      "mag": 4911,
      "upp": 4912,
      "vest": 4913,
      "wa": 4914,
      "wood": 4915,
      "Ġtest": 4916,
      "inqu": 4917,
      "Ġsong": 4918,
      "Ġsnat": 4919,
      "Ġwra": 4920,
      "hast": 4921,
      "Ġbase": 4922,
      "Ġfer": 4923,
      "Ġfem": 4924,
      "Ġcup": 4925,
      "Ġcatch": 4926,
      "Ġoffe": 4927,
      "letter": 4928,
      "orious": 4929,
      "Ġdat": 4930,
      "Ġhouses": 4931,
      "Ġpool": 4932,
      "Ġlof": 4933,
      "otograph": 4934,
      "uttle": 4935,
      "Ġeleg": 4936,
      "Ġghost": 4937,
      "idents": 4938,
      "Ġresemb": 4939,
      "Ġwhiteness": 4940,
      "allest": 4941,
      "uries": 4942,
      "Ġforty": 4943,
      "Ġweap": 4944,
      "rig": 4945,
      "Ġsevere": 4946,
      "ĠMonday": 4947,
      "Ġsho": 4948,
      "Ġconven": 4949,
      "Ġexha": 4950,
      "Ġrow": 4951,
      "Ġunlike": 4952,
      "umps": 4953,
      "poise": 4954,
      "Ġcannib": 4955,
      "Ġprodig": 4956,
      "Ġproblem": 4957,
      "Ġworking": 4958,
      "ĠPl": 4959,
      "achel": 4960,
      "Ġshare": 4961,
      "Ġshake": 4962,
      "ĠHeaven": 4963,
      "icks": 4964,
      "Ġhollow": 4965,
      "Ġremaining": 4966,
      "manner": 4967,
      "Ġchamber": 4968,
      "sole": 4969,
      "conven": 4970,
      "comple": 4971,
      "Ġconsolation": 4972,
      "Ġmarrying": 4973,
      "avour": 4974,
      "Ġkeel": 4975,
      "Ġraise": 4976,
      "Ġcommence": 4977,
      "byshire": 4978,
      "hope": 4979,
      "Ġswam": 4980,
      "Ġpleasing": 4981,
      "Ġpersons": 4982,
      "Ġindign": 4983,
      "Ġindifferent": 4984,
      "boats": 4985,
      "Ġbusy": 4986,
      "Ġcorres": 4987,
      "Ġtrace": 4988,
      "therefore": 4989,
      "Ġguard": 4990,
      "Ġguilt": 4991,
      "afie": 4992,
      "Ġobserving": 4993,
      "change": 4994,
      "Ġfearful": 4995,
      "Ġobjects": 4996,
      "Ġfortnight": 4997,
      "door": 4998,
      "Ġdriven": 4999,
      "Ġmistake": 5000,
      "Ġtorment": 5001,
      "Ġencoun": 5002,
      "Ġviolence": 5003,
      "ĠNothing": 5004,
      "Ġcrossed": 5005,
      "Ġmissing": 5006,
      "Ġfaces": 5007,
      "Ġdemand": 5008,
      "Ġnarrative": 5009,
      "Ġsuspicion": 5010,
      "Ġbattle": 5011,
      "Ġgunw": 5012,
      "Ġwelcome": 5013,
      "harpoone": 5014,
      "large": 5015,
      "question": 5016,
      "Ġfortunate": 5017,
      "Ġlofty": 5018,
      "Are": 5019,
      "Upon": 5020,
      "_,âĢĿ": 5021,
      "ault": 5022,
      "bor": 5023,
      "bro": 5024,
      "best": 5025,
      "bled": 5026,
      "far": 5027,
      "iers": 5028,
      "iac": 5029,
      "liness": 5030,
      "piece": 5031,
      "phant": 5032,
      "rand": 5033,
      "rate": 5034,
      "sus": 5035,
      "sure": 5036,
      "tin": 5037,
      "took": 5038,
      "inity": 5039,
      "Ġspect": 5040,
      "Ġoar": 5041,
      "Ġowing": 5042,
      "hamed": 5043,
      "erc": 5044,
      "Ġber": 5045,
      "Ġbare": 5046,
      "Ġbowed": 5047,
      "ites": 5048,
      "Ġfully": 5049,
      "Ġfitted": 5050,
      "Ġcunning": 5051,
      "Ġdig": 5052,
      "atory": 5053,
      "ann": 5054,
      "Ġpicked": 5055,
      "Ġhes": 5056,
      "Ġlit": 5057,
      "Ġelo": 5058,
      "Ġthorough": 5059,
      "Ġgay": 5060,
      "enth": 5061,
      "Ġrecogn": 5062,
      "Ġasking": 5063,
      "Ġassemb": 5064,
      "alities": 5065,
      "adually": 5066,
      "ĠTr": 5067,
      "quiet": 5068,
      "ĠSund": 5069,
      "ĠHold": 5070,
      "Ġvoy": 5071,
      "Ġrum": 5072,
      "Ġunw": 5073,
      "Ġunivers": 5074,
      "Ġaloud": 5075,
      "uming": 5076,
      "umph": 5077,
      "umerous": 5078,
      "laps": 5079,
      "ĠDutch": 5080,
      "Ġjump": 5081,
      "agan": 5082,
      "agger": 5083,
      "Ġprefer": 5084,
      "Ġproof": 5085,
      "ĠPet": 5086,
      "inks": 5087,
      "akeman": 5088,
      "Ġsport": 5089,
      "iousness": 5090,
      "Ġdism": 5091,
      "Ġperils": 5092,
      "Ġfault": 5093,
      "Ġbrown": 5094,
      "Ġbride": 5095,
      "Ġscra": 5096,
      "uded": 5097,
      "Ġchoice": 5098,
      "righton": 5099,
      "Ġcontri": 5100,
      "Ġcontempt": 5101,
      "Ġblank": 5102,
      "ĠRad": 5103,
      "Ġwatched": 5104,
      "Ġglory": 5105,
      "Ġcop": 5106,
      "Ġsideways": 5107,
      "Ġwinds": 5108,
      "Ġapplied": 5109,
      "Ġminds": 5110,
      "Ġsettle": 5111,
      "Ġpursue": 5112,
      "Ġincident": 5113,
      "ernal": 5114,
      "Ġhump": 5115,
      "untarily": 5116,
      "Ġlargest": 5117,
      "Ġdoubtless": 5118,
      "Ġsouls": 5119,
      "Ġbreaking": 5120,
      "ĠThou": 5121,
      "Ġalongside": 5122,
      "Ġcondem": 5123,
      "Ġlistening": 5124,
      "Ġawful": 5125,
      "Ġsentence": 5126,
      "Stubb": 5127,
      "Ġundert": 5128,
      "character": 5129,
      "Ġexamined": 5130,
      "Ġconviction": 5131,
      "Ġapproach": 5132,
      "Ġapproaching": 5133,
      "regular": 5134,
      "Ġvaluable": 5135,
      "Ġfairly": 5136,
      "Ġestab": 5137,
      "Ġestate": 5138,
      "Ġpursued": 5139,
      "Ġhunters": 5140,
      "Ġeduc": 5141,
      "Ġwhisper": 5142,
      "fortunes": 5143,
      "Ġbuild": 5144,
      "Ġprevented": 5145,
      "Ġcrowd": 5146,
      "Ġdelicacy": 5147,
      "Ġinterrupted": 5148,
      "ĠHunsford": 5149,
      "Ġleeward": 5150,
      "Ġtimid": 5151,
      "Ġtongue": 5152,
      "Ġpilot": 5153,
      "Ġcomprehend": 5154,
      "Ġsympathy": 5155,
      "istol": 5156,
      "Ġshudder": 5157,
      "Ġacknowled": 5158,
      "ĠClair": 5159,
      "Ġexhib": 5160,
      "Ex": 5161,
      "Have": 5162,
      "IS": 5163,
      "care": 5164,
      "called": 5165,
      "dom": 5166,
      "eye": 5167,
      "ipped": 5168,
      "kers": 5169,
      "lim": 5170,
      "luck": 5171,
      "lished": 5172,
      "lott": 5173,
      "lantic": 5174,
      "phan": 5175,
      "rant": 5176,
      "rise": 5177,
      "tem": 5178,
      "inate": 5179,
      "Ġsne": 5180,
      "Ġwore": 5181,
      "Ġwretch": 5182,
      "oup": 5183,
      "Ġmach": 5184,
      "Ġbid": 5185,
      "once": 5186,
      "inger": 5187,
      "Ġfare": 5188,
      "Ġfierce": 5189,
      "Ġcro": 5190,
      "Ġcoo": 5191,
      "Ġtoss": 5192,
      "lee": 5193,
      "Ġdish": 5194,
      "Ġdull": 5195,
      "Ġhidden": 5196,
      "Ġhorses": 5197,
      "another": 5198,
      "Ġhailed": 5199,
      "Ġlou": 5200,
      "Ġlately": 5201,
      "Ġbecomes": 5202,
      "sters": 5203,
      "step": 5204,
      "several": 5205,
      "Ġrear": 5206,
      "Ġassoci": 5207,
      "Ġashamed": 5208,
      "Ġwithdra": 5209,
      "Ġforms": 5210,
      "Ġstars": 5211,
      "Ġsearch": 5212,
      "cture": 5213,
      "ĠĠĠĠĠĠ": 5214,
      "ĠTurn": 5215,
      "ilty": 5216,
      "thur": 5217,
      "ĠHos": 5218,
      "ĠBrighton": 5219,
      "Ġlest": 5220,
      "estic": 5221,
      "ĠWas": 5222,
      "unted": 5223,
      "Ġrank": 5224,
      "antime": 5225,
      "Ġnephe": 5226,
      "Ġdoom": 5227,
      "Ġdoors": 5228,
      "Ġlibrary": 5229,
      "ortal": 5230,
      "Ġwhence": 5231,
      "Ġprey": 5232,
      "Ġworn": 5233,
      "aces": 5234,
      "inking": 5235,
      "Ġspace": 5236,
      "bell": 5237,
      "began": 5238,
      "Ġrob": 5239,
      "Ġusually": 5240,
      "Ġboots": 5241,
      "liza": 5242,
      "new": 5243,
      "arson": 5244,
      "apable": 5245,
      "Ġlonged": 5246,
      "ĠJames": 5247,
      "Ġobst": 5248,
      "Ġnevertheless": 5249,
      "Ġsmallest": 5250,
      "Ġchap": 5251,
      "pector": 5252,
      "Ġthrowing": 5253,
      "Ġblame": 5254,
      "Ġentering": 5255,
      "compl": 5256,
      "oylott": 5257,
      "Ġwatery": 5258,
      "Ġhappens": 5259,
      "Ġpron": 5260,
      "exc": 5261,
      "Ġdistr": 5262,
      "venty": 5263,
      "iality": 5264,
      "Ġswung": 5265,
      "Ġindividual": 5266,
      "Ġregiment": 5267,
      "Ġdoublo": 5268,
      "Ġswear": 5269,
      "Ġcareful": 5270,
      "Ġshortly": 5271,
      "Ġeyeing": 5272,
      "icularly": 5273,
      "respect": 5274,
      "Ġmurdered": 5275,
      "Ġclosely": 5276,
      "Ġdelightful": 5277,
      "Ġmasts": 5278,
      "Ġprecisely": 5279,
      "Ġcompanions": 5280,
      "Ġceased": 5281,
      "Ġsmoking": 5282,
      "happiness": 5283,
      "Ġtempor": 5284,
      "strong": 5285,
      "Ġviolently": 5286,
      "Ġcommanded": 5287,
      "Ġservice": 5288,
      "Ġgazed": 5289,
      "Ġdeparture": 5290,
      "Ġfurnished": 5291,
      "Ġfurniture": 5292,
      "Ġinnocence": 5293,
      "Ġinquiry": 5294,
      "Ġassistance": 5295,
      "portion": 5296,
      "Ġnegro": 5297,
      "Ġslipped": 5298,
      "Ġdelicate": 5299,
      "ĠChristian": 5300,
      "Ġtravell": 5301,
      "ĠParsee": 5302,
      "Ġcompassion": 5303,
      "Ġmilk": 5304,
      "Ġengagement": 5305,
      "Ġpraise": 5306,
      "Ġjacket": 5307,
      "expected": 5308,
      "Ġborne": 5309,
      "ĠSaturday": 5310,
      "Charlotte": 5311,
      "Ġchimney": 5312,
      "Certainly": 5313,
      "Ġnephew": 5314,
      ".,": 5315,
      "AR": 5316,
      "IN": 5317,
      "Le": 5318,
      "Yet": 5319,
      "aul": 5320,
      "bid": 5321,
      "captain": 5322,
      "doub": 5323,
      "different": 5324,
      "gall": 5325,
      "iance": 5326,
      "mir": 5327,
      "mount": 5328,
      "nes": 5329,
      "rain": 5330,
      "since": 5331,
      "tis": 5332,
      "went": 5333,
      "zing": 5334,
      "Ġident": 5335,
      "Ġwet": 5336,
      "ref": 5337,
      "Ġoper": 5338,
      "Ġmould": 5339,
      "Ġbirth": 5340,
      "enced": 5341,
      "Ġflight": 5342,
      "Ġcig": 5343,
      "Ġcaut": 5344,
      "Ġtore": 5345,
      "Ġtoil": 5346,
      "arse": 5347,
      "Ġinex": 5348,
      "atha": 5349,
      "anim": 5350,
      "Ġpark": 5351,
      "Ġpuff": 5352,
      "omy": 5353,
      "Ġeast": 5354,
      "Ġthro": 5355,
      "Ġgla": 5356,
      "verted": 5357,
      "iring": 5358,
      "Ġwhir": 5359,
      "aling": 5360,
      "Ġsty": 5361,
      "ctors": 5362,
      "Ġmeas": 5363,
      "ander": 5364,
      "Ġsaf": 5365,
      "ĠSafie": 5366,
      "Ġdeceived": 5367,
      "Ġsheet": 5368,
      "oused": 5369,
      "uls": 5370,
      "Ġleis": 5371,
      "Ġrust": 5372,
      "Ġfever": 5373,
      "Ġnoon": 5374,
      "Ġnobody": 5375,
      "Ġunusual": 5376,
      "Ġalter": 5377,
      "ĠLike": 5378,
      "Ġaband": 5379,
      "feet": 5380,
      "ode": 5381,
      "Ġouter": 5382,
      "ighed": 5383,
      "Ġworked": 5384,
      "Ġworks": 5385,
      "aches": 5386,
      "ĠEliza": 5387,
      "Ġshade": 5388,
      "Ġshaking": 5389,
      "Ġroof": 5390,
      "Ġbosom": 5391,
      "short": 5392,
      "ĠStill": 5393,
      "Ġremorse": 5394,
      "Ġthinks": 5395,
      "Ġobjection": 5396,
      "Ġtroubled": 5397,
      "conne": 5398,
      "Ġinstinct": 5399,
      "avo": 5400,
      "Ġsupply": 5401,
      "Ġmoral": 5402,
      "onsense": 5403,
      "Ġconfidence": 5404,
      "Ġinvar": 5405,
      "Ġreflect": 5406,
      "Ġreflection": 5407,
      "Ġintent": 5408,
      "Ġgenerous": 5409,
      "lerably": 5410,
      "Ġbestowed": 5411,
      "Ġlands": 5412,
      "Ġdetails": 5413,
      "Ġobservation": 5414,
      "willing": 5415,
      "Ġcarefully": 5416,
      "Ġinterested": 5417,
      "disc": 5418,
      "Ġprofess": 5419,
      "Ġthyself": 5420,
      "Ġsleeping": 5421,
      "ĠOnly": 5422,
      "Ġtrial": 5423,
      "Ġneeds": 5424,
      "themselves": 5425,
      "atively": 5426,
      "Ġfloating": 5427,
      "umbling": 5428,
      "Ġevident": 5429,
      "Ġpainful": 5430,
      "Though": 5431,
      "Ġsolid": 5432,
      "small": 5433,
      "hands": 5434,
      "Ġeagerness": 5435,
      "Ġencounter": 5436,
      "Ġproperty": 5437,
      "Ġphotograph": 5438,
      "Ġescaped": 5439,
      "Ġservants": 5440,
      "ĠTurk": 5441,
      "Ġduties": 5442,
      "Ġdangerous": 5443,
      "Ġexperienced": 5444,
      "Ġdescribed": 5445,
      "feeling": 5446,
      "Ġcreation": 5447,
      "Ġignorance": 5448,
      "Ġrecollection": 5449,
      "Ġinclined": 5450,
      "Ġinclination": 5451,
      "visit": 5452,
      "Ġdevoted": 5453,
      "Ġdescend": 5454,
      "Ġprincipal": 5455,
      "Ġodd": 5456,
      "Ġprovided": 5457,
      "Ġdisappointment": 5458,
      "ĠHunter": 5459,
      "Ġshroud": 5460,
      "Ġhorizon": 5461,
      "subject": 5462,
      "Ġbarbar": 5463,
      "ĠSea": 5464,
      "Ġapartment": 5465,
      "Ġeldest": 5466,
      "Ġinvestig": 5467,
      "Ġtranquill": 5468,
      "Ġcorpse": 5469,
      "ĠDerbyshire": 5470,
      "Ġbaby": 5471,
      "ĠScotland": 5472,
      "Ar": 5473,
      "Can": 5474,
      "Lord": 5475,
      "Lizzy": 5476,
      "Se": 5477,
      "_;": 5478,
      "aved": 5479,
      "bat": 5480,
      "both": 5481,
      "done": 5482,
      "fire": 5483,
      "mad": 5484,
      "nor": 5485,
      "name": 5486,
      "ply": 5487,
      "rim": 5488,
      "shar": 5489,
      "spr": 5490,
      "tran": 5491,
      "ule": 5492,
      "war": 5493,
      "wild": 5494,
      "ys": 5495,
      "Ġtide": 5496,
      "Ġahead": 5497,
      "inction": 5498,
      "Ġwing": 5499,
      "rels": 5500,
      "Ġbol": 5501,
      "isement": 5502,
      "itate": 5503,
      "ench": 5504,
      "Ġfow": 5505,
      "Ġfled": 5506,
      "Ġfulf": 5507,
      "Ġcla": 5508,
      "Ġinformed": 5509,
      "Ġdu": 5510,
      "asions": 5511,
      "Ġhills": 5512,
      "aning": 5513,
      "Ġhem": 5514,
      "Ġlot": 5515,
      "Ġlane": 5516,
      "street": 5517,
      "Ġgri": 5518,
      "idge": 5519,
      "Ġrepose": 5520,
      "urbed": 5521,
      "rose": 5522,
      "rope": 5523,
      "Ġstar": 5524,
      "Ġstove": 5525,
      "ools": 5526,
      "abri": 5527,
      "ĠAre": 5528,
      "peculiar": 5529,
      "Ġsaved": 5530,
      "Ġsacri": 5531,
      "ĠSouth": 5532,
      "ĠâĢľ_": 5533,
      "Ġvo": 5534,
      "Ġvice": 5535,
      "ĠWils": 5536,
      "anting": 5537,
      "antity": 5538,
      "Ġmankind": 5539,
      "usi": 5540,
      "arts": 5541,
      "Ġlip": 5542,
      "istic": 5543,
      "tending": 5544,
      "offin": 5545,
      "Ġproject": 5546,
      "Ġpole": 5547,
      "death": 5548,
      "acher": 5549,
      "ĠEur": 5550,
      "Ġspark": 5551,
      "behind": 5552,
      "icken": 5553,
      "near": 5554,
      "Ġperceive": 5555,
      "Ġfailed": 5556,
      "Ġpartly": 5557,
      "Ġpartner": 5558,
      "ints": 5559,
      "Ġgrowing": 5560,
      "Ġcontempl": 5561,
      "civil": 5562,
      "Ġcommission": 5563,
      "sued": 5564,
      "Ġsubtle": 5565,
      "upid": 5566,
      "Ġcertainty": 5567,
      "Ġsecured": 5568,
      ".âĢĻâĢĿ": 5569,
      "Ġkindly": 5570,
      "licity": 5571,
      "Ġindifference": 5572,
      "until": 5573,
      "Ġtear": 5574,
      "Ġrefused": 5575,
      "Ġintimate": 5576,
      "Ġcoronet": 5577,
      "Ġcorrect": 5578,
      "Ġwanting": 5579,
      "prec": 5580,
      "Ġdirections": 5581,
      "Ġinfer": 5582,
      "ĠThus": 5583,
      "ification": 5584,
      "going": 5585,
      "Ġmarks": 5586,
      "yourself": 5587,
      "Ġmadness": 5588,
      "Ġcharming": 5589,
      "Ġdestruction": 5590,
      "Ġrespectable": 5591,
      "arrass": 5592,
      "Ġlowered": 5593,
      "sometimes": 5594,
      "Ġexplanation": 5595,
      "Thus": 5596,
      "Ġglobe": 5597,
      "Ġofficer": 5598,
      "Ġvalley": 5599,
      "twenty": 5600,
      "Ġheavily": 5601,
      "everything": 5602,
      "ĠAngel": 5603,
      "Ġvessels": 5604,
      "Ġaccompanied": 5605,
      "III": 5606,
      "passed": 5607,
      "Ġcottagers": 5608,
      "Ġwalls": 5609,
      "Ġcoffee": 5610,
      "ĠAmerica": 5611,
      "Ġcheerful": 5612,
      "Ġrevealed": 5613,
      "Ġvolume": 5614,
      "Ġgods": 5615,
      "Ġgrasp": 5616,
      "hardly": 5617,
      "Ġterrific": 5618,
      "ĠTwo": 5619,
      "Ġeffort": 5620,
      "Ġbranches": 5621,
      "Ġapparently": 5622,
      "Ġpopular": 5623,
      "Ġexclam": 5624,
      "burgh": 5625,
      "hawk": 5626,
      "OOK": 5627,
      "Ġparents": 5628,
      "Ġlantern": 5629,
      "ĠRadney": 5630,
      "ĠHosmer": 5631,
      "ĠWilson": 5632,
      "Collins": 5633,
      "Every": 5634,
      "Ho": 5635,
      "crew": 5636,
      "favour": 5637,
      "gent": 5638,
      "high": 5639,
      "met": 5640,
      "mission": 5641,
      "pest": 5642,
      "sl": 5643,
      "sign": 5644,
      "tri": 5645,
      "ugg": 5646,
      "win": 5647,
      "wat": 5648,
      "Ã©": 5649,
      "Ġtaught": 5650,
      "Ġsand": 5651,
      "Ġwis": 5652,
      "Ġwine": 5653,
      "Ġwise": 5654,
      "eries": 5655,
      "Ġma": 5656,
      "Ġmult": 5657,
      "Ġblock": 5658,
      "Ġfiery": 5659,
      "Ġcounter": 5660,
      "Ġtolerable": 5661,
      "left": 5662,
      "llen": 5663,
      "llable": 5664,
      "Ġdawn": 5665,
      "ashes": 5666,
      "esc": 5667,
      "Ġhy": 5668,
      "Ġhoo": 5669,
      "Ġhill": 5670,
      "Ġpet": 5671,
      "Ġpick": 5672,
      "Ġnumerous": 5673,
      "Ġhabits": 5674,
      "Ġlung": 5675,
      "Ġbeach": 5676,
      "Ġbeef": 5677,
      "otent": 5678,
      "icy": 5679,
      "Ġet": 5680,
      "Ġthither": 5681,
      "Ġreck": 5682,
      "Ġasleep": 5683,
      "urther": 5684,
      "ads": 5685,
      "ripp": 5686,
      "Ġstock": 5687,
      "Ġserene": 5688,
      "among": 5689,
      "abin": 5690,
      "ckets": 5691,
      "Ġbutter": 5692,
      "raw": 5693,
      "Ġconstant": 5694,
      "Ġvap": 5695,
      "unch": 5696,
      "Ġexerc": 5697,
      "ĠCor": 5698,
      "Ġunconsc": 5699,
      "Ġalarmed": 5700,
      "owned": 5701,
      "orthern": 5702,
      "eling": 5703,
      "Ġsomeone": 5704,
      "ĠDuring": 5705,
      "Ġjolly": 5706,
      "odge": 5707,
      "Ġagitation": 5708,
      "loom": 5709,
      "offic": 5710,
      "Ġprocess": 5711,
      "Ġprolong": 5712,
      "Ġpropri": 5713,
      "Ġponder": 5714,
      "ĠPro": 5715,
      "ĠPray": 5716,
      "ĠEr": 5717,
      "Ġquantity": 5718,
      "Ġshame": 5719,
      "Ġenergy": 5720,
      "lized": 5721,
      "Ġdisplay": 5722,
      "apan": 5723,
      "rugged": 5724,
      "inted": 5725,
      "Ġscattered": 5726,
      "Ġsmiles": 5727,
      "Ġchapter": 5728,
      "Ġplenty": 5729,
      "Ġenth": 5730,
      "ĠRo": 5731,
      "Ġspec": 5732,
      "Ġspecial": 5733,
      "attering": 5734,
      "Ġconscience": 5735,
      "Ġglimp": 5736,
      "Ġfeels": 5737,
      "Ġpeep": 5738,
      "Ġcoach": 5739,
      "rences": 5740,
      "ailing": 5741,
      "osen": 5742,
      "plic": 5743,
      "Ġclam": 5744,
      "within": 5745,
      "success": 5746,
      "Ġsubsequ": 5747,
      "Ġdisturb": 5748,
      "Ġwindward": 5749,
      "bye": 5750,
      "hog": 5751,
      "Ġsupport": 5752,
      "Ġindepend": 5753,
      "ĠKent": 5754,
      "Ġcrimin": 5755,
      "ibank": 5756,
      "Ġheartily": 5757,
      "Ġ13": 5758,
      "Ġstrang": 5759,
      "Ġwaist": 5760,
      "years": 5761,
      "Ġinduce": 5762,
      "Ġdrag": 5763,
      "Ġdragged": 5764,
      "Ġconfident": 5765,
      "Ġinvited": 5766,
      "Ġsorts": 5767,
      "Ġsteward": 5768,
      "Ġsilently": 5769,
      "Ġintim": 5770,
      "Ġadvancing": 5771,
      "Ġdiff": 5772,
      "Ġskill": 5773,
      "Ġfoam": 5774,
      "Ġblacksmith": 5775,
      "Ġdecks": 5776,
      "chance": 5777,
      "appro": 5778,
      "Ġexpectation": 5779,
      "Ġrelate": 5780,
      "Ġframe": 5781,
      "Ġarrive": 5782,
      "Ġcharm": 5783,
      "Ġplaying": 5784,
      "works": 5785,
      "Ġsensation": 5786,
      "attoo": 5787,
      "Ġfanc": 5788,
      "lecting": 5789,
      "does": 5790,
      "umbled": 5791,
      "Ġdriving": 5792,
      "Ġevidently": 5793,
      "Ġsatisfy": 5794,
      "Ġgrounds": 5795,
      "shaw": 5796,
      "ĠNantucketer": 5797,
      "Ġsolitude": 5798,
      "Ġfalling": 5799,
      "Ġelement": 5800,
      "countenance": 5801,
      "Ġmerchant": 5802,
      "Ġrule": 5803,
      "Ġfatig": 5804,
      "Ġwarmth": 5805,
      "Ġgaze": 5806,
      "Ġverd": 5807,
      "Ġfifteen": 5808,
      "Ġpenetr": 5809,
      "Ġdivine": 5810,
      "hearted": 5811,
      "mael": 5812,
      "Ġbelonged": 5813,
      "Ġimprove": 5814,
      "Ġvanished": 5815,
      "ĠChristmas": 5816,
      "Ġwandered": 5817,
      "Ġblessed": 5818,
      "Ġexecution": 5819,
      "Ġimpertin": 5820,
      "Ġstroke": 5821,
      "Ġhorizont": 5822,
      "acquaintance": 5823,
      "ĠAgatha": 5824,
      "Ġmaterial": 5825,
      "Ġdomestic": 5826,
      "Ġknees": 5827,
      "Ġdaily": 5828,
      "irectly": 5829,
      "oubtedly": 5830,
      "Ġlonely": 5831,
      "doubt": 5832,
      "Ġsafety": 5833,
      "Ġleisure": 5834,
      "abriel": 5835,
      "Ġglimpse": 5836,
      ".)": 5837,
      "De": 5838,
      "First": 5839,
      "Lydia": 5840,
      "May": 5841,
      "Pequod": 5842,
      "RE": 5843,
      "Re": 5844,
      "bra": 5845,
      "bel": 5846,
      "bbed": 5847,
      "cast": 5848,
      "dge": 5849,
      "four": 5850,
      "five": 5851,
      "hon": 5852,
      "home": 5853,
      "ived": 5854,
      "ipping": 5855,
      "kward": 5856,
      "mured": 5857,
      "rat": 5858,
      "running": 5859,
      "sound": 5860,
      "sum": 5861,
      "spo": 5862,
      "sperm": 5863,
      "uously": 5864,
      "var": 5865,
      "van": 5866,
      "vive": 5867,
      "vings": 5868,
      "wond": 5869,
      "watch": 5870,
      "zed": 5871,
      "Ġz": 5872,
      "Ġing": 5873,
      "Ġtumult": 5874,
      "inal": 5875,
      "Ġslo": 5876,
      "Ġsource": 5877,
      "Ġwest": 5878,
      "recy": 5879,
      "Ġmir": 5880,
      "Ġmour": 5881,
      "Ġbrief": 5882,
      "enough": 5883,
      "Ġfra": 5884,
      "Ġcoll": 5885,
      "Ġdining": 5886,
      "athered": 5887,
      "Ġhost": 5888,
      "ange": 5889,
      "Ġphant": 5890,
      "hattered": 5891,
      "Ġlid": 5892,
      "Ġlances": 5893,
      "Ġbears": 5894,
      "owder": 5895,
      "imag": 5896,
      "Ġgather": 5897,
      "Ġwasn": 5898,
      "Ġreward": 5899,
      "Ġreference": 5900,
      "urd": 5901,
      "urs": 5902,
      "Ġstiff": 5903,
      "ĠTell": 5904,
      "Ġsust": 5905,
      "ĠMer": 5906,
      "ĠAm": 5907,
      "pended": 5908,
      "ilities": 5909,
      "alls": 5910,
      "Ġdep": 5911,
      "Ġshoes": 5912,
      "âĢĶâĢĺ": 5913,
      "olent": 5914,
      "oline": 5915,
      "Ġneat": 5916,
      "erson": 5917,
      "outhern": 5918,
      "Ġlibert": 5919,
      "ĠLakeman": 5920,
      "Ġknee": 5921,
      "Ġabsent": 5922,
      "Ġaboard": 5923,
      "Ġtheirs": 5924,
      "fell": 5925,
      "Ġagreed": 5926,
      "Ġcanv": 5927,
      "Ġpropos": 5928,
      "Ġprovo": 5929,
      "deep": 5930,
      "ĠFrank": 5931,
      "ĠFrankenstein": 5932,
      "Ġthanks": 5933,
      "Ġroll": 5934,
      "Ġroared": 5935,
      "Ġrocks": 5936,
      "Ġseeking": 5937,
      "Ġusing": 5938,
      "Ġboast": 5939,
      "shmael": 5940,
      "Ġdisposed": 5941,
      "others": 5942,
      "ĠStand": 5943,
      "Ġparties": 5944,
      "Ġobsc": 5945,
      "ubs": 5946,
      "Ġplun": 5947,
      "linging": 5948,
      "conversation": 5949,
      "ĠRe": 5950,
      "ĠRoylott": 5951,
      "common": 5952,
      "compan": 5953,
      "Ġendless": 5954,
      "Ġaccur": 5955,
      "Ġaccustomed": 5956,
      "Ġrepro": 5957,
      "avy": 5958,
      "Ġclue": 5959,
      "Ġclass": 5960,
      "Ġrare": 5961,
      "serv": 5962,
      "Ġmeanwhile": 5963,
      "iana": 5964,
      "lands": 5965,
      "rested": 5966,
      "Ġlighted": 5967,
      "Ġpurcha": 5968,
      "Ġmisfortunes": 5969,
      "Ġrestored": 5970,
      "Ġindic": 5971,
      "Ġinvis": 5972,
      "Ġstepped": 5973,
      "Ġclever": 5974,
      "Ġcontinual": 5975,
      "Ġterrors": 5976,
      "Ġdetail": 5977,
      "racious": 5978,
      "apping": 5979,
      "ĠAtlantic": 5980,
      "Ġuseless": 5981,
      "Ġuseful": 5982,
      "Ġsubjects": 5983,
      "Ġuncertain": 5984,
      "Ġawkward": 5985,
      "Ġcrack": 5986,
      "Ġhonest": 5987,
      "duction": 5988,
      "Ġtriump": 5989,
      "attention": 5990,
      "Ġclearly": 5991,
      "natured": 5992,
      "ishery": 5993,
      "Ġevinced": 5994,
      "Ġprecip": 5995,
      "Ġprecise": 5996,
      "knife": 5997,
      "Ġaffairs": 5998,
      "Ġcerem": 5999,
      "Ġfastened": 6000,
      "Ġencoura": 6001,
      "Ġfreely": 6002,
      "Ġrude": 6003,
      "Ġaccompany": 6004,
      "Ġsympt": 6005,
      "Ġsupposing": 6006,
      "Ġcruising": 6007,
      "Ġastonished": 6008,
      "Ġmuttered": 6009,
      "Ġfrequent": 6010,
      "ĠPerth": 6011,
      "ĠPerhaps": 6012,
      "Ġdressing": 6013,
      "rudence": 6014,
      "Ġpractical": 6015,
      "Ã¦mon": 6016,
      "Ġargument": 6017,
      "Ġdisappointed": 6018,
      "Ġmagnitude": 6019,
      "occasion": 6020,
      "Ġtreated": 6021,
      "Ġcomparison": 6022,
      "accountable": 6023,
      "determ": 6024,
      "ĠMaria": 6025,
      "Ġaccomplished": 6026,
      "Ġscheme": 6027,
      "Ġapprehension": 6028,
      "important": 6029,
      "Ġurged": 6030,
      "Ġadvertisement": 6031,
      "aceti": 6032,
      "Ġinstrument": 6033,
      "Ġoffended": 6034,
      "Ġeducation": 6035,
      "ĠTurner": 6036,
      "arsonage": 6037,
      "Ġstyle": 6038,
      "Col": 6039,
      "Catherine": 6040,
      "Eng": 6041,
      "Sh": 6042,
      "_),": 6043,
      "apped": 6044,
      "dro": 6045,
      "del": 6046,
      "fat": 6047,
      "flo": 6048,
      "iving": 6049,
      "length": 6050,
      "lines": 6051,
      "pair": 6052,
      "sim": 6053,
      "squ": 6054,
      "sun": 6055,
      "till": 6056,
      "turned": 6057,
      "uel": 6058,
      "whe": 6059,
      "wonder": 6060,
      "Ġ----": 6061,
      "Ġav": 6062,
      "Ġaid": 6063,
      "Ġawe": 6064,
      "inated": 6065,
      "Ġtheory": 6066,
      "erity": 6067,
      "ouched": 6068,
      "Ġmill": 6069,
      "Ġmile": 6070,
      "Ġmixed": 6071,
      "edford": 6072,
      "onies": 6073,
      "Ġfoul": 6074,
      "Ġcries": 6075,
      "Ġcoward": 6076,
      "lets": 6077,
      "llous": 6078,
      "Ġinvent": 6079,
      "ases": 6080,
      "Ġhit": 6081,
      "Ġpir": 6082,
      "Ġpred": 6083,
      "Ġpure": 6084,
      "Ġpage": 6085,
      "Ġnonsense": 6086,
      "Ġla": 6087,
      "Ġbeast": 6088,
      "stit": 6089,
      "otions": 6090,
      "Ġyard": 6091,
      "Ġgate": 6092,
      "idable": 6093,
      "ental": 6094,
      "ential": 6095,
      "Ġrever": 6096,
      "Ġrender": 6097,
      "Ġreaching": 6098,
      "irgin": 6099,
      "Ġwept": 6100,
      "lier": 6101,
      "living": 6102,
      "ĠTake": 6103,
      "quar": 6104,
      "allow": 6105,
      "Ġrat": 6106,
      "Ġrough": 6107,
      "Ġrang": 6108,
      "antages": 6109,
      "Ġfelicity": 6110,
      "outs": 6111,
      "ĠCha": 6112,
      "Ġunion": 6113,
      "Ġunpleasant": 6114,
      "Ġcomposure": 6115,
      "ĠLodge": 6116,
      "eled": 6117,
      "Ġjumped": 6118,
      "fellow": 6119,
      "Ġages": 6120,
      "Ġmoreover": 6121,
      "weather": 6122,
      "Ġprophe": 6123,
      "Ġproportion": 6124,
      "Ġworthy": 6125,
      "Ġpoison": 6126,
      "dec": 6127,
      "Their": 6128,
      "atherley": 6129,
      "ĠFast": 6130,
      "ĠFirst": 6131,
      "mention": 6132,
      "Ġarran": 6133,
      "Ġdisd": 6134,
      "next": 6135,
      "neighbour": 6136,
      "Ġperpend": 6137,
      "ĠStoner": 6138,
      "endeav": 6139,
      "ĠJones": 6140,
      "Ġscient": 6141,
      "ĠOr": 6142,
      "issed": 6143,
      "Ġgradually": 6144,
      "Ġchosen": 6145,
      "Ġshipmates": 6146,
      "whose": 6147,
      "Ġtrunk": 6148,
      "Ġentrance": 6149,
      "ĠRam": 6150,
      "ĠRoman": 6151,
      "order": 6152,
      "jections": 6153,
      "Ġbegun": 6154,
      "Ġbegins": 6155,
      "aneously": 6156,
      "Ġfriendship": 6157,
      "Ġretained": 6158,
      "Ġprow": 6159,
      "tens": 6160,
      "Ġflow": 6161,
      "Ġrapt": 6162,
      "Ġlover": 6163,
      "Ġwrinkled": 6164,
      "Ġwindlass": 6165,
      "Ġapplication": 6166,
      "ension": 6167,
      "Ġsecrecy": 6168,
      "ibr": 6169,
      "Ġsetting": 6170,
      "Ġbetray": 6171,
      "fortable": 6172,
      "pressed": 6173,
      "Ġindis": 6174,
      "Ġconfusion": 6175,
      "Ġinvested": 6176,
      "Ġseries": 6177,
      "Ġreflected": 6178,
      "Ġreasonable": 6179,
      "Ġsurely": 6180,
      "Ġinspector": 6181,
      "Ġbestow": 6182,
      "angled": 6183,
      "Ġcreated": 6184,
      "Ġguest": 6185,
      "Ġguilty": 6186,
      "asket": 6187,
      "prob": 6188,
      "Ġextrem": 6189,
      "Ġribs": 6190,
      "Ġfreed": 6191,
      "changed": 6192,
      "_.)": 6193,
      "ĠThose": 6194,
      "Ġbedroom": 6195,
      "brance": 6196,
      "brought": 6197,
      "resol": 6198,
      "Ġsignal": 6199,
      "Ġforming": 6200,
      "Ġawoke": 6201,
      "Ġaccounts": 6202,
      "Ġstartled": 6203,
      "Ġstepfather": 6204,
      "Ġabsurd": 6205,
      "Ġcalc": 6206,
      "Ġrespects": 6207,
      "Ġuttered": 6208,
      "Ġfloated": 6209,
      "Ġviews": 6210,
      "Ġthousands": 6211,
      "Ġoccasional": 6212,
      "Ġreality": 6213,
      "Ġprobability": 6214,
      "Ġslightly": 6215,
      "Ġcease": 6216,
      "Ġdegrees": 6217,
      "ĠUpon": 6218,
      "Ġerect": 6219,
      "Ġselfish": 6220,
      "ĠArthur": 6221,
      "Ġdevils": 6222,
      "ĠDeath": 6223,
      "Ġhunting": 6224,
      "Ġeffects": 6225,
      "Ġrequired": 6226,
      "Ġcrossing": 6227,
      "Ġconceit": 6228,
      "Ġnecessity": 6229,
      "Ġembra": 6230,
      "Ġenjoyment": 6231,
      "evening": 6232,
      "Ġsadly": 6233,
      "Ġlabour": 6234,
      "human": 6235,
      "Ġdisgrace": 6236,
      "Ġoriginally": 6237,
      "coloured": 6238,
      "Ġpractice": 6239,
      "Ġdeclare": 6240,
      "Ġaccordingly": 6241,
      "Ġmalice": 6242,
      "Ġsinking": 6243,
      "Ġdistinctly": 6244,
      "Ġfields": 6245,
      "Ġcaptured": 6246,
      "Ġloudly": 6247,
      "Ġprofessional": 6248,
      "Ġpreviously": 6249,
      "acquainted": 6250,
      "Ġelder": 6251,
      "Ġwreck": 6252,
      "ĠCaroline": 6253,
      "Ġlifted": 6254,
      "Ġvicinity": 6255,
      "Ġphilosophy": 6256,
      "Ġdeliber": 6257,
      "Ġpuzzled": 6258,
      "Ġstatement": 6259,
      "Ġenvelope": 6260,
      "eville": 6261,
      "Ġdwelling": 6262,
      "ĠWindibank": 6263,
      "family": 6264,
      "Ġelevated": 6265,
      "Ġcorrespond": 6266,
      "Ġgunwale": 6267,
      "ĠSunday": 6268,
      "Ġetc": 6269,
      "Ġenthusi": 6270,
      "Ġfancied": 6271,
      "Ġscientific": 6272,
      "!_": 6273,
      ");": 6274,
      ".*": 6275,
      "Ha": 6276,
      "Just": 6277,
      "ON": 6278,
      "Sperm": 6279,
      "aver": 6280,
      "black": 6281,
      "dy": 6282,
      "drew": 6283,
      "find": 6284,
      "fice": 6285,
      "full": 6286,
      "fancy": 6287,
      "gone": 6288,
      "greg": 6289,
      "hur": 6290,
      "hour": 6291,
      "iably": 6292,
      "kin": 6293,
      "kins": 6294,
      "ojo": 6295,
      "pain": 6296,
      "power": 6297,
      "rained": 6298,
      "sort": 6299,
      "ugh": 6300,
      "Ġrom": 6301,
      "Ġain": 6302,
      "Ġacted": 6303,
      "Ġarose": 6304,
      "incl": 6305,
      "reck": 6306,
      "Ġoak": 6307,
      "handed": 6308,
      "erate": 6309,
      "ouch": 6310,
      "Ġmaint": 6311,
      "Ġbal": 6312,
      "Ġbull": 6313,
      "itc": 6314,
      "enny": 6315,
      "Ġfath": 6316,
      "Ġfix": 6317,
      "Ġcard": 6318,
      "Ġdine": 6319,
      "Ġdried": 6320,
      "aned": 6321,
      "Ġpin": 6322,
      "Ġpieces": 6323,
      "ĠII": 6324,
      "Ġling": 6325,
      "Ġlawn": 6326,
      "otted": 6327,
      "utter": 6328,
      "utation": 6329,
      "iciently": 6330,
      "Ġeh": 6331,
      "Ġthumb": 6332,
      "velled": 6333,
      "Ġgent": 6334,
      "Ġgently": 6335,
      "entire": 6336,
      "alle": 6337,
      "alous": 6338,
      "urg": 6339,
      "Ġnotes": 6340,
      "Ġstor": 6341,
      "Ġstage": 6342,
      "Ġantic": 6343,
      "ctive": 6344,
      "abled": 6345,
      "Ġsolic": 6346,
      "pel": 6347,
      "quick": 6348,
      "ĠSto": 6349,
      "Ġdel": 6350,
      "ĠHorn": 6351,
      "rah": 6352,
      "ĠBedford": 6353,
      "Ġshone": 6354,
      "Ġconvers": 6355,
      "ulting": 6356,
      "Ġleading": 6357,
      "olate": 6358,
      "Ġram": 6359,
      "Ġrout": 6360,
      "Ġrubb": 6361,
      "Ġrushing": 6362,
      "indeed": 6363,
      "ussey": 6364,
      "arted": 6365,
      "ĠCould": 6366,
      "Ġliber": 6367,
      "Ġaltern": 6368,
      "Ġaltered": 6369,
      "ables": 6370,
      "istrate": 6371,
      "akened": 6372,
      "Ġknife": 6373,
      "Ġamount": 6374,
      "ĠDu": 6375,
      "Ġwilling": 6376,
      "aging": 6377,
      "Ġpretend": 6378,
      "Ġpreserve": 6379,
      "Ġworst": 6380,
      "ĠPoor": 6381,
      "acing": 6382,
      "Ġqualities": 6383,
      "inkles": 6384,
      "Ġspine": 6385,
      "Ġenv": 6386,
      "Ġenchan": 6387,
      "ĠNeville": 6388,
      "ĠGu": 6389,
      "ranean": 6390,
      "endous": 6391,
      "vessel": 6392,
      "Ġscar": 6393,
      "Ġscuttle": 6394,
      "Ġgrim": 6395,
      "Ġchose": 6396,
      "Ġplank": 6397,
      "Ġcontents": 6398,
      "Ġglided": 6399,
      "Ġcover": 6400,
      "Ġinstru": 6401,
      "ivity": 6402,
      "Ġflat": 6403,
      "Ġflame": 6404,
      "Ġrail": 6405,
      "Ġcommitted": 6406,
      "Ġnights": 6407,
      "Ġappar": 6408,
      "Ġhousekeeper": 6409,
      "Ġcritical": 6410,
      "Ġsword": 6411,
      "Ġswinging": 6412,
      "Ġpossibility": 6413,
      "onsider": 6414,
      "Ġcursed": 6415,
      "Ġincapable": 6416,
      "ucing": 6417,
      "Ġwonders": 6418,
      "remark": 6419,
      "Ġhopeless": 6420,
      "Ġhorn": 6421,
      "Ġconfined": 6422,
      "Ġstrain": 6423,
      "Ġseriously": 6424,
      "Ġsilver": 6425,
      "Ġrecent": 6426,
      "Ġlesson": 6427,
      "Ġhelped": 6428,
      "angs": 6429,
      "Ġlanded": 6430,
      "Ġsights": 6431,
      "Ġremarks": 6432,
      "Ġsouth": 6433,
      "Ġcollected": 6434,
      "Ġkeeping": 6435,
      "Ġpersonal": 6436,
      "Ġmurmured": 6437,
      "Ġtriumph": 6438,
      "Ġsumm": 6439,
      "understand": 6440,
      "Ġgrace": 6441,
      "Ġmotives": 6442,
      "Ġinquired": 6443,
      "Ġmouths": 6444,
      "Ġpatience": 6445,
      "Ġpatron": 6446,
      "Ġportion": 6447,
      "Ġattending": 6448,
      "Ġcasks": 6449,
      "Ġhunted": 6450,
      "Ġformerly": 6451,
      "Soon": 6452,
      "Ġdeny": 6453,
      "afterwards": 6454,
      "glass": 6455,
      "Ġsocial": 6456,
      "Ġconcealed": 6457,
      "Ġdreams": 6458,
      "Ġembarrass": 6459,
      "Quite": 6460,
      "Ġdescription": 6461,
      "ĠBrit": 6462,
      "humour": 6463,
      "minutes": 6464,
      "Ġventured": 6465,
      "Ġtrembling": 6466,
      "resently": 6467,
      "Ġvanity": 6468,
      "Ġidol": 6469,
      "Ġgloomy": 6470,
      "Ġdescended": 6471,
      "Ġcommunication": 6472,
      "Ġimpatient": 6473,
      "Ġimpatience": 6474,
      "court": 6475,
      "Ġbillows": 6476,
      "ributed": 6477,
      "Ġsufferings": 6478,
      "creature": 6479,
      "creatures": 6480,
      "eanwhile": 6481,
      "kerchief": 6482,
      "Ġobtained": 6483,
      "innacle": 6484,
      "Ġreserved": 6485,
      "gentleman": 6486,
      "affection": 6487,
      "Ġdistinguish": 6488,
      "Ġtype": 6489,
      "Ġresentment": 6490,
      "Ġmarvellous": 6491,
      "Ġinhabitants": 6492,
      "Ġarticles": 6493,
      "Ġanchor": 6494,
      "Ġmysterious": 6495,
      "Ġpreceding": 6496,
      "Ġesteem": 6497,
      "Ġelegant": 6498,
      "lapsed": 6499,
      "Ġacknowledged": 6500,
      "Ġloung": 6501,
      "Ġdoubloon": 6502,
      "Ġtranquillity": 6503,
      "Ġcriminal": 6504,
      "Ġinvisible": 6505,
      "Ġanticip": 6506,
      "(_": 6507,
      "AL": 6508,
      "Boy": 6509,
      "Justine": 6510,
      "Tw": 6511,
      "Would": 6512,
      "dr": 6513,
      "ele": 6514,
      "gain": 6515,
      "gings": 6516,
      "io": 6517,
      "iated": 6518,
      "mid": 6519,
      "making": 6520,
      "pret": 6521,
      "rising": 6522,
      "sac": 6523,
      "sleep": 6524,
      "tar": 6525,
      "uss": 6526,
      "vity": 6527,
      "voyage": 6528,
      "ws": 6529,
      "whel": 6530,
      "Ġtied": 6531,
      "Ġtattoo": 6532,
      "Ġaud": 6533,
      "Ġactions": 6534,
      "inations": 6535,
      "Ġsway": 6536,
      "Ġsilly": 6537,
      "Ġwhar": 6538,
      "Ġwarn": 6539,
      "Ġmouse": 6540,
      "Ġmix": 6541,
      "Ġmock": 6542,
      "itled": 6543,
      "enc": 6544,
      "Ġcost": 6545,
      "Ġcards": 6546,
      "Ġtoma": 6547,
      "aries": 6548,
      "Ġinner": 6549,
      "Ġinsuff": 6550,
      "Ġinconven": 6551,
      "Ġpall": 6552,
      "Ġpig": 6553,
      "Ġpaint": 6554,
      "Ġpaced": 6555,
      "Ġphys": 6556,
      "Ġheaving": 6557,
      "ĠIshmael": 6558,
      "Ġnay": 6559,
      "Ġnamed": 6560,
      "Ġhail": 6561,
      "Ġhaul": 6562,
      "Ġhated": 6563,
      "stad": 6564,
      "utions": 6565,
      "Ġelapsed": 6566,
      "Ġyawn": 6567,
      "Ġyonder": 6568,
      "Ġthine": 6569,
      "Ġthirst": 6570,
      "Ġgest": 6571,
      "ceans": 6572,
      "Ġrese": 6573,
      "Ġrecover": 6574,
      "Ġashes": 6575,
      "urred": 6576,
      "hers": 6577,
      "Ġweep": 6578,
      "rily": 6579,
      "Ġstarboard": 6580,
      "Ġmechan": 6581,
      "keep": 6582,
      "ĠĠĠĠĠĠĠ": 6583,
      "Ġallusion": 6584,
      "pelled": 6585,
      "quis": 6586,
      "Ġdefe": 6587,
      "Ġdeemed": 6588,
      "ĠHar": 6589,
      "ĠHussey": 6590,
      "ĠBos": 6591,
      "ĠBecause": 6592,
      "Ġshowing": 6593,
      "Ġupwards": 6594,
      "told": 6595,
      "ppers": 6596,
      "aston": 6597,
      "olstad": 6598,
      "ĠWest": 6599,
      "Ġexert": 6600,
      "Ġexpense": 6601,
      "Ġroused": 6602,
      "Ġfee": 6603,
      "Ġdogs": 6604,
      "usal": 6605,
      "ĠCo": 6606,
      "ĠCon": 6607,
      "Ġunited": 6608,
      "Ġunnatural": 6609,
      "lace": 6610,
      "else": 6611,
      "ellect": 6612,
      "poor": 6613,
      "Ġamber": 6614,
      "Ġjew": 6615,
      "Ġagent": 6616,
      "Ġagree": 6617,
      "Ġagitated": 6618,
      "Ġcouldn": 6619,
      "inea": 6620,
      "Ġaffect": 6621,
      "love": 6622,
      "Ġprem": 6623,
      "Ġquality": 6624,
      "ĠFrance": 6625,
      "Ġado": 6626,
      "Ġtwisted": 6627,
      "ĠGree": 6628,
      "ĠGabriel": 6629,
      "otherwise": 6630,
      "Ġholy": 6631,
      "Ġhosp": 6632,
      "ngolstad": 6633,
      "ĠJapan": 6634,
      "Ġmostly": 6635,
      "ĠOpen": 6636,
      "Ġgrateful": 6637,
      "Ġdesperate": 6638,
      "Ġcontained": 6639,
      "conv": 6640,
      "bery": 6641,
      "Ġglim": 6642,
      "Ġmariner": 6643,
      "returned": 6644,
      "Ġclergy": 6645,
      "Ġcarries": 6646,
      "Ġapply": 6647,
      "spread": 6648,
      "Ġemotion": 6649,
      "Ġsmaller": 6650,
      "ĠYojo": 6651,
      "locked": 6652,
      "Ġstrict": 6653,
      "Ġfollows": 6654,
      "Ġdoesn": 6655,
      "acey": 6656,
      "Ġrefer": 6657,
      "Ġreasoning": 6658,
      "Ġconsiderably": 6659,
      "Ġlessons": 6660,
      "Ġterm": 6661,
      "Ġtrack": 6662,
      "Ġcreator": 6663,
      "Ġfoe": 6664,
      "Ġnameless": 6665,
      "prof": 6666,
      "Ġextent": 6667,
      "Ġremarkably": 6668,
      "Ġexpressions": 6669,
      "Ġcolumn": 6670,
      "Ġsinging": 6671,
      "Ġdropping": 6672,
      "Ġirons": 6673,
      "Ġadmit": 6674,
      "Ġhurt": 6675,
      "Ġawa": 6676,
      "Ġneeded": 6677,
      "Ġsummit": 6678,
      "Ġburied": 6679,
      "Ġexamine": 6680,
      "Ġinquire": 6681,
      "seeing": 6682,
      "ilig": 6683,
      "ilies": 6684,
      "Ġofficial": 6685,
      "Ġsixty": 6686,
      "Ġdreadfully": 6687,
      "strous": 6688,
      "ĠIndeed": 6689,
      "Ġcentral": 6690,
      "Ġspouts": 6691,
      "Ġdarting": 6692,
      "Ġcalmly": 6693,
      "prived": 6694,
      "blood": 6695,
      "Ġleaned": 6696,
      "writing": 6697,
      "Ġfrightful": 6698,
      "Ġoarsmen": 6699,
      "Which": 6700,
      "Ġventure": 6701,
      "Ġimproved": 6702,
      "person": 6703,
      "Ġdisgust": 6704,
      "Ġintroduced": 6705,
      "Ġintroduce": 6706,
      "better": 6707,
      "marriage": 6708,
      "Ġtravelled": 6709,
      "window": 6710,
      "Ġauthority": 6711,
      "Ġaccepted": 6712,
      "reasonable": 6713,
      "Ġislands": 6714,
      "Ġspeedily": 6715,
      "Ġregularly": 6716,
      "Ġfunny": 6717,
      "Ġprevailed": 6718,
      "Ġdeserved": 6719,
      "concern": 6720,
      "Ġlucky": 6721,
      "Ġflag": 6722,
      "Ġamazement": 6723,
      "circumstance": 6724,
      "Ġfolded": 6725,
      "Ġperilous": 6726,
      "ĠXXX": 6727,
      "Ġfetch": 6728,
      "ĠSquare": 6729,
      "Ġgeese": 6730,
      "Ġlearnt": 6731,
      "Ġbenevolent": 6732,
      "Ġassurance": 6733,
      "Ġweapon": 6734,
      "Ġcannibal": 6735,
      "achelor": 6736,
      "complete": 6737,
      "ĠHolder": 6738,
      "Ġcondemned": 6739,
      "gallant": 6740,
      "Ġthroat": 6741,
      "Ġsubsequent": 6742,
      "Ġhorizontal": 6743,
      "Ġliberty": 6744,
      "Ġcanvas": 6745,
      "itchen": 6746,
      "Ġtomahawk": 6747,
      "ngolstadt": 6748,
      ";âĢĿ": 6749,
      "BOOK": 6750,
      "Clerval": 6751,
      "DE": 6752,
      "Had": 6753,
      "Nantucket": 6754,
      "OL": 6755,
      "Ste": 6756,
      "bes": 6757,
      "bod": 6758,
      "bac": 6759,
      "bted": 6760,
      "born": 6761,
      "cru": 6762,
      "ducing": 6763,
      "each": 6764,
      "fa": 6765,
      "fr": 6766,
      "free": 6767,
      "fold": 6768,
      "fixed": 6769,
      "fric": 6770,
      "gue": 6771,
      "gave": 6772,
      "gaz": 6773,
      "giana": 6774,
      "husband": 6775,
      "iqu": 6776,
      "jack": 6777,
      "jah": 6778,
      "lime": 6779,
      "lady": 6780,
      "mos": 6781,
      "oa": 6782,
      "oli": 6783,
      "post": 6784,
      "pull": 6785,
      "rough": 6786,
      "suddenly": 6787,
      "tons": 6788,
      "ux": 6789,
      "voice": 6790,
      "whis": 6791,
      "xed": 6792,
      "zes": 6793,
      "Ġtread": 6794,
      "Ġax": 6795,
      "Ġaug": 6796,
      "ina": 6797,
      "Ġshattered": 6798,
      "Ġwoo": 6799,
      "Ġwil": 6800,
      "Ġwave": 6801,
      "ouis": 6802,
      "Ġmajest": 6803,
      "itself": 6804,
      "Ġfount": 6805,
      "Ġchat": 6806,
      "Ġtolerably": 6807,
      "Ġtobac": 6808,
      "Ġinch": 6809,
      "Ġdamp": 6810,
      "Ġdense": 6811,
      "Ġdumb": 6812,
      "ĠdÃ¦mon": 6813,
      "asm": 6814,
      "asked": 6815,
      "ators": 6816,
      "anks": 6817,
      "Ġped": 6818,
      "Ġpill": 6819,
      "Ġpistol": 6820,
      "Ġheave": 6821,
      "ĠIII": 6822,
      "stra": 6823,
      "stead": 6824,
      "otest": 6825,
      "utable": 6826,
      "icious": 6827,
      "Ġug": 6828,
      "aye": 6829,
      "alo": 6830,
      "urity": 6831,
      "Ġnotion": 6832,
      "Ġwealth": 6833,
      "Ġstick": 6834,
      "Ġstupid": 6835,
      "Ġseventy": 6836,
      "Ġherd": 6837,
      "Ġangel": 6838,
      "lijah": 6839,
      "ands": 6840,
      "ĠToll": 6841,
      "Ġsul": 6842,
      "ĠMont": 6843,
      "Ġalluded": 6844,
      "people": 6845,
      "ilator": 6846,
      "ĠSer": 6847,
      "ĠSpan": 6848,
      "thus": 6849,
      "Ġdeed": 6850,
      "Ġdemon": 6851,
      "ĠHor": 6852,
      "ĠHaving": 6853,
      "ĠHatherley": 6854,
      "ĠBill": 6855,
      "Ġshoot": 6856,
      "Ġshiver": 6857,
      "Ġvivid": 6858,
      "ements": 6859,
      "Ġexting": 6860,
      "Ġextended": 6861,
      "Ġexertion": 6862,
      "Ġrad": 6863,
      "Ġmanaged": 6864,
      "Ġfeature": 6865,
      "usk": 6866,
      "usive": 6867,
      "Ġunaccountable": 6868,
      "ĠLine": 6869,
      "Ġabode": 6870,
      "Ġsomebody": 6871,
      "pole": 6872,
      "odo": 6873,
      "ods": 6874,
      "agon": 6875,
      "Ġprepar": 6876,
      "Ġproduce": 6877,
      "ĠPor": 6878,
      "acles": 6879,
      "Ġquitting": 6880,
      "Ġspared": 6881,
      "Ġspray": 6882,
      "aret": 6883,
      "Ġarise": 6884,
      "ĠGreat": 6885,
      "ĠIts": 6886,
      "forward": 6887,
      "ĠJust": 6888,
      "Ġowners": 6889,
      "Ġcompared": 6890,
      "Ġscrew": 6891,
      "Ġscorn": 6892,
      "Ġchain": 6893,
      "Ġdescried": 6894,
      "Ġplans": 6895,
      "Ġblast": 6896,
      "consequ": 6897,
      "ĠRoss": 6898,
      "combe": 6899,
      "compass": 6900,
      "Ġpassions": 6901,
      "Ġresp": 6902,
      "Ġresist": 6903,
      "Ġended": 6904,
      "renched": 6905,
      "mean": 6906,
      "Ġmarble": 6907,
      "Ġcalls": 6908,
      "Ġflood": 6909,
      "Ġflames": 6910,
      "Ġyoungest": 6911,
      "Ġsubs": 6912,
      "Ġsublime": 6913,
      "Ġcarved": 6914,
      "Ġfamilies": 6915,
      "Ġ16": 6916,
      "Ġadditional": 6917,
      "Ġoccasions": 6918,
      "poses": 6919,
      "Ġmonoman": 6920,
      "Ġincome": 6921,
      "Ġwondering": 6922,
      "Ġresting": 6923,
      "Ġhumour": 6924,
      "Ġhorrid": 6925,
      "Ġconfused": 6926,
      "Ġconfessed": 6927,
      "Ġfolly": 6928,
      "Ġdoubted": 6929,
      "Ġadvise": 6930,
      "utely": 6931,
      "ggy": 6932,
      "days": 6933,
      "cuss": 6934,
      "Ġcircles": 6935,
      "Ġtraces": 6936,
      "Ġwishing": 6937,
      "Ġslee": 6938,
      "Ġswept": 6939,
      "Ġsincerely": 6940,
      "Ġinfall": 6941,
      "Ġfinish": 6942,
      "Ġcolonel": 6943,
      "Ġlaying": 6944,
      "Ġengra": 6945,
      "Ġfourth": 6946,
      "brother": 6947,
      "goes": 6948,
      "Ġactive": 6949,
      "Ġactivity": 6950,
      "Ġfrantic": 6951,
      "Ġmarket": 6952,
      "Ġadmired": 6953,
      "Ġfury": 6954,
      "Ġcondition": 6955,
      "eches": 6956,
      "Ġarmchair": 6957,
      "Ġcraw": 6958,
      "Ġvisitors": 6959,
      "Ġdestined": 6960,
      "Ġtrif": 6961,
      "Ġsimply": 6962,
      "Ġdanced": 6963,
      "Ġmidst": 6964,
      "ĠĠĠĠĠĠĠĠĠĠĠĠĠĠĠĠĠĠĠĠĠĠĠĠĠĠĠĠĠĠĠĠĠĠĠĠĠĠĠĠĠĠĠĠĠĠĠĠ": 6965,
      "observed": 6966,
      "Ġsentiments": 6967,
      "Ġearthly": 6968,
      "Ġpainted": 6969,
      "Ġmounted": 6970,
      "Thou": 6971,
      "Ġexamination": 6972,
      "Ġexamining": 6973,
      "descri": 6974,
      "interval": 6975,
      "placed": 6976,
      "places": 6977,
      "Ġceiling": 6978,
      "voc": 6979,
      "Ġstayed": 6980,
      "Ġencourage": 6981,
      "Ġfavourable": 6982,
      "Ġdetermine": 6983,
      "flu": 6984,
      "Ġproperly": 6985,
      "Ġbottle": 6986,
      "Ġpatient": 6987,
      "ĠArab": 6988,
      "Ġpresume": 6989,
      "Ġveil": 6990,
      "Ġsnuff": 6991,
      "Ġstudies": 6992,
      "Ġattempted": 6993,
      "ĠNorth": 6994,
      "Ġanimated": 6995,
      "Ġmusk": 6996,
      "Ġenjoyed": 6997,
      "Ġblinds": 6998,
      "written": 6999,
      "Ġfirmly": 7000,
      "Ġbelongs": 7001,
      "justice": 7002,
      "Ġcrowded": 7003,
      "Ġgratified": 7004,
      "surpr": 7005,
      "Ġsolemnly": 7006,
      "Ġsalt": 7007,
      "lasting": 7008,
      "Ġrelieved": 7009,
      "Ġbitterness": 7010,
      "Ġunfold": 7011,
      "Ġmystic": 7012,
      "Ġshadows": 7013,
      "Ġgravely": 7014,
      "iences": 7015,
      "Ġafforded": 7016,
      "Ġbanks": 7017,
      "Ġbodies": 7018,
      "Ġimmortal": 7019,
      "occup": 7020,
      "Ġgrasped": 7021,
      "Ġintens": 7022,
      "Ġendeavouring": 7023,
      "opened": 7024,
      "Ġuncommonly": 7025,
      "Ġardour": 7026,
      "spirits": 7027,
      "Ġadventure": 7028,
      "circumstances": 7029,
      "ĠNevertheless": 7030,
      "Ġtackles": 7031,
      "Ġswallowed": 7032,
      "Ġsteadily": 7033,
      "Ġwhalers": 7034,
      "Ġdebts": 7035,
      "Ġpulpit": 7036,
      "Ġcellar": 7037,
      "Ġamusement": 7038,
      "Ġresemblance": 7039,
      "Ġprodigious": 7040,
      "broken": 7041,
      "Ġvoyages": 7042,
      "Ġbuilding": 7043,
      "Ġmachine": 7044,
      "Ġtemporary": 7045,
      "Ġtraveller": 7046,
      "Ġinvariably": 7047,
      "Ġvoices": 7048,
      "ĠEurope": 7049,
      "ĠRoad": 7050,
      "Ġtriumphant": 7051,
      "Ġenthusiasm": 7052,
      "Ġromantic": 7053,
      "Ġapparition": 7054,
      "ĠOpenshaw": 7055,
      ";--": 7056,
      "?_": 7057,
      "Americ": 7058,
      "Because": 7059,
      "Ch": 7060,
      "Long": 7061,
      "Me": 7062,
      "Our": 7063,
      "Un": 7064,
      "cre": 7065,
      "cer": 7066,
      "cut": 7067,
      "cap": 7068,
      "cott": 7069,
      "cabin": 7070,
      "daughter": 7071,
      "eur": 7072,
      "event": 7073,
      "fla": 7074,
      "fied": 7075,
      "faced": 7076,
      "further": 7077,
      "gir": 7078,
      "hundred": 7079,
      "ikes": 7080,
      "len": 7081,
      "list": 7082,
      "mal": 7083,
      "nal": 7084,
      "past": 7085,
      "phere": 7086,
      "rs": 7087,
      "ris": 7088,
      "rad": 7089,
      "rated": 7090,
      "rows": 7091,
      "sens": 7092,
      "six": 7093,
      "town": 7094,
      "turn": 7095,
      "uvi": 7096,
      "vial": 7097,
      "ware": 7098,
      "wife": 7099,
      "yl": 7100,
      "yram": 7101,
      "Ãª": 7102,
      "ĠZ": 7103,
      "Ġtu": 7104,
      "Ġting": 7105,
      "Ġtar": 7106,
      "Ġtid": 7107,
      "Ġtro": 7108,
      "Ġtight": 7109,
      "Ġtrop": 7110,
      "Ġaut": 7111,
      "ino": 7112,
      "inah": 7113,
      "instantly": 7114,
      "Ġsigh": 7115,
      "Ġsledge": 7116,
      "Ġowe": 7117,
      "Ġoath": 7118,
      "Ġmess": 7119,
      "Ġbub": 7120,
      "Ġbuck": 7121,
      "Ġbale": 7122,
      "Ġbucket": 7123,
      "Ġbinnacle": 7124,
      "itality": 7125,
      "oning": 7126,
      "Ġtoken": 7127,
      "leave": 7128,
      "oran": 7129,
      "orig": 7130,
      "Ġdate": 7131,
      "Ġdaring": 7132,
      "asc": 7133,
      "asy": 7134,
      "especially": 7135,
      "Ġhyd": 7136,
      "anity": 7137,
      "Ġpier": 7138,
      "Ġprudent": 7139,
      "Ġhears": 7140,
      "ĠIm": 7141,
      "ĠIngolstadt": 7142,
      "Ġnaked": 7143,
      "Ġnorthern": 7144,
      "Ġhaven": 7145,
      "Ġlap": 7146,
      "Ġbeating": 7147,
      "stern": 7148,
      "othe": 7149,
      "icle": 7150,
      "Ġeating": 7151,
      "Ġreject": 7152,
      "irium": 7153,
      "also": 7154,
      "already": 7155,
      "rolled": 7156,
      "Ġweld": 7157,
      "Ġstag": 7158,
      "Ġstump": 7159,
      "Ġsell": 7160,
      "Ġseize": 7161,
      "chie": 7162,
      "Ġhers": 7163,
      "ctic": 7164,
      "Ġmeat": 7165,
      "above": 7166,
      "ableness": 7167,
      "lifted": 7168,
      "ĠTem": 7169,
      "ĠTun": 7170,
      "ĠTran": 7171,
      "ĠMore": 7172,
      "iform": 7173,
      "ilst": 7174,
      "ĠSam": 7175,
      "ĠShall": 7176,
      "Ġdefin": 7177,
      "Ġdelive": 7178,
      "Ġdevelo": 7179,
      "Ġshed": 7180,
      "raction": 7181,
      "ĠBlack": 7182,
      "Ġshining": 7183,
      "âĢĶâĢĻ": 7184,
      "Ġconceived": 7185,
      "Ġconstru": 7186,
      "ulse": 7187,
      "ulating": 7188,
      "olar": 7189,
      "Ġvest": 7190,
      "Ġvener": 7191,
      "Ġexped": 7192,
      "Ġextern": 7193,
      "Ġkings": 7194,
      "Ġdozen": 7195,
      "ĠCity": 7196,
      "Ġunseen": 7197,
      "Ġunexpected": 7198,
      "Ġunwilling": 7199,
      "ĠLouis": 7200,
      "Ġabomin": 7201,
      "few": 7202,
      "Ġoutward": 7203,
      "loc": 7204,
      "loat": 7205,
      "Ġprejud": 7206,
      "Ġpoet": 7207,
      "ĠPr": 7208,
      "ĠParsonage": 7209,
      "ĠEm": 7210,
      "ĠEx": 7211,
      "Ġoverwhel": 7212,
      "ĠFather": 7213,
      "Ġrolls": 7214,
      "Ġarrange": 7215,
      "ĠGo": 7216,
      "Ġhanded": 7217,
      "ressing": 7218,
      "ends": 7219,
      "Ġhovel": 7220,
      "Ġremo": 7221,
      "Ġremove": 7222,
      "Ġcompet": 7223,
      "Ġscru": 7224,
      "whom": 7225,
      "Ġblasted": 7226,
      "ucked": 7227,
      "comed": 7228,
      "Ġresidence": 7229,
      "Ġends": 7230,
      "Ġconsult": 7231,
      "Ġbegged": 7232,
      "aneous": 7233,
      "Ġapology": 7234,
      "osing": 7235,
      "Ġimpressed": 7236,
      "mered": 7237,
      "expl": 7238,
      "except": 7239,
      "Ġflash": 7240,
      "Ġclim": 7241,
      "suing": 7242,
      "Ġwrit": 7243,
      "Ġwrist": 7244,
      "ultaneously": 7245,
      "Ġbelieving": 7246,
      "Ġpresents": 7247,
      "Ġcurse": 7248,
      "Ġcurled": 7249,
      "Ġmonstrous": 7250,
      "fectly": 7251,
      "Ġchanced": 7252,
      "ĠYe": 7253,
      "Ġvisits": 7254,
      "Ġassert": 7255,
      "Ġslid": 7256,
      "Ġserved": 7257,
      "gris": 7258,
      "Ġintently": 7259,
      "Ġinsult": 7260,
      "Ġinserted": 7261,
      "Ġrecall": 7262,
      "engaged": 7263,
      "Ġfellows": 7264,
      "Ġcircum": 7265,
      "Ġtrap": 7266,
      "whatever": 7267,
      "Ġslept": 7268,
      "Ġsweep": 7269,
      "Ġdete": 7270,
      "ĠVery": 7271,
      "Ġrib": 7272,
      "ĠSoon": 7273,
      "Ġdeepest": 7274,
      "particularly": 7275,
      "changel": 7276,
      "Ġconcent": 7277,
      "Ġsounding": 7278,
      "ificent": 7279,
      "resist": 7280,
      "Ġkeeps": 7281,
      "Ġbenefit": 7282,
      "Ġformidable": 7283,
      "Ġdiscern": 7284,
      "Ġawake": 7285,
      "Ġstarting": 7286,
      "Ġelsewhere": 7287,
      "Ġsleepy": 7288,
      "Ġcomplexion": 7289,
      "However": 7290,
      "Ġsenses": 7291,
      "Ġhatch": 7292,
      "ĠDoes": 7293,
      "Ġcapital": 7294,
      "umbers": 7295,
      "Ġundoubtedly": 7296,
      "Ġcaptains": 7297,
      "Ġpoliteness": 7298,
      "Ġmotions": 7299,
      "Ġpeculiarly": 7300,
      "regard": 7301,
      "Ġ22": 7302,
      "Ġstaying": 7303,
      "Ġdreaded": 7304,
      "Ġoblig": 7305,
      "Ġtreacher": 7306,
      "Ġtempest": 7307,
      "Ġrepeat": 7308,
      "Ġconnections": 7309,
      "Ġanxiously": 7310,
      "holding": 7311,
      "Ġmerry": 7312,
      "Ġmagic": 7313,
      "Ġmagistrate": 7314,
      "Ġsquall": 7315,
      "Ġcentury": 7316,
      "Ġcivi": 7317,
      "Ġsnug": 7318,
      "help": 7319,
      "ĠXL": 7320,
      "Ġgrieved": 7321,
      "ĠAlas": 7322,
      "sails": 7323,
      "Ġbuy": 7324,
      "Ġbuoy": 7325,
      "Ġbuilt": 7326,
      "Ġparl": 7327,
      "Ġmutual": 7328,
      "Ġsoftly": 7329,
      "Ġforgot": 7330,
      "Ġlaws": 7331,
      "Ġneighbours": 7332,
      "Ġmeantime": 7333,
      "friends": 7334,
      "Ġbelonging": 7335,
      "Ġassistant": 7336,
      "gypt": 7337,
      "Ġadmirable": 7338,
      "Ġtremendous": 7339,
      "extra": 7340,
      "Ġrecollected": 7341,
      "Ġconsequently": 7342,
      "Ġincreasing": 7343,
      "persu": 7344,
      "Ġdisgu": 7345,
      "Ġbitterly": 7346,
      "Ġidle": 7347,
      "ĠParis": 7348,
      "Ġmurderous": 7349,
      "Ġdemanded": 7350,
      "Ġremembrance": 7351,
      "Ġimpatiently": 7352,
      "Ġarguments": 7353,
      "struck": 7354,
      "Ġmotionless": 7355,
      "ribute": 7356,
      "Ġcapture": 7357,
      "Ġsuggested": 7358,
      "Ġsplit": 7359,
      "Ġdeserve": 7360,
      "Ġlodgings": 7361,
      "_).": 7362,
      "Ġmoody": 7363,
      "Ġcandle": 7364,
      "Ġdeduce": 7365,
      "Ġthreatened": 7366,
      "Ġbranch": 7367,
      "Ġsoothing": 7368,
      "earthly": 7369,
      "Ġslave": 7370,
      "Ġconveyed": 7371,
      "Ġleaping": 7372,
      "Ġgenius": 7373,
      "Ġdistinguished": 7374,
      "followed": 7375,
      "Ġwhaler": 7376,
      "buoy": 7377,
      "Ġfemale": 7378,
      "Ġindignation": 7379,
      "Ġencountered": 7380,
      "Ġthoroughly": 7381,
      "Ġtossing": 7382,
      "Ġpronounced": 7383,
      "Ġabandoned": 7384,
      "connected": 7385,
      "Ġinferior": 7386,
      "Ġlungs": 7387,
      "Ġexercise": 7388,
      "Ġprolonged": 7389,
      "Ġponderous": 7390,
      "Ġstrangers": 7391,
      "Ġimprovement": 7392,
      "ĠMerry": 7393,
      "Ġceremony": 7394,
      "ĠDuke": 7395,
      "Ġtobacco": 7396,
      "yramid": 7397,
      "About": 7398,
      "CK": 7399,
      "Con": 7400,
      "During": 7401,
      "EN": 7402,
      "Give": 7403,
      "See": 7404,
      "TU": 7405,
      "Tis": 7406,
      "Take": 7407,
      "Was": 7408,
      "acted": 7409,
      "aunt": 7410,
      "aired": 7411,
      "bows": 7412,
      "div": 7413,
      "effect": 7414,
      "fashion": 7415,
      "frequ": 7416,
      "given": 7417,
      "hot": 7418,
      "hun": 7419,
      "hung": 7420,
      "jac": 7421,
      "pher": 7422,
      "pipe": 7423,
      "sn": 7424,
      "sal": 7425,
      "sitting": 7426,
      "times": 7427,
      "taking": 7428,
      "taken": 7429,
      "turning": 7430,
      "upper": 7431,
      "wish": 7432,
      "word": 7433,
      "whaling": 7434,
      "Ġtones": 7435,
      "heaven": 7436,
      "Ġalike": 7437,
      "inous": 7438,
      "instant": 7439,
      "render": 7440,
      "Ġomn": 7441,
      "Ġoceans": 7442,
      "hair": 7443,
      "ero": 7444,
      "Ġmuff": 7445,
      "Ġbla": 7446,
      "Ġbought": 7447,
      "Ġbrill": 7448,
      "ednes": 7449,
      "isk": 7450,
      "itle": 7451,
      "itness": 7452,
      "itating": 7453,
      "itement": 7454,
      "Ġfol": 7455,
      "Ġfru": 7456,
      "leet": 7457,
      "oration": 7458,
      "orously": 7459,
      "Ġinsp": 7460,
      "atural": 7461,
      "Ġhue": 7462,
      "Ġpile": 7463,
      "Ġpiled": 7464,
      "Ġpumps": 7465,
      "Ġpacing": 7466,
      "Ġhedge": 7467,
      "ĠIrene": 7468,
      "Ġnaught": 7469,
      "Ġnieces": 7470,
      "Ġlink": 7471,
      "Ġlens": 7472,
      "Ġlash": 7473,
      "Ġlament": 7474,
      "stan": 7475,
      "otch": 7476,
      "uttered": 7477,
      "sect": 7478,
      "ims": 7479,
      "Ġgle": 7480,
      "Ġgathered": 7481,
      "verty": 7482,
      "cend": 7483,
      "Ġrelig": 7484,
      "irie": 7485,
      "irwin": 7486,
      "Ġwhip": 7487,
      "althy": 7488,
      "ader": 7489,
      "Ġforbe": 7490,
      "Ġweighed": 7491,
      "Ġstared": 7492,
      "Ġstair": 7493,
      "chool": 7494,
      "Ġmember": 7495,
      "ooped": 7496,
      "keeping": 7497,
      "andy": 7498,
      "ĠTown": 7499,
      "Ġsucc": 7500,
      "ĠAbout": 7501,
      "ifully": 7502,
      "Ġdece": 7503,
      "Ġdefect": 7504,
      "Ġdeprived": 7505,
      "ĠHo": 7506,
      "ĠHouse": 7507,
      "Ġshows": 7508,
      "ĠâĢľâĢĺ": 7509,
      "Ġconceive": 7510,
      "Ġconsole": 7511,
      "Ġupright": 7512,
      "ousins": 7513,
      "Ġleather": 7514,
      "ourse": 7515,
      "Ġvile": 7516,
      "Ġvibr": 7517,
      "ĠWould": 7518,
      "ĠWhaling": 7519,
      "emin": 7520,
      "emember": 7521,
      "unger": 7522,
      "uncle": 7523,
      "Ġexas": 7524,
      "Ġexposed": 7525,
      "Ġratt": 7526,
      "Ġrational": 7527,
      "Ġnearest": 7528,
      "Ġkitchen": 7529,
      "Ġnovel": 7530,
      "ĠCr": 7531,
      "ĠCet": 7532,
      "Ġunjust": 7533,
      "Ġunluck": 7534,
      "Ġalas": 7535,
      "Ġthereby": 7536,
      "aks": 7537,
      "Ġjun": 7538,
      "ineer": 7539,
      "agues": 7540,
      "iger": 7541,
      "Ġanywhere": 7542,
      "Ġintolerable": 7543,
      "dead": 7544,
      "inkling": 7545,
      "Ġimage": 7546,
      "!âĢĿâĢĶ": 7547,
      "Ġhowling": 7548,
      "ĠNay": 7549,
      "Ġboiling": 7550,
      "ĠGive": 7551,
      "Ġdownwards": 7552,
      "Ġpert": 7553,
      "Ġperformed": 7554,
      "Ġseeming": 7555,
      "ellow": 7556,
      "Ġobjections": 7557,
      "ĠOcean": 7558,
      "udge": 7559,
      "Ġchains": 7560,
      "Ġdeserted": 7561,
      "Ġentitled": 7562,
      "Ġwhereas": 7563,
      "Ġglit": 7564,
      "Ġpeas": 7565,
      "Ġbacks": 7566,
      "Ġbackward": 7567,
      "Ġaccused": 7568,
      "izes": 7569,
      "Ġfounded": 7570,
      "meet": 7571,
      "retching": 7572,
      "exceed": 7573,
      "ival": 7574,
      "Ġflank": 7575,
      "Ġflung": 7576,
      "Ġflaming": 7577,
      "Ġclay": 7578,
      "owsers": 7579,
      "Ġcommenced": 7580,
      "Ġloom": 7581,
      "Ġloving": 7582,
      "Ġdistressed": 7583,
      "Ġdisturbed": 7584,
      "Ġwrinkles": 7585,
      "Ġwinding": 7586,
      "Ġappoint": 7587,
      "Ġappalling": 7588,
      "Ġindebted": 7589,
      "Ġhousehold": 7590,
      "ĠKirwin": 7591,
      "Ġcris": 7592,
      "Ġcrimes": 7593,
      "princip": 7594,
      "Ġopenly": 7595,
      "Ġ15": 7596,
      "Ġfinds": 7597,
      "itual": 7598,
      "Ġmischief": 7599,
      "ocks": 7600,
      "Ġemp": 7601,
      "Ġincess": 7602,
      "vived": 7603,
      "remained": 7604,
      "remember": 7605,
      "Ġhumble": 7606,
      "Ġserpent": 7607,
      "grand": 7608,
      "rossed": 7609,
      "Ġteach": 7610,
      "Ġrefuge": 7611,
      "Ġintellect": 7612,
      "autiful": 7613,
      "Ġcloser": 7614,
      "Ġinsens": 7615,
      "Ġrecalled": 7616,
      "Ġsleeper": 7617,
      "Ġdetest": 7618,
      "monster": 7619,
      "scri": 7620,
      "ouncing": 7621,
      "Ġrig": 7622,
      "Ġillness": 7623,
      "Ġsounded": 7624,
      "Ġirre": 7625,
      "longer": 7626,
      "Ġlads": 7627,
      "Ġladder": 7628,
      "Ġruns": 7629,
      "Ġpowerful": 7630,
      "Ġcrazy": 7631,
      "Ġcracked": 7632,
      "Ġstronger": 7633,
      "Ġabsor": 7634,
      "worth": 7635,
      "worthy": 7636,
      "Ġhatred": 7637,
      "object": 7638,
      "Ġpausing": 7639,
      "Ġimagined": 7640,
      "Ġsentiment": 7641,
      "Ġsummon": 7642,
      "Ġcaps": 7643,
      "Stand": 7644,
      "Ġhumanity": 7645,
      "Ġmistress": 7646,
      "mbol": 7647,
      "ĠLeague": 7648,
      "Ġendeavours": 7649,
      "despair": 7650,
      "Ġgloves": 7651,
      "interrupt": 7652,
      "Ġvariety": 7653,
      "Ġsixteen": 7654,
      "Ġsmooth": 7655,
      "Ġ27": 7656,
      "ĠChina": 7657,
      "Ġquarters": 7658,
      "Ġestim": 7659,
      "ĠAny": 7660,
      "ĠUp": 7661,
      "Ġpriest": 7662,
      "Ġangle": 7663,
      "Ġsquee": 7664,
      "Ġcenturies": 7665,
      "Ġpresum": 7666,
      "command": 7667,
      "Ġhunger": 7668,
      "Ġlowering": 7669,
      "thrown": 7670,
      "Ġcommander": 7671,
      "Ġmode": 7672,
      "ĠGeorgiana": 7673,
      "Ġhints": 7674,
      "Ġsympat": 7675,
      "Ġexceeding": 7676,
      "Ġembark": 7677,
      "Ġcauses": 7678,
      "Ġfigures": 7679,
      "Ġburned": 7680,
      "Ġforgive": 7681,
      "Ġdivided": 7682,
      "Ġgrandeur": 7683,
      "true": 7684,
      "uesday": 7685,
      "Ġlabours": 7686,
      "Ġseaman": 7687,
      "Ġvillain": 7688,
      "Ġoarsman": 7689,
      "Ġpalms": 7690,
      "Ġmissed": 7691,
      "Ġeighte": 7692,
      "Ġventilator": 7693,
      "Ġneglect": 7694,
      "Ġtrembled": 7695,
      "Ġwarning": 7696,
      "Ġpreparing": 7697,
      "Ġuncomfortable": 7698,
      "Ġenterprise": 7699,
      "Ġrelieve": 7700,
      "Ġstole": 7701,
      "Ġheightened": 7702,
      "Ġprivile": 7703,
      "ĠAdler": 7704,
      "Ġwandering": 7705,
      "Ġnerves": 7706,
      "Ġconclude": 7707,
      "Ġbursting": 7708,
      "Ġwounded": 7709,
      "Ġgallant": 7710,
      "Ġpunct": 7711,
      "advantage": 7712,
      "Ġsplin": 7713,
      "Ġinvoluntarily": 7714,
      "Ġcheek": 7715,
      "_).âĢĶ": 7716,
      "continued": 7717,
      "Ġemployment": 7718,
      "Ġbeholding": 7719,
      "apering": 7720,
      "Ġderived": 7721,
      "Ġnicely": 7722,
      "Ġrecommended": 7723,
      "Ġcustomary": 7724,
      "Ġprisoner": 7725,
      "Ġbanker": 7726,
      "Ġprocured": 7727,
      "Ġtemptation": 7728,
      "Ġsinister": 7729,
      "Ġsteadfast": 7730,
      "Ġascended": 7731,
      "Ġcombined": 7732,
      "Ġgoverness": 7733,
      "Ġemerged": 7734,
      "Ġrejoiced": 7735,
      "Ġsoldiers": 7736,
      "Ġinfinite": 7737,
      "Ġuneasy": 7738,
      "Ġsignificant": 7739,
      "breakfast": 7740,
      "Ġwrapped": 7741,
      "Ġexhausted": 7742,
      "Ġtormented": 7743,
      "harpooneer": 7744,
      "Ġundertaking": 7745,
      "Leviathan": 7746,
      "Ġfowls": 7747,
      "Ġexclamation": 7748,
      "Ġvapor": 7749,
      "ĠErnest": 7750,
      "Ġintimacy": 7751,
      "Ġfatigue": 7752,
      "Ġmourn": 7753,
      "Ġphantom": 7754,
      "Ġplunged": 7755,
      "Ġsymptoms": 7756,
      "Colonel": 7757,
      "Ġdisdain": 7758,
      "ĠRamad": 7759,
      "Ġgentleness": 7760,
      "entirely": 7761,
      "ĠBoscombe": 7762,
      "Ġclergyman": 7763,
      "olio": 7764,
      "Ġmajestic": 7765,
      "Ġexternal": 7766,
      "Ġcivilized": 7767,
      "ednesday": 7768,
      "Com": 7769,
      "Dear": 7770,
      "Hold": 7771,
      "Moby": 7772,
      "Post": 7773,
      "Prec": 7774,
      "VI": 7775,
      "bol": 7776,
      "bag": 7777,
      "bones": 7778,
      "broad": 7779,
      "cred": 7780,
      "cra": 7781,
      "dan": 7782,
      "dread": 7783,
      "dream": 7784,
      "fro": 7785,
      "fig": 7786,
      "foot": 7787,
      "groom": 7788,
      "hist": 7789,
      "iot": 7790,
      "ique": 7791,
      "iency": 7792,
      "igeon": 7793,
      "journey": 7794,
      "lin": 7795,
      "lings": 7796,
      "mat": 7797,
      "maid": 7798,
      "marks": 7799,
      "nel": 7800,
      "oking": 7801,
      "pieces": 7802,
      "rades": 7803,
      "sir": 7804,
      "sper": 7805,
      "sav": 7806,
      "tor": 7807,
      "tally": 7808,
      "uv": 7809,
      "uing": 7810,
      "wers": 7811,
      "words": 7812,
      "xman": 7813,
      "yder": 7814,
      "Ġtam": 7815,
      "Ġtapering": 7816,
      "hear": 7817,
      "Ġaught": 7818,
      "inv": 7819,
      "inions": 7820,
      "repe": 7821,
      "really": 7822,
      "relie": 7823,
      "erk": 7824,
      "Ġbench": 7825,
      "Ġbasket": 7826,
      "iscu": 7827,
      "Ġfainted": 7828,
      "Ġfrig": 7829,
      "Ġcared": 7830,
      "Ġcult": 7831,
      "Ġcats": 7832,
      "Ġink": 7833,
      "Ġincluded": 7834,
      "Ġdru": 7835,
      "Ġdilig": 7836,
      "ascar": 7837,
      "attended": 7838,
      "Ġpip": 7839,
      "Ġpave": 7840,
      "Ġpoured": 7841,
      "Ġpyramid": 7842,
      "Ġnav": 7843,
      "Ġnations": 7844,
      "Ġlaz": 7845,
      "Ġlift": 7846,
      "Ġlaughter": 7847,
      "Ġlux": 7848,
      "Ġbefall": 7849,
      "stud": 7850,
      "uts": 7851,
      "uther": 7852,
      "Ġegg": 7853,
      "Ġgracious": 7854,
      "idity": 7855,
      "entered": 7856,
      "Ġult": 7857,
      "iries": 7858,
      "ayed": 7859,
      "alian": 7860,
      "urable": 7861,
      "Ġisn": 7862,
      "rolling": 7863,
      "Ġstubb": 7864,
      "Ġstaring": 7865,
      "Ġsex": 7866,
      "Ġsees": 7867,
      "Ġsending": 7868,
      "Ġseizing": 7869,
      "church": 7870,
      "Ġate": 7871,
      "Ġanat": 7872,
      "Ġmead": 7873,
      "amped": 7874,
      "Ġsob": 7875,
      "andal": 7876,
      "Ġsus": 7877,
      "cking": 7878,
      "ĠAfric": 7879,
      "ĠHigh": 7880,
      "Ġshel": 7881,
      "raged": 7882,
      "ĠBl": 7883,
      "ĠBel": 7884,
      "Ġshirt": 7885,
      "Ġconj": 7886,
      "ulted": 7887,
      "ulking": 7888,
      "Ġleaped": 7889,
      "ouring": 7890,
      "ourselves": 7891,
      "olence": 7892,
      "esty": 7893,
      "ĠWhether": 7894,
      "ĠWednesday": 7895,
      "Ġrud": 7896,
      "Ġmanif": 7897,
      "Ġfeather": 7898,
      "Ġdoctor": 7899,
      "Ġnod": 7900,
      "ounding": 7901,
      "ĠChe": 7902,
      "ĠCount": 7903,
      "ĠCoffin": 7904,
      "Ġunnecessary": 7905,
      "Ġunspeak": 7906,
      "Ġunearthly": 7907,
      "Ġcomposed": 7908,
      "ĠLife": 7909,
      "ĠLoose": 7910,
      "Ġyourselves": 7911,
      "reath": 7912,
      "Ġabund": 7913,
      "Ġabroad": 7914,
      "ĠDough": 7915,
      "ĠDenny": 7916,
      "ĠDodo": 7917,
      "fear": 7918,
      "perceived": 7919,
      "Ġwillingly": 7920,
      "forehead": 7921,
      "Ġthence": 7922,
      "Ġpockets": 7923,
      "accept": 7924,
      "ĠEd": 7925,
      "ĠElijah": 7926,
      "Ġquad": 7927,
      "Ġsple": 7928,
      "Ġspars": 7929,
      "ieu": 7930,
      "ĠNature": 7931,
      "Ġperceiving": 7932,
      "Ġperpet": 7933,
      "Ġhandle": 7934,
      "Ġhandkerchief": 7935,
      "Ġeveryone": 7936,
      "aping": 7937,
      "Ġowner": 7938,
      "Ġcomply": 7939,
      "intro": 7940,
      "Ġscor": 7941,
      "ĠOF": 7942,
      "Ġchaise": 7943,
      "Ġchased": 7944,
      "Ġchuck": 7945,
      "Ġchron": 7946,
      "Ġtrump": 7947,
      "conce": 7948,
      "Ġheading": 7949,
      "ĠRob": 7950,
      "penetr": 7951,
      "comfort": 7952,
      "compre": 7953,
      "plex": 7954,
      "pleased": 7955,
      "Ġwherever": 7956,
      "Ġconsist": 7957,
      "Ġgliding": 7958,
      "Ġpeering": 7959,
      "Ġattitude": 7960,
      "Ġattracted": 7961,
      "Ġaccum": 7962,
      "Ġapolog": 7963,
      "Ġretain": 7964,
      "Ġprim": 7965,
      "clothes": 7966,
      "Ġthroughout": 7967,
      "exam": 7968,
      "Ġlifeless": 7969,
      "Ġflour": 7970,
      "Ġflowers": 7971,
      "Ġclum": 7972,
      "withstanding": 7973,
      "Ġloaded": 7974,
      "Ġdistinction": 7975,
      "Ġsupplied": 7976,
      "Ġearlier": 7977,
      "Ġsurvive": 7978,
      "ĠTherefore": 7979,
      "spout": 7980,
      "Ġlights": 7981,
      "Ġamongst": 7982,
      "Ġwaving": 7983,
      "Ġcurrent": 7984,
      "Ġmonkey": 7985,
      "Ġemotions": 7986,
      "ernsey": 7987,
      "Ġwalks": 7988,
      "Ġcounty": 7989,
      "licted": 7990,
      "Ġinduced": 7991,
      "Ġindirectly": 7992,
      "Ġslain": 7993,
      "Ġinterference": 7994,
      "Ġinterior": 7995,
      "Ġconfir": 7996,
      "Ġsteep": 7997,
      "Ġtiller": 7998,
      "Ġclearing": 7999,
      "Ġswell": 8000,
      "Ġsweeping": 8001,
      "ĠVirgin": 8002,
      "Ġguide": 8003,
      "Ġelastic": 8004,
      "Ġobserv": 8005,
      "Ġdoubts": 8006,
      "actory": 8007,
      "Ġbreast": 8008,
      "Ġexpressive": 8009,
      "Ġdrops": 8010,
      "Ġdroop": 8011,
      "Ġjob": 8012,
      "Ġjoke": 8013,
      "disappoint": 8014,
      "Ġactual": 8015,
      "Ġadmitted": 8016,
      "Ġpersonally": 8017,
      "cript": 8018,
      "Ġdisclo": 8019,
      "Ġcrews": 8020,
      "Ġprompt": 8021,
      "Ġcompleted": 8022,
      "Ġsymbol": 8023,
      "Ġopium": 8024,
      "mediately": 8025,
      "Ġdestiny": 8026,
      "Ġneedle": 8027,
      "Ġstriving": 8028,
      "Ġsuffering": 8029,
      "Ġsufficiently": 8030,
      "finished": 8031,
      "ugust": 8032,
      "nature": 8033,
      "Ġcapstan": 8034,
      "Ġpolitely": 8035,
      "Ġburden": 8036,
      "Ġsolved": 8037,
      "Ġeventually": 8038,
      "Ġtorture": 8039,
      "Ġhaste": 8040,
      "Ġhastened": 8041,
      "Ġmercy": 8042,
      "lowly": 8043,
      "Ġportra": 8044,
      "Ġveins": 8045,
      "Ġphren": 8046,
      "Ġdenied": 8047,
      "horse": 8048,
      "Ġbarred": 8049,
      "Ġsecrets": 8050,
      "Ġbreathe": 8051,
      "glad": 8052,
      "ĠLucases": 8053,
      "Ġwarmly": 8054,
      "knowledge": 8055,
      "Only": 8056,
      "Ġfurnish": 8057,
      "Ġparish": 8058,
      "Ġanimals": 8059,
      "thinking": 8060,
      "Ġrepeatedly": 8061,
      "Ġsnowy": 8062,
      "Ġevils": 8063,
      "ĠBrad": 8064,
      "Ġcompliments": 8065,
      "Ġprepare": 8066,
      "Ġannounced": 8067,
      "saying": 8068,
      "Ġslip": 8069,
      "Ġmildly": 8070,
      "Ġstopping": 8071,
      "Ġintroduction": 8072,
      "Ġwretchedness": 8073,
      "Ġwander": 8074,
      "Ġshores": 8075,
      "Ġattentive": 8076,
      "Ġcommunicated": 8077,
      "Ġblew": 8078,
      "Ġsafely": 8079,
      "Ġentreaties": 8080,
      "disting": 8081,
      "calm": 8082,
      "Ġerror": 8083,
      "miserable": 8084,
      "Ġenemies": 8085,
      "minded": 8086,
      "Ġinjured": 8087,
      "curiosity": 8088,
      "ĠAgain": 8089,
      "Ġresults": 8090,
      "expressed": 8091,
      "Ġvacancy": 8092,
      "ĠBohem": 8093,
      "Ġrepresented": 8094,
      "Ġprotectors": 8095,
      "Ġstruggle": 8096,
      "Nevertheless": 8097,
      "Ġabhorrence": 8098,
      "Ġgrinning": 8099,
      "Ġtempted": 8100,
      "Ġlatitude": 8101,
      "marked": 8102,
      "children": 8103,
      "pensable": 8104,
      "Ġsuspected": 8105,
      "Ġrisk": 8106,
      "Ġdesirous": 8107,
      "Ġdesirable": 8108,
      "silence": 8109,
      "Ġessential": 8110,
      "Ġcongratulate": 8111,
      "Ġmanagement": 8112,
      "Ġwidow": 8113,
      "Ġinfinitely": 8114,
      "Ġwhistle": 8115,
      "harpooneers": 8116,
      "Ġrecognised": 8117,
      "ĠTrue": 8118,
      "Ġblanket": 8119,
      "Ġestablish": 8120,
      "Ġestablished": 8121,
      "Ġshuddering": 8122,
      "ulsive": 8123,
      "Ġinvestigation": 8124,
      "batross": 8125,
      "spring": 8126,
      "Ġindependent": 8127,
      "Ġimpertinent": 8128,
      "Ġingen": 8129,
      "determined": 8130,
      "English": 8131,
      "Ġextremity": 8132,
      "Ġfreedom": 8133,
      "Ġfathoms": 8134,
      "Ġenchanted": 8135,
      "Ġreferred": 8136,
      "Ġugly": 8137,
      "ĠToller": 8138,
      "ĠHorner": 8139,
      "ĠPorpoise": 8140,
      "ĠArabian": 8141,
      "uvier": 8142,
      "ĠTemple": 8143,
      "Ġvenerable": 8144,
      "extraordinary": 8145,
      "Precisely": 8146,
      ",)": 8147,
      "Ay": 8148,
      "Avast": 8149,
      "ES": 8150,
      "German": 8151,
      "IV": 8152,
      "Im": 8153,
      "Mary": 8154,
      "Nay": 8155,
      "None": 8156,
      "Par": 8157,
      "Tell": 8158,
      "bar": 8159,
      "bul": 8160,
      "bable": 8161,
      "caught": 8162,
      "covered": 8163,
      "dam": 8164,
      "dled": 8165,
      "eff": 8166,
      "erest": 8167,
      "fool": 8168,
      "got": 8169,
      "giving": 8170,
      "hil": 8171,
      "hours": 8172,
      "iate": 8173,
      "knew": 8174,
      "lab": 8175,
      "lower": 8176,
      "main": 8177,
      "mers": 8178,
      "mel": 8179,
      "mouth": 8180,
      "money": 8181,
      "nings": 8182,
      "oil": 8183,
      "oven": 8184,
      "pha": 8185,
      "pho": 8186,
      "pict": 8187,
      "paper": 8188,
      "sa": 8189,
      "sor": 8190,
      "soul": 8191,
      "tail": 8192,
      "trem": 8193,
      "uated": 8194,
      "ucted": 8195,
      "vag": 8196,
      "vances": 8197,
      "want": 8198,
      "wide": 8199,
      "warm": 8200,
      "xter": 8201,
      "Ġtut": 8202,
      "Ġtour": 8203,
      "Ġtun": 8204,
      "Ġtick": 8205,
      "Ġtired": 8206,
      "Ġtext": 8207,
      "hew": 8208,
      "Ġapt": 8209,
      "Ġachie": 8210,
      "inf": 8211,
      "inj": 8212,
      "inst": 8213,
      "influ": 8214,
      "Ġslack": 8215,
      "Ġwings": 8216,
      "hable": 8217,
      "eral": 8218,
      "ouching": 8219,
      "Ġmam": 8220,
      "Ġbas": 8221,
      "Ġbred": 8222,
      "Ġbade": 8223,
      "editer": 8224,
      "itute": 8225,
      "onnet": 8226,
      "Ġfant": 8227,
      "Ġfits": 8228,
      "Ġfrank": 8229,
      "Ġcens": 8230,
      "Ġclock": 8231,
      "Ġcoun": 8232,
      "Ġtowing": 8233,
      "Ġtotally": 8234,
      "lege": 8235,
      "least": 8236,
      "lebr": 8237,
      "orning": 8238,
      "arri": 8239,
      "arwhale": 8240,
      "Ġinjustice": 8241,
      "Ġdined": 8242,
      "Ġdict": 8243,
      "Ġdash": 8244,
      "Ġdang": 8245,
      "Ġdaz": 8246,
      "Ġdirty": 8247,
      "Ġdashing": 8248,
      "esy": 8249,
      "athed": 8250,
      "Ġhid": 8251,
      "anx": 8252,
      "Ġpaw": 8253,
      "Ġpace": 8254,
      "Ġpadd": 8255,
      "Ġpagan": 8256,
      "Ġheap": 8257,
      "Ġheredit": 8258,
      "Ġheaved": 8259,
      "Ġharem": 8260,
      "Ġliter": 8261,
      "Ġbecoming": 8262,
      "stran": 8263,
      "story": 8264,
      "icing": 8265,
      "icher": 8266,
      "Ġec": 8267,
      "Ġthread": 8268,
      "seus": 8269,
      "separ": 8270,
      "vered": 8271,
      "immed": 8272,
      "imming": 8273,
      "Ġgn": 8274,
      "Ġgaining": 8275,
      "Ġgems": 8276,
      "Ġghast": 8277,
      "verance": 8278,
      "etch": 8279,
      "etween": 8280,
      "Ġwaste": 8281,
      "iony": 8282,
      "Ġreli": 8283,
      "Ġreel": 8284,
      "iron": 8285,
      "irts": 8286,
      "alk": 8287,
      "alog": 8288,
      "adise": 8289,
      "admir": 8290,
      "Ġforge": 8291,
      "Ġforbid": 8292,
      "Ġisles": 8293,
      "Ġweigh": 8294,
      "terrible": 8295,
      "ril": 8296,
      "Ġstuck": 8297,
      "Ġstones": 8298,
      "Ġsem": 8299,
      "Ġseren": 8300,
      "chn": 8301,
      "ctuous": 8302,
      "ctavo": 8303,
      "Ġmemor": 8304,
      "ama": 8305,
      "ams": 8306,
      "illing": 8307,
      "Ġsoil": 8308,
      "lif": 8309,
      "ĠTe": 8310,
      "ĠTime": 8311,
      "Ġsullen": 8312,
      "ckled": 8313,
      "Ġsag": 8314,
      "ĠSm": 8315,
      "ĠSy": 8316,
      "ĠSha": 8317,
      "ĠSur": 8318,
      "ĠSuddenly": 8319,
      "ĠSoup": 8320,
      "allied": 8321,
      "ĠHas": 8322,
      "ĠHall": 8323,
      "ĠHist": 8324,
      "ĠHence": 8325,
      "raul": 8326,
      "gered": 8327,
      "ĠBible": 8328,
      "Ġshif": 8329,
      "Ġshop": 8330,
      "ulgar": 8331,
      "Ġleagues": 8332,
      "astro": 8333,
      "Ġvital": 8334,
      "ĠWater": 8335,
      "Ġkick": 8336,
      "Ġmanned": 8337,
      "inder": 8338,
      "Ġdost": 8339,
      "ounded": 8340,
      "Ġorn": 8341,
      "Ġorgan": 8342,
      "Ġorange": 8343,
      "ĠCuvier": 8344,
      "Ġlikes": 8345,
      "Ġunite": 8346,
      "Ġuniform": 8347,
      "Ġaltar": 8348,
      "owning": 8349,
      "Ġcomment": 8350,
      "Ġcomrades": 8351,
      "ĠLascar": 8352,
      "laugh": 8353,
      "ponding": 8354,
      "Ġamb": 8355,
      "ĠDan": 8356,
      "ĠDinah": 8357,
      "ĠDoran": 8358,
      "Ġjer": 8359,
      "idea": 8360,
      "text": 8361,
      "Ġafloat": 8362,
      "loft": 8363,
      "ishments": 8364,
      "Ġpreserved": 8365,
      "Ġcanst": 8366,
      "Ġcanal": 8367,
      "wee": 8368,
      "Ġpoverty": 8369,
      "ĠPers": 8370,
      "ĠPool": 8371,
      "ĠPolar": 8372,
      "devil": 8373,
      "ĠEast": 8374,
      "assure": 8375,
      "Ġshades": 8376,
      "Ġspade": 8377,
      "Ġthanked": 8378,
      "begin": 8379,
      "arewell": 8380,
      "Ġenable": 8381,
      "Ġenabled": 8382,
      "ccord": 8383,
      "Ġuses": 8384,
      "ĠNight": 8385,
      "mented": 8386,
      "Ġarmed": 8387,
      "Ġarrested": 8388,
      "ĠGr": 8389,
      "shine": 8390,
      "Ġdisappearance": 8391,
      "Ġdisagreeable": 8392,
      "Ġdiscuss": 8393,
      "rane": 8394,
      "Ġperse": 8395,
      "Ġpermitted": 8396,
      "Ġpermission": 8397,
      "forth": 8398,
      "former": 8399,
      "Ġseemingly": 8400,
      "Ġremote": 8401,
      "Ġpartial": 8402,
      "Ġpartiality": 8403,
      "ĠJove": 8404,
      "Ġbrute": 8405,
      "Ġbrains": 8406,
      "Ġobed": 8407,
      "ĠOut": 8408,
      "Ġharsh": 8409,
      "olland": 8410,
      "Ġolder": 8411,
      "Ġchoked": 8412,
      "soever": 8413,
      "Ġshipmate": 8414,
      "Ġplant": 8415,
      "Ġplate": 8416,
      "Ġcontain": 8417,
      "Ġcontact": 8418,
      "Ġcontaining": 8419,
      "Ġtrick": 8420,
      "Ġtrades": 8421,
      "conside": 8422,
      "ĠRead": 8423,
      "ignor": 8424,
      "Ġhereafter": 8425,
      "Ġeverlasting": 8426,
      "company": 8427,
      "ples": 8428,
      "Ġspell": 8429,
      "Ġspear": 8430,
      "oyed": 8431,
      "Ġplacing": 8432,
      "Ġglist": 8433,
      "Ġbeggar": 8434,
      "Ġpew": 8435,
      "cier": 8436,
      "Ġhappily": 8437,
      "retion": 8438,
      "return": 8439,
      "exper": 8440,
      "exact": 8441,
      "Ġflatter": 8442,
      "Ġclut": 8443,
      "Ġclust": 8444,
      "Ġrack": 8445,
      "Ġraising": 8446,
      "Ġcommend": 8447,
      "Ġlob": 8448,
      "venth": 8449,
      "Ġtells": 8450,
      "cold": 8451,
      "Ġsurm": 8452,
      "Ġmorrow": 8453,
      "prit": 8454,
      "pron": 8455,
      "Ġsecurity": 8456,
      "Ġ14": 8457,
      "Ġwaif": 8458,
      "Ġcurling": 8459,
      "versed": 8460,
      "version": 8461,
      "Ġincidents": 8462,
      "Ġrested": 8463,
      "Ġrestore": 8464,
      "Ġchances": 8465,
      "Ġassumed": 8466,
      "Ġsliding": 8467,
      "Ġsteam": 8468,
      "boam": 8469,
      "Ġserve": 8470,
      "Ġnewly": 8471,
      "Ġnewsp": 8472,
      "keness": 8473,
      "msman": 8474,
      "Ġsunrise": 8475,
      "Ġchecked": 8476,
      "Ġcheese": 8477,
      "nold": 8478,
      "noble": 8479,
      "Ġbusily": 8480,
      "Ġintric": 8481,
      "aution": 8482,
      "Ġcloak": 8483,
      "Ġtraged": 8484,
      "Ġtravel": 8485,
      "Ġskies": 8486,
      "bourine": 8487,
      "Ġinfl": 8488,
      "month": 8489,
      "proper": 8490,
      "Ġblackness": 8491,
      "Ġextract": 8492,
      "Ġrivers": 8493,
      "opard": 8494,
      "Ġforeign": 8495,
      "Ġcares": 8496,
      "arned": 8497,
      "Ġillum": 8498,
      "Ġengaging": 8499,
      "Ġmoist": 8500,
      "Ġdecide": 8501,
      "possessed": 8502,
      "Ġformal": 8503,
      "Ġdiscourse": 8504,
      "uffalo": 8505,
      "Ġwildly": 8506,
      "Ġmetal": 8507,
      "Ġopinions": 8508,
      "Ġplayed": 8509,
      "Ġstructure": 8510,
      "attent": 8511,
      "attempt": 8512,
      "Ġresolving": 8513,
      "Ġsimultaneously": 8514,
      "Ġcharacters": 8515,
      "ugn": 8516,
      "Ġfloats": 8517,
      "doing": 8518,
      "Ġgravity": 8519,
      "ĠFlor": 8520,
      "Ġdrunk": 8521,
      "Ġdrowned": 8522,
      "Ġstraw": 8523,
      "happened": 8524,
      "Ġtort": 8525,
      "ĠChurch": 8526,
      "Ġquarrel": 8527,
      "Ġtreasure": 8528,
      "Ġeleven": 8529,
      "Ġelephant": 8530,
      "Ġprior": 8531,
      "Ġangrily": 8532,
      "Ġmerit": 8533,
      "Ġspouting": 8534,
      "ĠDelight": 8535,
      "Ġfleet": 8536,
      "Ġbowels": 8537,
      "Ġrequires": 8538,
      "Ġbarrels": 8539,
      "Ġbreathing": 8540,
      "Ġexception": 8541,
      "Ġpitched": 8542,
      "Ġsweetness": 8543,
      "Ġverte": 8544,
      "Ġfrozen": 8545,
      "ological": 8546,
      "Ġsituated": 8547,
      "Ġdesires": 8548,
      "Ġsharply": 8549,
      "ferred": 8550,
      "Ġoccupations": 8551,
      "Ġballs": 8552,
      "Ġlawy": 8553,
      "Ġpeaceful": 8554,
      "Ġinquiring": 8555,
      "Ġdived": 8556,
      "Ġlimb": 8557,
      "sett": 8558,
      "ĠBriony": 8559,
      "abouts": 8560,
      "intellig": 8561,
      "Ġseparated": 8562,
      "Ġwarp": 8563,
      "surprise": 8564,
      "Ġannounce": 8565,
      "ridge": 8566,
      "mighty": 8567,
      "Ġdimly": 8568,
      "ootman": 8569,
      "Ġcatching": 8570,
      "ĠAdvent": 8571,
      "Ġshocked": 8572,
      "Ġdescending": 8573,
      "Ġglasses": 8574,
      "Ġinterruption": 8575,
      "Ġimpressions": 8576,
      "Ġprinciple": 8577,
      "Ġsuspicious": 8578,
      "Ġsuspicions": 8579,
      "clear": 8580,
      "certainly": 8581,
      "Ġseasons": 8582,
      "Ġexecuted": 8583,
      "Ġridicul": 8584,
      "Ġkeenly": 8585,
      "Ġwitnesses": 8586,
      "ĠManxman": 8587,
      "Ġprairie": 8588,
      "Ġcomparatively": 8589,
      "Ġintelligent": 8590,
      "Ġinvolved": 8591,
      "Ġlodge": 8592,
      "Ġwelcomed": 8593,
      "harpoon": 8594,
      "Ġtranquil": 8595,
      "Ġamidst": 8596,
      "Ġvacant": 8597,
      "Ġobtain": 8598,
      "Ġpressing": 8599,
      "Ġardently": 8600,
      "Ġboldly": 8601,
      "ĠMoran": 8602,
      "Ġjealous": 8603,
      "generally": 8604,
      "gentlemen": 8605,
      "Ġdecline": 8606,
      "Ġadventures": 8607,
      "Ġsmells": 8608,
      "Ġaccidentally": 8609,
      "interested": 8610,
      "Ġexcessively": 8611,
      "Ġabhorred": 8612,
      "Ġprocure": 8613,
      "Ġfaithful": 8614,
      "Ġdecidedly": 8615,
      "Ġlatitudes": 8616,
      "Ġvigil": 8617,
      "Ġknocked": 8618,
      "Ġtackle": 8619,
      "believe": 8620,
      "Ġincredible": 8621,
      "ladies": 8622,
      "Ġnurse": 8623,
      "ĠMeets": 8624,
      "ĠMeantime": 8625,
      "Ġdelayed": 8626,
      "Ġshrieked": 8627,
      "Ġrisen": 8628,
      "books": 8629,
      "Ġobey": 8630,
      "Ġarticle": 8631,
      "sweet": 8632,
      "Ġwickedness": 8633,
      "Ġrenewed": 8634,
      "Ġlearning": 8635,
      "Ġscreamed": 8636,
      "Ġbenevolence": 8637,
      "Ġconstern": 8638,
      "Ġconjecture": 8639,
      "Ġuneasiness": 8640,
      "Ġtransparent": 8641,
      "beneath": 8642,
      "Ġconvenient": 8643,
      "suspect": 8644,
      "Ġeloqu": 8645,
      "Ġassembled": 8646,
      "Ġuniversal": 8647,
      "ĠPeterson": 8648,
      "Ġexhibited": 8649,
      "liminary": 8650,
      "phants": 8651,
      "Ġbidding": 8652,
      "leece": 8653,
      "steps": 8654,
      "Ġcigar": 8655,
      "Ġalteration": 8656,
      "Ġfulfil": 8657,
      "Ġsacrifice": 8658,
      "Ġmultitude": 8659,
      "Ġhoops": 8660,
      "Ġunconscious": 8661,
      "Ġconfidential": 8662,
      "companion": 8663,
      "Ġreproach": 8664,
      "Ġencouraged": 8665,
      "Ġbetrayed": 8666,
      "Ġrubbing": 8667,
      "ĠGuernsey": 8668,
      "Two": 8669,
      "Ġmixture": 8670,
      "Ġinconvenience": 8671,
      "Ġdefend": 8672,
      "Ġambergris": 8673,
      "Ġmonomaniac": 8674,
      "surprised": 8675,
      "cottage": 8676,
      "original": 8677,
      "Ġhydraul": 8678,
      "Ġwelded": 8679,
      "Ġstaggered": 8680,
      "ĠMerryweather": 8681,
      "eroboam": 8682,
      "ĠRamadan": 8683,
      "Ġtambourine": 8684,
      "Ġpavement": 8685,
      "utherland": 8686,
      "Ġsuspense": 8687,
      "Ġclumsy": 8688,
      "Ġdrooping": 8689,
      "ĠBradstreet": 8690,
      "editerranean": 8691,
      "considered": 8692,
      "AC": 8693,
      "Back": 8694,
      "Besides": 8695,
      "Bildad": 8696,
      "Don": 8697,
      "Go": 8698,
      "Greenland": 8699,
      "London": 8700,
      "Lestrade": 8701,
      "Man": 8702,
      "Netherfield": 8703,
      "Or": 8704,
      "Off": 8705,
      "Pemberley": 8706,
      "Poor": 8707,
      "Sc": 8708,
      "Shall": 8709,
      "Tur": 8710,
      "Turn": 8711,
      "UE": 8712,
      "Witness": 8713,
      "bal": 8714,
      "bers": 8715,
      "bright": 8716,
      "bott": 8717,
      "bury": 8718,
      "cil": 8719,
      "cile": 8720,
      "cles": 8721,
      "dif": 8722,
      "dire": 8723,
      "dling": 8724,
      "dued": 8725,
      "eal": 8726,
      "fif": 8727,
      "fright": 8728,
      "fins": 8729,
      "filled": 8730,
      "gra": 8731,
      "gown": 8732,
      "garet": 8733,
      "houses": 8734,
      "iard": 8735,
      "ihil": 8736,
      "joice": 8737,
      "lit": 8738,
      "lat": 8739,
      "loo": 8740,
      "lost": 8741,
      "mical": 8742,
      "oper": 8743,
      "pal": 8744,
      "phy": 8745,
      "ras": 8746,
      "rust": 8747,
      "rus": 8748,
      "sle": 8749,
      "sla": 8750,
      "situ": 8751,
      "sudden": 8752,
      "school": 8753,
      "tone": 8754,
      "ties": 8755,
      "viv": 8756,
      "viously": 8757,
      "yards": 8758,
      "yellow": 8759,
      "ynold": 8760,
      "Ġ&": 8761,
      "Ġtub": 8762,
      "hester": 8763,
      "Ġaver": 8764,
      "Ġsly": 8765,
      "Ġshan": 8766,
      "Ġwig": 8767,
      "Ġwont": 8768,
      "Ġwilt": 8769,
      "Ġwoven": 8770,
      "real": 8771,
      "reary": 8772,
      "received": 8773,
      "Ġox": 8774,
      "Ġost": 8775,
      "erland": 8776,
      "outer": 8777,
      "Ġmant": 8778,
      "Ġmap": 8779,
      "Ġbloom": 8780,
      "edy": 8781,
      "eder": 8782,
      "eded": 8783,
      "itan": 8784,
      "itch": 8785,
      "Ġfins": 8786,
      "Ġcy": 8787,
      "Ġcamp": 8788,
      "Ġcripp": 8789,
      "Ġcousins": 8790,
      "Ġtooth": 8791,
      "Ġtomb": 8792,
      "lement": 8793,
      "lease": 8794,
      "ork": 8795,
      "orable": 8796,
      "orial": 8797,
      "orical": 8798,
      "Ġinit": 8799,
      "Ġdun": 8800,
      "estern": 8801,
      "Ġpot": 8802,
      "Ġpine": 8803,
      "Ġpush": 8804,
      "Ġheel": 8805,
      "Ġnail": 8806,
      "omical": 8807,
      "Ġlic": 8808,
      "Ġlashed": 8809,
      "Ġbend": 8810,
      "othed": 8811,
      "Ġelig": 8812,
      "vet": 8813,
      "vels": 8814,
      "ima": 8815,
      "Ġgor": 8816,
      "Ġgang": 8817,
      "ethe": 8818,
      "eter": 8819,
      "Ġwash": 8820,
      "Ġwasted": 8821,
      "Ġrevel": 8822,
      "Ġreception": 8823,
      "Ġwhilst": 8824,
      "Ġascri": 8825,
      "Ġascertain": 8826,
      "although": 8827,
      "Ġwithdrew": 8828,
      "adding": 8829,
      "Ġforb": 8830,
      "Ġforci": 8831,
      "Ġnotwithstanding": 8832,
      "ros": 8833,
      "Ġstated": 8834,
      "Ġstately": 8835,
      "Ġsear": 8836,
      "Ġselected": 8837,
      "Ġherds": 8838,
      "Ġanon": 8839,
      "Ġange": 8840,
      "Ġhadn": 8841,
      "Ġmend": 8842,
      "Ġmeal": 8843,
      "oored": 8844,
      "ammed": 8845,
      "aments": 8846,
      "iller": 8847,
      "lip": 8848,
      "ĠTy": 8849,
      "ĠTuesday": 8850,
      "ĠMid": 8851,
      "ĠMad": 8852,
      "ĠMount": 8853,
      "ĠMeanwhile": 8854,
      "ĠAss": 8855,
      "peak": 8856,
      "ĠSal": 8857,
      "ĠSol": 8858,
      "ĠSag": 8859,
      "ĠSav": 8860,
      "Ġdefic": 8861,
      "Ġdepended": 8862,
      "Ġdexter": 8863,
      "ĠHill": 8864,
      "ĠHark": 8865,
      "thee": 8866,
      "Ġsheets": 8867,
      "rail": 8868,
      "ĠBlan": 8869,
      "ĠBunger": 8870,
      "Ġshipped": 8871,
      "ĠâĢľâĢĶ": 8872,
      "Ġconcluding": 8873,
      "Ġcongreg": 8874,
      "Ġupward": 8875,
      "ousness": 8876,
      "Ġviv": 8877,
      "Ġvault": 8878,
      "esting": 8879,
      "ĠWinc": 8880,
      "unched": 8881,
      "Ġexquis": 8882,
      "Ġrises": 8883,
      "Ġkid": 8884,
      "Ġkissed": 8885,
      "Ġdoll": 8886,
      "Ġorphan": 8887,
      "ĠCal": 8888,
      "Ġunpre": 8889,
      "ums": 8890,
      "umes": 8891,
      "istics": 8892,
      "ĠLee": 8893,
      "ĠLamb": 8894,
      "orts": 8895,
      "Ġknot": 8896,
      "elcome": 8897,
      "Ġabrupt": 8898,
      "pocket": 8899,
      "ĠDes": 8900,
      "ferences": 8901,
      "perfectly": 8902,
      "Ġpreference": 8903,
      "Ġpreliminary": 8904,
      "Ġcanoe": 8905,
      "Ġpropose": 8906,
      "Ġprosec": 8907,
      "ĠPa": 8908,
      "ĠPre": 8909,
      "ĠPat": 8910,
      "ĠPost": 8911,
      "ĠPark": 8912,
      "ĠPresently": 8913,
      "ĠPigeon": 8914,
      "ache": 8915,
      "ĠEgypt": 8916,
      "Ġquiver": 8917,
      "blems": 8918,
      "Ġovercame": 8919,
      "ĠFe": 8920,
      "ĠFive": 8921,
      "beha": 8922,
      "bearing": 8923,
      "Ġrod": 8924,
      "Ġrods": 8925,
      "auld": 8926,
      "Ġusage": 8927,
      "Ġadapt": 8928,
      "Ġarchangel": 8929,
      "ĠGrace": 8930,
      "Ġyelled": 8931,
      "shot": 8932,
      "shore": 8933,
      "Ġdiss": 8934,
      "Ġdisaster": 8935,
      "Ġpermit": 8936,
      "Ġhandful": 8937,
      "Ġremotest": 8938,
      "Ġparting": 8939,
      "everal": 8940,
      "ruding": 8941,
      "Ġbrid": 8942,
      "Ġbrisk": 8943,
      "Ġscore": 8944,
      "ĠOld": 8945,
      "arying": 8946,
      "Ġsmack": 8947,
      "ublished": 8948,
      "Ġdescent": 8949,
      "Ġdesolate": 8950,
      "Ġcontented": 8951,
      "lingly": 8952,
      "Ġtrad": 8953,
      "Ġtrade": 8954,
      "Ġtrowsers": 8955,
      "Ġentail": 8956,
      "ĠRh": 8957,
      "Ġresigned": 8958,
      "Ġbeget": 8959,
      "Ġcoin": 8960,
      "Ġcoils": 8961,
      "Ġrepent": 8962,
      "cili": 8963,
      "Ġfriendly": 8964,
      "Ġimpulse": 8965,
      "means": 8966,
      "measure": 8967,
      "Ġclas": 8968,
      "Ġcloth": 8969,
      "Ġcommotion": 8970,
      "orsham": 8971,
      "Ġsubstant": 8972,
      "Ġloath": 8973,
      "Ġlovers": 8974,
      "Ġappearing": 8975,
      "Ġappet": 8976,
      "Ġsupported": 8977,
      "ĠBennets": 8978,
      "Ġearliest": 8979,
      "ĠKn": 8980,
      "ĠKrem": 8981,
      "Ġcrushed": 8982,
      "Ġsurve": 8983,
      "Ġsurgeon": 8984,
      "proud": 8985,
      "Ġhardy": 8986,
      "Ġhearty": 8987,
      "Ġaddition": 8988,
      "egone": 8989,
      "Ġwaved": 8990,
      "Ġcurt": 8991,
      "Ġdraught": 8992,
      "Ġinterview": 8993,
      "Ġinval": 8994,
      "Ġstranded": 8995,
      "Ġstricken": 8996,
      "Ġsteak": 8997,
      "Ġstepping": 8998,
      "grim": 8999,
      "untary": 9000,
      "Ġtechn": 9001,
      "Ġsunset": 9002,
      "author": 9003,
      "Ġcorrid": 9004,
      "Ġadvis": 9005,
      "Ġadvantages": 9006,
      "Ġinsist": 9007,
      "Ġinscr": 9008,
      "ogn": 9009,
      "Ġhomeward": 9010,
      "Ġswells": 9011,
      "ieties": 9012,
      "Ġguarded": 9013,
      "ahit": 9014,
      "proceed": 9015,
      "Ġforest": 9016,
      "party": 9017,
      "apple": 9018,
      "Ġillustr": 9019,
      "Ġirr": 9020,
      "Ġirregular": 9021,
      "ifications": 9022,
      "Ġfearless": 9023,
      "discover": 9024,
      "disposition": 9025,
      "Ġspiritual": 9026,
      "Ġfuriously": 9027,
      "Ġdischar": 9028,
      "Ġhonoured": 9029,
      "Ġfortitude": 9030,
      "Ġcharged": 9031,
      "Ġsyllable": 9032,
      "formation": 9033,
      "Ġfishing": 9034,
      "Ġequator": 9035,
      "Ġstrip": 9036,
      "ugged": 9037,
      "Ġexcitement": 9038,
      "Ġpolite": 9039,
      "chains": 9040,
      "ĠNantucketers": 9041,
      "Ġsolve": 9042,
      "Ġsolution": 9043,
      "contro": 9044,
      "Ġmentioning": 9045,
      "Ġaffright": 9046,
      "Ġspermaceti": 9047,
      "Ġsupernatural": 9048,
      "Ġcelest": 9049,
      "Ġvaliant": 9050,
      "Ġstraits": 9051,
      "Ġoblique": 9052,
      "stricken": 9053,
      "Ġelements": 9054,
      "Ġdetermination": 9055,
      "Ġproceeding": 9056,
      "Ġproceedings": 9057,
      "Ġmagnet": 9058,
      "Ġsolely": 9059,
      "Ġflee": 9060,
      "Ġsnapped": 9061,
      "Ġstudying": 9062,
      "ĠBeau": 9063,
      "Ġcontrad": 9064,
      "Ġmortals": 9065,
      "olutely": 9066,
      "Ġcryst": 9067,
      "Ġpitiable": 9068,
      "Ġbounds": 9069,
      "Ġsavages": 9070,
      "Ġsupposition": 9071,
      "fortunately": 9072,
      "Ġvainly": 9073,
      "sailors": 9074,
      "Ġburnt": 9075,
      "Ġoccupation": 9076,
      "Ġstraightway": 9077,
      "Ġsuccessful": 9078,
      "Ġremainder": 9079,
      "cheer": 9080,
      "trouble": 9081,
      "thoughts": 9082,
      "Ġswiftness": 9083,
      "drawn": 9084,
      "itzerland": 9085,
      "carriage": 9086,
      "Ġpalp": 9087,
      "Ġmassive": 9088,
      "Ġpaying": 9089,
      "Ġshutters": 9090,
      "Ġrecollect": 9091,
      "Ġimprobable": 9092,
      "Ġincrease": 9093,
      "Ġsolemnity": 9094,
      "Ġmildness": 9095,
      "colour": 9096,
      "visible": 9097,
      "Ġdevote": 9098,
      "Ġvirtues": 9099,
      "backed": 9100,
      "Ġattentively": 9101,
      "Ġentreated": 9102,
      "ĠĠĠĠĠĠĠĠĠĠĠĠĠĠĠĠĠĠĠĠĠĠĠĠĠĠĠĠĠĠĠĠĠĠĠĠĠĠĠĠĠĠĠĠĠ": 9103,
      "ĠĠĠĠĠĠĠĠĠĠĠĠĠĠĠĠĠĠĠĠĠĠĠĠĠĠĠĠĠĠĠĠĠĠĠĠĠĠĠĠĠĠĠĠĠĠ": 9104,
      "Ġmagnificent": 9105,
      "Ġpunch": 9106,
      "Ġpunishment": 9107,
      "Ġstrove": 9108,
      "Ġmoonlight": 9109,
      "suppose": 9110,
      "Ġcourtesy": 9111,
      "ography": 9112,
      "Ġengagements": 9113,
      "Ġprospects": 9114,
      "pointed": 9115,
      "Ġtongs": 9116,
      "Before": 9117,
      "Ġwrecked": 9118,
      "Ġmovement": 9119,
      "Ġweakness": 9120,
      "modore": 9121,
      "Ġrevolved": 9122,
      "Ġrevolving": 9123,
      "Ġardent": 9124,
      "ocation": 9125,
      "Ġsoothed": 9126,
      "ĠDerick": 9127,
      "Alas": 9128,
      "Ġamazing": 9129,
      "Ġjeopard": 9130,
      "ĠĠĠĠĠĠĠĠĠĠĠĠĠĠĠĠĠĠĠĠĠĠĠĠĠĠĠĠ": 9131,
      "general": 9132,
      "Ġdeclined": 9133,
      "Ġprotect": 9134,
      "Ġstruggled": 9135,
      "murder": 9136,
      "Ġpacked": 9137,
      "Ġconvey": 9138,
      "Ġexcessive": 9139,
      "Ġmethods": 9140,
      "ezes": 9141,
      "Ġrelationship": 9142,
      "believed": 9143,
      "Ġharmless": 9144,
      "Ġswallow": 9145,
      "Ġincredulous": 9146,
      "purpose": 9147,
      "oresby": 9148,
      "Ġprotested": 9149,
      "satisfaction": 9150,
      "darkness": 9151,
      "silent": 9152,
      "Ġascend": 9153,
      "Ġvexed": 9154,
      "promised": 9155,
      "Ġconjectured": 9156,
      "Ġreminded": 9157,
      "Ġentertained": 9158,
      "Ġconsciousness": 9159,
      "superior": 9160,
      "Ġassurances": 9161,
      "close": 9162,
      "Ġberth": 9163,
      "Ġhesitated": 9164,
      "Ġelope": 9165,
      "temper": 9166,
      "Ġcoolly": 9167,
      "Ġmeasures": 9168,
      "Ġmeasured": 9169,
      "discovered": 9170,
      "Ġbarbaric": 9171,
      "Ġclapped": 9172,
      "Ġhemp": 9173,
      "escension": 9174,
      "Ġpropriet": 9175,
      "Ġpropriety": 9176,
      "Ġpeeped": 9177,
      "ĠAmong": 9178,
      "Ġproposal": 9179,
      "Ġaccursed": 9180,
      "Ġpirates": 9181,
      "stitious": 9182,
      "Ġarranged": 9183,
      "neighbourhood": 9184,
      "Ġperpendicular": 9185,
      "resolved": 9186,
      "Ġcalculated": 9187,
      "Ġembraced": 9188,
[...]
